{
  "version": "1.0",
  "truncation": null,
  "padding": null,
  "added_tokens": [
    {
      "id": 0,
      "content": "<|pad|>",
      "single_word": false,
      "lstrip": false,
      "rstrip": false,
      "normalized": false,
      "special": true
    },
    {
      "id": 1,
      "content": "<|endofprompt|>",
      "single_word": false,
      "lstrip": false,
      "rstrip": false,
      "normalized": false,
      "special": true
    },
    {
      "id": 2,
      "content": "<|endoftext|>",
      "single_word": false,
      "lstrip": false,
      "rstrip": false,
      "normalized": false,
      "special": true
    }
  ],
  "normalizer": {
    "type": "NFKC"
  },
  "pre_tokenizer": {
    "type": "ByteLevel",
    "add_prefix_space": false,
    "trim_offsets": true,
    "use_regex": true
  },
  "post_processor": {
    "type": "ByteLevel",
    "add_prefix_space": true,
    "trim_offsets": true,
    "use_regex": true
  },
  "decoder": {
    "type": "ByteLevel",
    "add_prefix_space": true,
    "trim_offsets": true,
    "use_regex": true
  },
  "model": {
    "type": "BPE",
    "dropout": null,
    "unk_token": null,
    "continuing_subword_prefix": null,
    "end_of_word_suffix": null,
    "fuse_unk": false,
    "byte_fallback": false,
    "vocab": {
      "<|pad|>": 0,
      "<|endofprompt|>": 1,
      "<|endoftext|>": 2,
      "!": 3,
      "\"": 4,
      "#": 5,
      "$": 6,
      "%": 7,
      "&": 8,
      "'": 9,
      "(": 10,
      ")": 11,
      "*": 12,
      "+": 13,
      ",": 14,
      "-": 15,
      ".": 16,
      "/": 17,
      "0": 18,
      "1": 19,
      "2": 20,
      "3": 21,
      "4": 22,
      "5": 23,
      "6": 24,
      "7": 25,
      "8": 26,
      "9": 27,
      ":": 28,
      ";": 29,
      "<": 30,
      "=": 31,
      ">": 32,
      "?": 33,
      "@": 34,
      "A": 35,
      "B": 36,
      "C": 37,
      "D": 38,
      "E": 39,
      "F": 40,
      "G": 41,
      "H": 42,
      "I": 43,
      "J": 44,
      "K": 45,
      "L": 46,
      "M": 47,
      "N": 48,
      "O": 49,
      "P": 50,
      "Q": 51,
      "R": 52,
      "S": 53,
      "T": 54,
      "U": 55,
      "V": 56,
      "W": 57,
      "X": 58,
      "Y": 59,
      "Z": 60,
      "[": 61,
      "\\": 62,
      "]": 63,
      "^": 64,
      "_": 65,
      "`": 66,
      "a": 67,
      "b": 68,
      "c": 69,
      "d": 70,
      "e": 71,
      "f": 72,
      "g": 73,
      "h": 74,
      "i": 75,
      "j": 76,
      "k": 77,
      "l": 78,
      "m": 79,
      "n": 80,
      "o": 81,
      "p": 82,
      "q": 83,
      "r": 84,
      "s": 85,
      "t": 86,
      "u": 87,
      "v": 88,
      "w": 89,
      "x": 90,
      "y": 91,
      "z": 92,
      "{": 93,
      "|": 94,
      "}": 95,
      "~": 96,
      "¡": 97,
      "¢": 98,
      "£": 99,
      "¤": 100,
      "¥": 101,
      "¦": 102,
      "§": 103,
      "¨": 104,
      "©": 105,
      "ª": 106,
      "«": 107,
      "¬": 108,
      "®": 109,
      "¯": 110,
      "°": 111,
      "±": 112,
      "²": 113,
      "³": 114,
      "´": 115,
      "µ": 116,
      "¶": 117,
      "·": 118,
      "¸": 119,
      "¹": 120,
      "º": 121,
      "»": 122,
      "¼": 123,
      "½": 124,
      "¾": 125,
      "¿": 126,
      "À": 127,
      "Á": 128,
      "Â": 129,
      "Ã": 130,
      "Ä": 131,
      "Å": 132,
      "Æ": 133,
      "Ç": 134,
      "È": 135,
      "É": 136,
      "Ê": 137,
      "Ë": 138,
      "Ì": 139,
      "Í": 140,
      "Î": 141,
      "Ï": 142,
      "Ð": 143,
      "Ñ": 144,
      "Ò": 145,
      "Ó": 146,
      "Ô": 147,
      "Õ": 148,
      "Ö": 149,
      "×": 150,
      "Ø": 151,
      "Ù": 152,
      "Ú": 153,
      "Û": 154,
      "Ü": 155,
      "Ý": 156,
      "Þ": 157,
      "ß": 158,
      "à": 159,
      "á": 160,
      "â": 161,
      "ã": 162,
      "ä": 163,
      "å": 164,
      "æ": 165,
      "ç": 166,
      "è": 167,
      "é": 168,
      "ê": 169,
      "ë": 170,
      "ì": 171,
      "í": 172,
      "î": 173,
      "ï": 174,
      "ð": 175,
      "ñ": 176,
      "ò": 177,
      "ó": 178,
      "ô": 179,
      "õ": 180,
      "ö": 181,
      "÷": 182,
      "ø": 183,
      "ù": 184,
      "ú": 185,
      "û": 186,
      "ü": 187,
      "ý": 188,
      "þ": 189,
      "ÿ": 190,
      "Ā": 191,
      "ā": 192,
      "Ă": 193,
      "ă": 194,
      "Ą": 195,
      "ą": 196,
      "Ć": 197,
      "ć": 198,
      "Ĉ": 199,
      "ĉ": 200,
      "Ċ": 201,
      "ċ": 202,
      "Č": 203,
      "č": 204,
      "Ď": 205,
      "ď": 206,
      "Đ": 207,
      "đ": 208,
      "Ē": 209,
      "ē": 210,
      "Ĕ": 211,
      "ĕ": 212,
      "Ė": 213,
      "ė": 214,
      "Ę": 215,
      "ę": 216,
      "Ě": 217,
      "ě": 218,
      "Ĝ": 219,
      "ĝ": 220,
      "Ğ": 221,
      "ğ": 222,
      "Ġ": 223,
      "ġ": 224,
      "Ģ": 225,
      "ģ": 226,
      "Ĥ": 227,
      "ĥ": 228,
      "Ħ": 229,
      "ħ": 230,
      "Ĩ": 231,
      "ĩ": 232,
      "Ī": 233,
      "ī": 234,
      "Ĭ": 235,
      "ĭ": 236,
      "Į": 237,
      "į": 238,
      "İ": 239,
      "ı": 240,
      "Ĳ": 241,
      "ĳ": 242,
      "Ĵ": 243,
      "ĵ": 244,
      "Ķ": 245,
      "ķ": 246,
      "ĸ": 247,
      "Ĺ": 248,
      "ĺ": 249,
      "Ļ": 250,
      "ļ": 251,
      "Ľ": 252,
      "ľ": 253,
      "Ŀ": 254,
      "ŀ": 255,
      "Ł": 256,
      "ł": 257,
      "Ń": 258,
      "Ġì": 259,
      "ìĿ": 260,
      "Ġë": 261,
      "íķ": 262,
      "Ġê": 263,
      "ìĹ": 264,
      "ëĭ": 265,
      "Ġí": 266,
      "ìĿ´": 267,
      "ìĿĺ": 268,
      "ëĭ¤": 269,
      "ìĹĲ": 270,
      "ê³": 271,
      "ìĦ": 272,
      "ëĬ": 273,
      "ë¡": 274,
      "ëĬĶ": 275,
      "ìł": 276,
      "ê°": 277,
      "ë¡ľ": 278,
      "ìŀ": 279,
      "êµ": 280,
      "ĠìĿ": 281,
      "ëħ": 282,
      "íķĺ": 283,
      "ë¦": 284,
      "ì§": 285,
      "ëħĦ": 286,
      "ìĭ": 287,
      "ë¥": 288,
      "ìľ": 289,
      "ìĿĦ": 290,
      "íķľ": 291,
      "Ġìŀ": 292,
      "Ĥ¬": 293,
      "ĮĢ": 294,
      "ìĬ": 295,
      "ëı": 296,
      "ìķ": 297,
      "¸°": 298,
      "Ġ1": 299,
      "ìĽ": 300,
      "Ġìł": 301,
      "ë¦¬": 302,
      "ê³ł": 303,
      "ëĵ": 304,
      "ê°Ģ": 305,
      "ìĦľ": 306,
      "ìĬ¤": 307,
      "ìĿĢ": 308,
      "ìļ": 309,
      "ì§Ģ": 310,
      "Ġê°": 311,
      "Ġë°": 312,
      "Ġ2": 313,
      "ĠìĹ": 314,
      "ê¸°": 315,
      "Ġìķ": 316,
      "Īëĭ¤": 317,
      "ĠìĦ": 318,
      "ìľ¼": 319,
      "ìĺ": 320,
      "Īĺ": 321,
      "ĠìĿ´": 322,
      "ìĸ": 323,
      "ëĤ": 324,
      "ë§": 325,
      "ë¥¼": 326,
      "Ŀ¼": 327,
      "ê²": 328,
      "ë¶": 329,
      "ëıĦ": 330,
      "ìĭľ": 331,
      "ëł": 332,
      "£¼": 333,
      "ìĿ¸": 334,
      "ëĿ¼": 335,
      "ìĿ¼": 336,
      "Ġìĭ": 337,
      "ë°": 338,
      "ë©": 339,
      "Ġë§": 340,
      "Ġê²": 341,
      "êµŃ": 342,
      "ìĤ¬": 343,
      "ìĥ": 344,
      "Ġìĺ": 345,
      "ì¹": 346,
      "ëĲ": 347,
      "ëĮĢ": 348,
      "ìľ¼ë¡ľ": 349,
      "ìŀĲ": 350,
      "·¸": 351,
      "ëŀ": 352,
      "ìĸ´": 353,
      "ìĻ": 354,
      "ìĹĲìĦľ": 355,
      "Ġê³": 356,
      "íĻ": 357,
      "ë³": 358,
      "ë¯": 359,
      "ë¬": 360,
      "ë¶Ģ": 361,
      "Ġì§": 362,
      "ìĽĶ": 363,
      "ĠìĤ¬": 364,
      "ìķĦ": 365,
      "íķ´": 366,
      "ãĢ": 367,
      "Ġêµ": 368,
      "ĠëĮĢ": 369,
      "ĠĊ": 370,
      "Ġëĭ": 371,
      "íĸ": 372,
      "ê³¼": 373,
      "íĺ": 374,
      "Ġ(": 375,
      "íĬ": 376,
      "Ġ20": 377,
      "íķĻ": 378,
      "ëĤĺ": 379,
      "Ġìľ": 380,
      "ì£¼": 381,
      "ìĪĺ": 382,
      "Ġëı": 383,
      "ë²": 384,
      "ĠëĤ": 385,
      "ëª": 386,
      "ì²": 387,
      "íĥ": 388,
      "Ġë³": 389,
      "êµ¬": 390,
      "íĬ¸": 391,
      "ìĨ": 392,
      "íĻĶ": 393,
      "Ġë¶": 394,
      "ìŀ¥": 395,
      "Ġê·¸": 396,
      "ëĵľ": 397,
      "ìłķ": 398,
      "ëį": 399,
      "Ġ19": 400,
      "ìĽĲ": 401,
      "ëĵ¤": 402,
      "¡°": 403,
      "ìĿ´ëĭ¤": 404,
      "Ġëª": 405,
      "ëĲĺ": 406,
      "¹Ħ": 407,
      "ìĻĢ": 408,
      "ìĥģ": 409,
      "ëŁ": 410,
      "ìłĦ": 411,
      "Ġì¶": 412,
      "ìĦ±": 413,
      "¤ĳ": 414,
      "ļĮ": 415,
      "Ġìĭľ": 416,
      "ĠìĪĺ": 417,
      "êµĲ": 418,
      "ĠìķĦ": 419,
      "ìłģ": 420,
      "ìļ°": 421,
      "Ġì§Ģ": 422,
      "Ġê¸°": 423,
      "Ġê°Ģ": 424,
      "20": 425,
      "Ġ-": 426,
      "íĶ": 427,
      "Ġìłľ": 428,
      "ëıĻ": 429,
      "ĠìłĦ": 430,
      "´Ģ": 431,
      "ë¥´": 432,
      "íĦ": 433,
      "ìłľ": 434,
      "ģ¬": 435,
      "ìĹĪëĭ¤": 436,
      "íļĮ": 437,
      "ê²Į": 438,
      "ìĤ": 439,
      "Ġìĥ": 440,
      "Ġëĵ": 441,
      "ìĺĢ": 442,
      "ĠìŀĪ": 443,
      "ì¹ĺ": 444,
      "ë§Ī": 445,
      "ì°": 446,
      "íĨ": 447,
      "19": 448,
      "Ġìļ": 449,
      "ë©°": 450,
      "ë¯¼": 451,
      "Ġíķĺ": 452,
      "ĠìĨ": 453,
      "Ġíĺ": 454,
      "ìĹ¬": 455,
      "Ġë¬": 456,
      "ĽĦ": 457,
      "íĦ°": 458,
      "ĠìĬ": 459,
      "Ġë¯": 460,
      "ë¯¸": 461,
      "ë£": 462,
      "ĠìĦł": 463,
      "ĠíĻ": 464,
      "Ġìłķ": 465,
      "Ġíķľ": 466,
      "Ġëĭ¤": 467,
      "Ġì²": 468,
      "Ġ3": 469,
      "ëĭĪ": 470,
      "íģ¬": 471,
      "ĠìĿ¼": 472,
      "ìĦł": 473,
      "Ġìĺģ": 474,
      "ë¬¸": 475,
      "ĠíĶ": 476,
      "Ġë²": 477,
      "ë©´": 478,
      "ĠìŀĪëĭ¤": 479,
      "ëªħ": 480,
      "íĮ": 481,
      "ìĹŃ": 482,
      "Ġì¤ĳ": 483,
      "Ġë³´": 484,
      "ë§Į": 485,
      "ìĭł": 486,
      "Ġíķ": 487,
      "ë¹Ħ": 488,
      "ìļ©": 489,
      "ëłĪ": 490,
      "ê³Ħ": 491,
      "±°": 492,
      "Ġê³µ": 493,
      "íĥĢ": 494,
      "ĠìŀĲ": 495,
      "Ġ:": 496,
      "ĠìĿ¸": 497,
      "Ġì£¼": 498,
      "ĠìĹŃ": 499,
      "Ġìĸ": 500,
      "ê¸": 501,
      "Ġê²½": 502,
      "Ġíı": 503,
      "ìĦ¸": 504,
      "ìľĦ": 505,
      "ĠãĢ": 506,
      "íı": 507,
      "Ġì°": 508,
      "Ġ201": 509,
      "Ġìľł": 510,
      "ìĺ¤": 511,
      "ìĤ°": 512,
      "Ġë¯¸": 513,
      "ëĲľ": 514,
      "ì¹´": 515,
      "ì¡°": 516,
      "íķĺìĺĢ": 517,
      "ìĨĮ": 518,
      "ì¶": 519,
      "íķĺëĬĶ": 520,
      "êµŃìĿĺ": 521,
      "íĸĪëĭ¤": 522,
      "ĠëıĻ": 523,
      "ê³µ": 524,
      "ì¦": 525,
      "ëŁ¬": 526,
      "êµ°": 527,
      "½Ķ": 528,
      "ĠìľĦ": 529,
      "ì§Ħ": 530,
      "ãĢĭ": 531,
      "Ġê²ĥ": 532,
      "ë³´": 533,
      "íĤ": 534,
      "Ġ200": 535,
      "ëĦ": 536,
      "ê·¸": 537,
      "Ġë¶Ģ": 538,
      "Ġì¹": 539,
      "Ġë§Ī": 540,
      "ĠëĲ": 541,
      "ìĹ°": 542,
      "ê²½": 543,
      "Ġíĥ": 544,
      "íķĻêµĲ": 545,
      "ĠíĮ": 546,
      "ê´Ģ": 547,
      "Ġìĺ¤": 548,
      "ĠìĻ": 549,
      "Ġì¡°": 550,
      "ĠìĬ¤": 551,
      "ĠìĹ°": 552,
      "ìĥĿ": 553,
      "Ġê°ľ": 554,
      "¢ħ": 555,
      "ĠìĨĮ": 556,
      "íĭ": 557,
      "ìŀ¬": 558,
      "ìĭĿ": 559,
      "ĠëĤĺ": 560,
      "Ġëĵ±": 561,
      "ìĺģ": 562,
      "ĶĶ": 563,
      "ĠãĢĬ": 564,
      "ĠìĽ": 565,
      "íĶĦ": 566,
      "Ġì¶ľ": 567,
      "íķĺê³ł": 568,
      "íĺ¸": 569,
      "ĠêµŃ": 570,
      "Ġëį": 571,
      "Ġëª¨": 572,
      "Ġ4": 573,
      "ê°Ħ": 574,
      "ĠëıĦ": 575,
      "ìĿĮ": 576,
      "Ġê³ł": 577,
      "ĠìĿĺ": 578,
      "ĠìĹ¬": 579,
      "ë³¸": 580,
      "ëĭ¨": 581,
      "íĤ¤": 582,
      "Ġêµ¬": 583,
      "ëĭ¹": 584,
      "Ġë°ľ": 585,
      "ì²´": 586,
      "ìŀĳ": 587,
      "ìĹħ": 588,
      "ê·": 589,
      "ë¬´": 590,
      "er": 591,
      "ê°ģ": 592,
      "ĠíĶĦ": 593,
      "ĳľ": 594,
      "íķĺìĺĢëĭ¤": 595,
      "ĠíĨ": 596,
      "ê°ľ": 597,
      "ì¡": 598,
      "ìľł": 599,
      "íİ": 600,
      "íĸī": 601,
      "íķĺìĹ¬": 602,
      "ĠìĦľ": 603,
      "ë¬¼": 604,
      "ìĹĪ": 605,
      "íķľëĭ¤": 606,
      "ĠìĦ¸": 607,
      "ìķ¼": 608,
      "ŀĪ": 609,
      "íķľë¯¼": 610,
      "Ġë¹Ħ": 611,
      "ëį°": 612,
      "Ġëħ": 613,
      "Ġ5": 614,
      "Ġìĭł": 615,
      "´Ī": 616,
      "íĨł": 617,
      "ĳĲ": 618,
      "Ġìĥģ": 619,
      "ìŀĦ": 620,
      "íĽĦ": 621,
      "âĢ": 622,
      "ê±°": 623,
      "ë°ĺ": 624,
      "ķĮ": 625,
      "ë°©": 626,
      "¸Į": 627,
      "ìĪ": 628,
      "ë£¨": 629,
      "ìľ¼ë©°": 630,
      "ĠìĦ±": 631,
      "ìļ´": 632,
      "ê¹": 633,
      "±´": 634,
      "ëĲĺìĹĪëĭ¤": 635,
      "ĠìĤ": 636,
      "ĠíĽĦ": 637,
      "ëŀĺ": 638,
      "ì°¨": 639,
      "ìķĪ": 640,
      "ëł¥": 641,
      "Ġê´Ģ": 642,
      "an": 643,
      "Ġë°°": 644,
      "ìĻ¸": 645,
      "Ġíĸ": 646,
      "ìļĶ": 647,
      "ĠìĦłìĪĺ": 648,
      "ì½Ķ": 649,
      "in": 650,
      "ìĹĲëĬĶ": 651,
      "ëĶĶ": 652,
      "ĠS": 653,
      "Ġíķ´": 654,
      "ĠìĺģíĻĶ": 655,
      "on": 656,
      "íħ": 657,
      "ëł¤": 658,
      "íķł": 659,
      "µľ": 660,
      "00": 661,
      "ëŀĮ": 662,
      "ĠëĤ¨": 663,
      "ì¤ĳ": 664,
      "ĠêµĲ": 665,
      "Ġê¹": 666,
      "Ġìŀĳ": 667,
      "ëįĺ": 668,
      "ĠëĲĺ": 669,
      "ë¡Ŀ": 670,
      "201": 671,
      "ëħ¸": 672,
      "ëª¨": 673,
      "Ġ~": 674,
      "íı¬": 675,
      "ì¦Ī": 676,
      "íĨµ": 677,
      "ë²Ħ": 678,
      "ĠëķĮ": 679,
      "Ġë°©": 680,
      "íĭ°": 681,
      "ìĸĳ": 682,
      "íĺĦ": 683,
      "ë¦½": 684,
      "Ġ6": 685,
      "ìĨį": 686,
      "ë°Ķ": 687,
      "ì¢ħ": 688,
      "ĠíĬ": 689,
      "ë¶Ħ": 690,
      "Ġìŀ¥": 691,
      "¶Į": 692,
      "Ġë¬¸": 693,
      "íŀĪ": 694,
      "íĴ": 695,
      "ĠìŀĪëĬĶ": 696,
      "Ġë¦": 697,
      "Ġë©": 698,
      "Ġìļ°": 699,
      "ìħ": 700,
      "Ġë¬´": 701,
      "ì¸": 702,
      "Ġë°Ķ": 703,
      "íĳľ": 704,
      "Ġê¸": 705,
      "ë¶ĢíĦ°": 706,
      "Ġ7": 707,
      "Ī¬": 708,
      "Ġëħ¸": 709,
      "Ġê¹Ģ": 710,
      "íĮĮ": 711,
      "Ġì¶ķ": 712,
      "ëĵ±": 713,
      "ê¹Į": 714,
      "ë²ķ": 715,
      "ĠM": 716,
      "íĹ": 717,
      "Ġ8": 718,
      "ĠìĤ¬ëŀĮ": 719,
      "Ġìµľ": 720,
      "ĠíĺĦ": 721,
      "Ġ199": 722,
      "ëĤ¨": 723,
      "Ġ10": 724,
      "Ġíı¬": 725,
      "200": 726,
      "ĺĲ": 727,
      "´ĳ": 728,
      "ĠíĨµ": 729,
      "Ġë§Į": 730,
      "Ġë¦¬": 731,
      "ë¥¸": 732,
      "Ġíİ": 733,
      "Ġê·": 734,
      "ĠìķĬ": 735,
      "íĸĪ": 736,
      "ì§Ģë§Į": 737,
      "¤Ģ": 738,
      "Ġë¡": 739,
      "ĠC": 740,
      "ĠëĤ´": 741,
      "Ġ9": 742,
      "Ġê²°": 743,
      "Ġì§Ħ": 744,
      "íĺķ": 745,
      "ë¦°": 746,
      "Ġìĸ´": 747,
      "Â·": 748,
      "ë©Ķ": 749,
      "Ġ\"": 750,
      "ëŀĢ": 751,
      "ĠëĶ": 752,
      "ì¿": 753,
      "ìĬ¤íĬ¸": 754,
      "Ġê±°": 755,
      "ì¶ľ": 756,
      "en": 757,
      "ì¼": 758,
      "ìĦ¤": 759,
      "or": 760,
      "ĠT": 761,
      "ìĬ¹": 762,
      "ì²ľ": 763,
      "ìĹĲê²Į": 764,
      "Ġì¶ķêµ¬": 765,
      "ĠA": 766,
      "al": 767,
      "ĠëĺĲ": 768,
      "ar": 769,
      "ë¸Į": 770,
      "ìĭ¤": 771,
      "ëŀĳ": 772,
      "ĠìĽĲ": 773,
      "ê¹Įì§Ģ": 774,
      "Ġê°ķ": 775,
      "ëĤ´": 776,
      "ë°ľ": 777,
      "íķ©": 778,
      "ĠìĥĿ": 779,
      "ìķĺ": 780,
      "),": 781,
      "íķľë¯¼êµŃìĿĺ": 782,
      "Ġë§ģ": 783,
      "ĠìĦ¤": 784,
      "ĠìĿĮ": 785,
      "ĠíĮĮ": 786,
      "ëıħ": 787,
      "Ġê°Ļ": 788,
      "Ġë§ģíģ¬": 789,
      "ê²©": 790,
      "íĴĪ": 791,
      "ìĻ¸ë¶Ģ": 792,
      "ìĨ¡": 793,
      "Ġë¶Ī": 794,
      "Ġë¶Ħ": 795,
      "ìĿ´ëĿ¼": 796,
      "ĠìĹĲ": 797,
      "ìłĲ": 798,
      "ì»": 799,
      "ĠìķĮ": 800,
      "ĠëĦ": 801,
      "ìłģìĿ¸": 802,
      "Ġ12": 803,
      "ê¶Į": 804,
      "Ġëĭ¹": 805,
      "at": 806,
      "ìłģìľ¼ë¡ľ": 807,
      "ìļ¸": 808,
      "ì§ģ": 809,
      "ĠĠ": 810,
      "Ġë°ĺ": 811,
      "ëł¹": 812,
      "íĥľ": 813,
      "ì²Ń": 814,
      "ë¦¬ìķĦ": 815,
      "ëĦ¤": 816,
      "Ġ'": 817,
      "ĠíĹ": 818,
      "Ġë¡ľ": 819,
      "ĠìķĪ": 820,
      "ì´Ī": 821,
      "ìĪł": 822,
      "Ġê³Ħ": 823,
      "´Ŀ": 824,
      "es": 825,
      "íĶ¼": 826,
      "ĠíĶĦë¡ľ": 827,
      "ë¥ĺ": 828,
      "ĠìĹĨ": 829,
      "Ġë°ı": 830,
      "Ġëªħ": 831,
      "Ġëĭ¨": 832,
      "íĿ": 833,
      "ĠF": 834,
      "ê°ģì£¼": 835,
      "Ġì¹´": 836,
      "ë£Į": 837,
      "Ġìĭ¤": 838,
      "ĠìĤ¬ìļ©": 839,
      "ìĦĿ": 840,
      "ëĲĺìĸ´": 841,
      "ê±´": 842,
      "Ġìŀ¬": 843,
      "ĠìĿ¼ë³¸": 844,
      "ĠëĿ¼": 845,
      "Ġ11": 846,
      "ĠëĶ°": 847,
      "Ġì°¨": 848,
      "ĠìĺĪ": 849,
      "íĮĲ": 850,
      "Ġë§Ĳ": 851,
      "ëĳĲ": 852,
      "Ġê°Ĳ": 853,
      "Ġì½Ķ": 854,
      "Ġì°¸": 855,
      "ê°ķ": 856,
      "íķ¨": 857,
      "ĠìļĶ": 858,
      "íħĮ": 859,
      "ë¨": 860,
      "Ġëł": 861,
      "ê¸ī": 862,
      "ì¡±": 863,
      "ĠĊĠĊ": 864,
      "ë¦Ħ": 865,
      "íİĺ": 866,
      "Ġëį°": 867,
      "ë¦¼": 868,
      "ë²Ī": 869,
      "ĠëĳĲ": 870,
      "ë¡ł": 871,
      "Ġíķ¨": 872,
      "Ġíħ": 873,
      "Ġì¡": 874,
      "ĠB": 875,
      "ĠP": 876,
      "ì¤Ģ": 877,
      "ì¿ł": 878,
      "Ġë°Ľ": 879,
      "ĠíĬ¹": 880,
      "ĠíĥĢ": 881,
      "ë²ł": 882,
      "he": 883,
      "ĠâĢ": 884,
      "Ġ198": 885,
      "Ġ18": 886,
      "Ġêµ°": 887,
      "ë§¤": 888,
      "ĠëłĪ": 889,
      "ì£¼ìĿĺ": 890,
      "ëĵ¤ìĿ´": 891,
      "ê³¡": 892,
      "Ġì¢ħ": 893,
      "íĪ¬": 894,
      "Ġì´Ī": 895,
      "ĊĊ": 896,
      "ìĹĲìĦľëĬĶ": 897,
      "íķŃ": 898,
      "ë©´ìĦľ": 899,
      "ê¸Ī": 900,
      "ĠëĨ": 901,
      "ìħĺ": 902,
      "ģ´": 903,
      "Ġë°°ìļ°": 904,
      "íķĺê¸°": 905,
      "Ġê²Į": 906,
      "ë³Ħ": 907,
      "ëħĦìĹĲ": 908,
      "ìĭ¬": 909,
      "Ġíķľëĭ¤": 910,
      "st": 911,
      "ì¸ł": 912,
      "ìŀħ": 913,
      "ëĵ¤ìĿĢ": 914,
      "ĠëįĶ": 915,
      "ìķħ": 916,
      "Ġëĵľ": 917,
      "ic": 918,
      "ë§Ŀ": 919,
      "Ġë¹": 920,
      "Ġìĺ¬": 921,
      "199": 922,
      "it": 923,
      "Ġì¦": 924,
      "íķĺê²Į": 925,
      "ìĤ´": 926,
      "Ġëª©": 927,
      "ĠD": 928,
      "ëŀľ": 929,
      "ĠìĿ´íĽĦ": 930,
      "BS": 931,
      "Ġê±´": 932,
      "le": 933,
      "ê´ĳ": 934,
      "ì§Ī": 935,
      "Ġìļ´": 936,
      "ĠK": 937,
      "Ġëıħ": 938,
      "Ġì¶Ķ": 939,
      "ìĸ¸": 940,
      "ìķ½": 941,
      "Ġíĸī": 942,
      "ĠìĻ¸": 943,
      "()": 944,
      "Ġì±": 945,
      "ë³ĳ": 946,
      "Ġë²ł": 947,
      "ĵ°": 948,
      "į¼": 949,
      "ĠëĮĢíķľ": 950,
      "ª½": 951,
      "ĠìĪ": 952,
      "ëĬ¥": 953,
      "´ī": 954,
      "Ġë°ķ": 955,
      "ëĤľ": 956,
      "ĠíĶ¼": 957,
      "Ġë§¤": 958,
      "ëłĪìĿ´": 959,
      "íİ¸": 960,
      "ìĭľìķĦ": 961,
      "Ġë³Ģ": 962,
      "ëĵ±íķĻêµĲ": 963,
      "ĠL": 964,
      "Ġë¯¸êµŃ": 965,
      "Ġìĸĳ": 966,
      "íĸ¥": 967,
      "Ġíĥľ": 968,
      "íķľë¯¼êµŃ": 969,
      "ìķĺëĭ¤": 970,
      "ëĭ¬": 971,
      "Ġìŀħ": 972,
      "ë¹": 973,
      "ë°°": 974,
      "ë¶ģ": 975,
      "Ġíĺ¸": 976,
      "ìĺĪ": 977,
      "ìłĢ": 978,
      "ãĥ": 979,
      "Ġíģ¬": 980,
      "ĠíĻľ": 981,
      "Ġíĺķ": 982,
      "ĠíĿ": 983,
      "ĠíĻĶ": 984,
      "ëł¨": 985,
      "ĠìĤ°": 986,
      "ìľ¡": 987,
      "ê²°": 988,
      "ìĺĢëĭ¤": 989,
      "ĻìĿ´": 990,
      "ãģ": 991,
      "ìª½": 992,
      "ìĻķ": 993,
      "ëª©": 994,
      "ëįĶ": 995,
      "ëŁī": 996,
      "ì§ĳ": 997,
      "ê¸Ģ": 998,
      "Ġíıī": 999,
      "Ġì§ĢìĹŃ": 1000,
      "Ġ)": 1001,
      "ĠI": 1002,
      "ĠíļĮ": 1003,
      "Ġëĭ¤ìĿĮ": 1004,
      "Ġë³¸": 1005,
      "ëĲĺìĹĪ": 1006,
      "ĠìĬ¹": 1007,
      "Ġê³¼": 1008,
      "Ġë§İ": 1009,
      "ìľ¼ëĤĺ": 1010,
      "ëĵł": 1011,
      "ĠìĻķ": 1012,
      "Ġì²ł": 1013,
      "ì²ĺ": 1014,
      "Ġë©Ķ": 1015,
      "Ġì´Ŀ": 1016,
      "ê»": 1017,
      "ì¼Ģ": 1018,
      "¸Ķ": 1019,
      "ro": 1020,
      "ëĲľëĭ¤": 1021,
      "ĠR": 1022,
      "Ġëĭ¤ë¥¸": 1023,
      "ĠìŀĦ": 1024,
      "||": 1025,
      "Łģ": 1026,
      "ĠìľĦíķ´": 1027,
      "Ġë²Ī": 1028,
      "Ġìłģ": 1029,
      "ìĬ¤ìĿĺ": 1030,
      "ì²ł": 1031,
      "ìĦ¸ê¸°": 1032,
      "Ġë³´ê¸°": 1033,
      "ë³µ": 1034,
      "Ġê²½ê¸°": 1035,
      "ìĶ": 1036,
      "ĠìĹ´": 1037,
      "ëĮĢíķľë¯¼êµŃìĿĺ": 1038,
      "ìŁģ": 1039,
      "Ġê°ĻìĿĢ": 1040,
      "ìĿ´ë©°": 1041,
      "ĠëĲĺìĹĪëĭ¤": 1042,
      "ìĽĮ": 1043,
      "ê»ĺ": 1044,
      "ĠëĲľ": 1045,
      "ëĦĪ": 1046,
      "Ġì»": 1047,
      "Ġt": 1048,
      "Ġë¶ģ": 1049,
      "ê°ĻìĿ´": 1050,
      "Ġìĭľìŀĳ": 1051,
      "ĠìŀĳíĴĪ": 1052,
      "..": 1053,
      "Ġìķ¼": 1054,
      "ĠG": 1055,
      "ĠíķĻ": 1056,
      "21": 1057,
      "Ġì¶ľìĥĿ": 1058,
      "Ġ197": 1059,
      "íĻĺ": 1060,
      "ĠH": 1061,
      "íļ": 1062,
      "ëĬĶëį°": 1063,
      "ĠíķľêµŃ": 1064,
      "Ġìº": 1065,
      "ì±": 1066,
      "ëĿ¼ìĿ´": 1067,
      "íıī": 1068,
      "ëĵ¤ìĿĺ": 1069,
      "ì§¸": 1070,
      "Ġíĳľ": 1071,
      "ìŀĪ": 1072,
      "is": 1073,
      "ëŀľëĵľ": 1074,
      "ì¶ķ": 1075,
      "Ġê·¸ë¦¬": 1076,
      "ĠëķĮë¬¸": 1077,
      "Ġë¯¼": 1078,
      "ĠëĮĢíķľë¯¼êµŃ": 1079,
      "ìķł": 1080,
      "·¨": 1081,
      "Ġê°ģ": 1082,
      "ì½": 1083,
      "ëĿ¼ë§Ī": 1084,
      "ĠE": 1085,
      "Ġ15": 1086,
      "ion": 1087,
      "Ġê·¸ëĬĶ": 1088,
      "ëħĢ": 1089,
      "Ġëĭ¬": 1090,
      "Ġë¸Į": 1091,
      "ĠìĤ¬ìĿ´": 1092,
      "Ġíķ¨ê»ĺ": 1093,
      "ìłĪ": 1094,
      "ĠN": 1095,
      "ĠíĨł": 1096,
      "ĠêµŃê°Ģ": 1097,
      "ìł¸": 1098,
      "ë¨¸": 1099,
      "ì¡Į": 1100,
      "ol": 1101,
      "Ġëĵ¤": 1102,
      "Ġíİ¸": 1103,
      "ĠìĨį": 1104,
      "ī´": 1105,
      "ĠëĶ°ëĿ¼": 1106,
      "Ġê°Ħ": 1107,
      "ê·¼": 1108,
      "ëĵ¤ìĿĦ": 1109,
      "íĻ©": 1110,
      "198": 1111,
      "ê·¹": 1112,
      "Ġì¶ľìĭł": 1113,
      "re": 1114,
      "ëĿ¼ëĬĶ": 1115,
      "Ġë¬¼": 1116,
      "ìĺ¨": 1117,
      "íķĺë©°": 1118,
      "íį¼": 1119,
      "íĥĪ": 1120,
      "Ġê²½ìļ°": 1121,
      "ĊĠ": 1122,
      "18": 1123,
      "Ġìķł": 1124,
      "Ġì§ģ": 1125,
      "ĠëĶĶ": 1126,
      "ĠíķŃ": 1127,
      "Ġìķ½": 1128,
      "Ġì²ĺ": 1129,
      "ĠìĥĪ": 1130,
      "Ġê²ĮìŀĦ": 1131,
      "ĠìłĢ": 1132,
      "Ġì§ĳ": 1133,
      "ìĥī": 1134,
      "ĪĦ": 1135,
      "ĠìĦ¸ê³Ħ": 1136,
      "ëĿ¼ê³ł": 1137,
      "Ġ16": 1138,
      "ĠìŀĲìĭł": 1139,
      "ãĤ": 1140,
      "Ġì²´": 1141,
      "Ġì²Ń": 1142,
      "Ġì¡´": 1143,
      "Ġo": 1144,
      "ê°Ĳ": 1145,
      "ë²Ķ": 1146,
      "íķĺëĭ¤": 1147,
      "íķĺì§Ģ": 1148,
      "ĠW": 1149,
      "ì¦Į": 1150,
      "ëıĦìĿĺ": 1151,
      "Ġì²ľ": 1152,
      "Ġê¸°ë¡Ŀ": 1153,
      "ëŁ½": 1154,
      "el": 1155,
      "ĠíĪ¬": 1156,
      "ëĮĢíķĻêµĲ": 1157,
      "ĠìĿ´ë¦Ħ": 1158,
      "ĠëĮĢíķľë¯¼êµŃìĿĺ": 1159,
      "ĶëłĪ": 1160,
      "ìĶ¨": 1161,
      "ac": 1162,
      "Ġ196": 1163,
      "Ġë²ķ": 1164,
      "Ġê´ĳ": 1165,
      "ĠëĬ": 1166,
      "Ġë£": 1167,
      "Ġ||": 1168,
      "íĬ¹": 1169,
      "Ġê¸Ī": 1170,
      "ĠëĺĲëĬĶ": 1171,
      "ìĭľìĿĺ": 1172,
      "Ġì¢": 1173,
      "ìŀĪëĬĶ": 1174,
      "íĹĺ": 1175,
      "ĠíĬ¸": 1176,
      "ä¸": 1177,
      "ìľĦìĽĲ": 1178,
      "ĠíĺĦìŀ¬": 1179,
      "ĠíķĺëĤĺ": 1180,
      "ĠëĺĲíķľ": 1181,
      "ing": 1182,
      "ì°½": 1183,
      "Ġë²Ħ": 1184,
      "ĠìĿĺíķ´": 1185,
      "Ġ17": 1186,
      "ĠíĻķ": 1187,
      "ĠìĹ¬ìŀĲ": 1188,
      "ĠëĴ": 1189,
      "ĠìľĦì¹ĺ": 1190,
      "ou": 1191,
      "Ġëģ": 1192,
      "íĶ½": 1193,
      "ê²¬": 1194,
      "´Į": 1195,
      "ìĿ´ëĤĺ": 1196,
      "Ġê°Ĳëıħ": 1197,
      "ì°¸": 1198,
      "ì³": 1199,
      "Ġë³µ": 1200,
      "ĠìĦľìļ¸": 1201,
      "ìĿ´ìĬ¤": 1202,
      "Ġof": 1203,
      "íĥĦ": 1204,
      "Ġê°Ģìŀ¥": 1205,
      "ìĹ´": 1206,
      "Ġíķ©": 1207,
      "ĠíķĦ": 1208,
      "ĠíŀĪ": 1209,
      "Ġê·¸ëŁ¬": 1210,
      "ĠìłĲ": 1211,
      "íĮĢ": 1212,
      "ĠëķĮë¬¸ìĹĲ": 1213,
      "ë¹ĦìłĦ": 1214,
      "ëŀ¨": 1215,
      "ëĲĺëĬĶ": 1216,
      "ëŁ°": 1217,
      "ìĹĲëıĦ": 1218,
      "ìĿ¼ë³¸": 1219,
      "ë¯¸êµŃìĿĺ": 1220,
      "ì°°": 1221,
      "om": 1222,
      "Ġìĭ¬": 1223,
      "Ġê²ĥìĿĦ": 1224,
      "Ġì¦Ŀ": 1225,
      "ê¸°ëıĦ": 1226,
      "Ġ/": 1227,
      "íĿ¬": 1228,
      "ĠO": 1229,
      "ĠU": 1230,
      "Ķëĭ¤": 1231,
      "ĠìĤ¼": 1232,
      "ĠíĶĮ": 1233,
      "10": 1234,
      "ĠíĮĲ": 1235,
      "Ġë¨": 1236,
      "ĠëĦ¤": 1237,
      "íĶĮ": 1238,
      "Ġìĸ¸": 1239,
      "Ġ14": 1240,
      "ĠìĤ¬ë§Ŀ": 1241,
      "ëĥ": 1242,
      "Ġì½": 1243,
      "ëĦĲ": 1244,
      "ĠëŁ": 1245,
      "ĠëıĻë¬¸": 1246,
      "Ġì°½": 1247,
      "ĠĊĊ": 1248,
      "Ġíİĺ": 1249,
      "£½": 1250,
      "ìĿ´ì§Ģ": 1251,
      "ĽĪ": 1252,
      "ë°ķ": 1253,
      "Ġì¹ĺ": 1254,
      "ig": 1255,
      "ìĽ¨": 1256,
      "ë°±": 1257,
      "ĠíĻ©": 1258,
      "Ġê·¸ìĿĺ": 1259,
      "et": 1260,
      "am": 1261,
      "il": 1262,
      "ìĿ¼ìĹĲ": 1263,
      "ĠëĴ¤": 1264,
      "ĠíĻľëıĻ": 1265,
      "ëĶĶìĺ¤": 1266,
      "ìķĻ": 1267,
      "ĠíĤ": 1268,
      "ĠìĿĮë°ĺ": 1269,
      "ĠëĲľëĭ¤": 1270,
      "ĠíĶĦëŀĳ": 1271,
      "ê·¸ëŀ¨": 1272,
      "ĠìĤ´": 1273,
      "ë¦¬ìĬ¤": 1274,
      "ë¦¬ëĬĶ": 1275,
      "ìĬµ": 1276,
      "BC": 1277,
      "Ġ13": 1278,
      "Ġê²ĥìľ¼ë¡ľ": 1279,
      "ĶëłĪë¹ĦìłĦ": 1280,
      "ìĪľ": 1281,
      "Ġëª»": 1282,
      "Ġë°±": 1283,
      "us": 1284,
      "ëĭĪìķĦ": 1285,
      "Ġì·¨": 1286,
      "ĠJ": 1287,
      "íģ´": 1288,
      "ãĢī": 1289,
      "ĠìŀĪìľ¼ë©°": 1290,
      "ìĿ´ëĿ¼ê³ł": 1291,
      "ĠìĦ¤ë¦½": 1292,
      "Ġì°¸ê°Ģ": 1293,
      "ìĿ´íĬ¸": 1294,
      "ì¹Ń": 1295,
      "ĠìŀĪìĹĪëĭ¤": 1296,
      "Ġíģ´": 1297,
      "Ġê²ĥìĿ´": 1298,
      "å¤": 1299,
      "Ŀ½": 1300,
      "Ġì¶©": 1301,
      "as": 1302,
      "and": 1303,
      "Ġì¡°ìĦł": 1304,
      "Ġë£¨": 1305,
      "ë³Ģ": 1306,
      "ĠìĿĮìķħ": 1307,
      "Ġì²«": 1308,
      "ìĬ¬": 1309,
      "ì¶Ķ": 1310,
      "ê·ľ": 1311,
      "ĠìĻĦ": 1312,
      "ĠëĤ¨ìŀĲ": 1313,
      "Ġìłķì¹ĺ": 1314,
      "ĠíĸĪëĭ¤": 1315,
      "ĠìĽĶ": 1316,
      "ìķĦìŀĪëĬĶ": 1317,
      "ê¸°ë¥¼": 1318,
      "ch": 1319,
      "Ġê·¼": 1320,
      "âĢĻ": 1321,
      "ë¡Ģ": 1322,
      "ĠíĨµíķ´": 1323,
      "ê¸°ìĹĲ": 1324,
      "å®": 1325,
      "Ġ194": 1326,
      "Ġê°Ģì§Ģ": 1327,
      "id": 1328,
      "Ġëĭ¹ìĭľ": 1329,
      "ë´ī": 1330,
      "ë¦¼íĶ½": 1331,
      "Ġìļ©": 1332,
      "197": 1333,
      "Ġìĭľì¦Į": 1334,
      "¤Ħ": 1335,
      "Ġë¦¬ê·¸": 1336,
      "ì¡´": 1337,
      "ëĿ½": 1338,
      "ì¦Ŀ": 1339,
      "ë¶Ī": 1340,
      "ë¦¬ê·¸": 1341,
      "íļĮìĿĺ": 1342,
      "ëĤł": 1343,
      "ãĢĬ": 1344,
      "ì´Į": 1345,
      "Ġë°©ìĨ¡": 1346,
      "ĠíħĶëłĪë¹ĦìłĦ": 1347,
      "íĭĢ": 1348,
      "ĠëıĮ": 1349,
      "Ġíķł": 1350,
      "Ġ195": 1351,
      "ìĵ°": 1352,
      "Ġ0": 1353,
      "ìĤ´ìķĦìŀĪëĬĶ": 1354,
      "ĠíĶĦë¡ľê·¸ëŀ¨": 1355,
      "ĠìķĦìĿ´": 1356,
      "ì¡Įëĭ¤": 1357,
      "ëĬĶëĭ¤": 1358,
      "Ġíļ": 1359,
      "Ġíı¬íķ¨": 1360,
      "ĠíĮ¨": 1361,
      "ĠìĪľ": 1362,
      "ìĿ´ìħĺ": 1363,
      "ĠìĿĢ": 1364,
      "åħ": 1365,
      "ë¦¬ë¥¼": 1366,
      "ë¦Ń": 1367,
      "ëŁ¼": 1368,
      "ì±ħ": 1369,
      "íĻľ": 1370,
      "Ġì¤Ģ": 1371,
      "ĠíħĮ": 1372,
      "ĠëĵľëĿ¼ë§Ī": 1373,
      "ĠëıĦìĭľ": 1374,
      "ëĶ": 1375,
      "ëģ": 1376,
      "ìĬ¨": 1377,
      "Ġìłľìŀĳ": 1378,
      "Ġë¯¸êµŃìĿĺ": 1379,
      "ĠìĹ°êµ¬": 1380,
      "Ġìĵ°": 1381,
      "Ġë³ĳ": 1382,
      "ĠìĿ¼ë¶Ģ": 1383,
      "Ġëľ": 1384,
      "±¸": 1385,
      "Ġê¶Į": 1386,
      "ĩ¼": 1387,
      "Ġê·¸ë¦¬ê³ł": 1388,
      "ì§ĢëĬĶ": 1389,
      "íļį": 1390,
      "ed": 1391,
      "ê²ĥ": 1392,
      "Ġì¹ľ": 1393,
      "Ġê·¸ëŁ¬ëĤĺ": 1394,
      "Ġì²łëıĦ": 1395,
      "ĠíķĺëĬĶ": 1396,
      "ĠìĨĲ": 1397,
      "ĠìĹŃìĤ¬": 1398,
      "ĠâĢĺ": 1399,
      "ë¸Ķ": 1400,
      "ìĦ¼": 1401,
      "ĠêµŃìłľ": 1402,
      "Ġëĵ¤ìĸ´": 1403,
      "ë§Ĳ": 1404,
      "ĠíĮĢ": 1405,
      "Ġ30": 1406,
      "¸ìĹħ": 1407,
      "Ġì±Ħ": 1408,
      "ìĿ´ëĿ¼ëĬĶ": 1409,
      "Ġë§Įëĵ¤": 1410,
      "ëĮĢë¡ľ": 1411,
      "ĠëĨĴ": 1412,
      "ë§ī": 1413,
      "ĠìºĲ": 1414,
      "Ġì£½": 1415,
      "ìº": 1416,
      "km": 1417,
      "Ġë§İìĿĢ": 1418,
      "ent": 1419,
      "Ġ2010": 1420,
      "ĠíĴ": 1421,
      "íĦ´": 1422,
      "Ġê²ĥìĿ´ëĭ¤": 1423,
      "íĺģ": 1424,
      "ĠãĢĪ": 1425,
      "12": 1426,
      "ĠíıĲ": 1427,
      "ëĤ¬": 1428,
      "æĿ": 1429,
      "ĠëĮĢíķ´": 1430,
      "íĹĮ": 1431,
      "Ġíģ": 1432,
      "ëĲĺê³ł": 1433,
      "un": 1434,
      "ĠìĤ¬íļĮ": 1435,
      "ĠìĿ´ìĥģ": 1436,
      "Ġëĸ": 1437,
      "ĠV": 1438,
      "15": 1439,
      "íĥĿ": 1440,
      "ĠìĭĿ": 1441,
      "Ģë¡ľ": 1442,
      "Ġëī´": 1443,
      "Ġì¼": 1444,
      "ëħĦëĮĢ": 1445,
      "ê²¨": 1446,
      "ĩ´": 1447,
      "ëıĦë¡ľ": 1448,
      "ì³Ĳ": 1449,
      "16": 1450,
      "Ġìĺ¬ë¦¼íĶ½": 1451,
      "ì§ķ": 1452,
      "íķĺë©´ìĦľ": 1453,
      "Ġëĭ¤ìĭľ": 1454,
      "íķĻìŀĲ": 1455,
      "Ġ2012": 1456,
      "ëħĲ": 1457,
      "ë¦¬ì¹´": 1458,
      "(,": 1459,
      "ĠëıħìĿ¼": 1460,
      "17": 1461,
      "ĠíĤ¤": 1462,
      "Ġ2014": 1463,
      "ëĳ": 1464,
      "ĠíĻį": 1465,
      "Ġëľ»": 1466,
      "ĠìłĦìŁģ": 1467,
      "ĠíĹĪ": 1468,
      "ìĿ´ìĹĪëĭ¤": 1469,
      "ì´Ŀ": 1470,
      "ĠĠĠĠ": 1471,
      "ĠìŀĪìĹĪ": 1472,
      "íĸĪê³ł": 1473,
      "ìĿ´ìŀĲ": 1474,
      "ìµľ": 1475,
      "196": 1476,
      "ìĬ¤ëĬĶ": 1477,
      "Ġì¤ĳêµŃ": 1478,
      "ì»¤": 1479,
      "ĠìĪĺìĥģ": 1480,
      "ìĬ¤íĦ°": 1481,
      "Ġë°ľë§¤": 1482,
      "ĠëĮĢíķĻ": 1483,
      "Ġthe": 1484,
      "íĺĳ": 1485,
      "ëĭ´": 1486,
      "ĠëŁ¬": 1487,
      "ê°ľìĿĺ": 1488,
      "ë¡ľìĦľ": 1489,
      "íķĦ": 1490,
      "000": 1491,
      "ë³´ëĭ¤": 1492,
      "Ġ<": 1493,
      "Ġëª¨ëĳĲ": 1494,
      "íķĺìĺĢê³ł": 1495,
      "22": 1496,
      "Ġê³µìĭĿ": 1497,
      "ĠìķĦëĭĪ": 1498,
      "ê³¨": 1499,
      "ĠìĹ¬ëŁ¬": 1500,
      "Ġ2008": 1501,
      "ëĮĢíĳľ": 1502,
      "íĽĪ": 1503,
      "ëįķ": 1504,
      "ĠìľĦíķľ": 1505,
      "Ġëª¨ëĵł": 1506,
      "ìĬĪ": 1507,
      "Ġ2013": 1508,
      "Ġ2011": 1509,
      "Ġëĭ¤ìĿĮê³¼": 1510,
      "Ġê·ľ": 1511,
      "ìĿ´ê³ł": 1512,
      "íĺ¼": 1513,
      "Ġíģ°": 1514,
      "ìĹĶ": 1515,
      "ëł¸": 1516,
      "ë¨¼": 1517,
      "íĮ¨": 1518,
      "ëŀĢëĵľ": 1519,
      "ìłĳ": 1520,
      "Ġ2009": 1521,
      "ë§ģ": 1522,
      "ĠìĦłê±°": 1523,
      "Ġìłķë¶Ģ": 1524,
      "Ġì¿": 1525,
      "éĩ": 1526,
      "Ġd": 1527,
      "íĨµëł¹": 1528,
      "ì»µ": 1529,
      "ë°Ľ": 1530,
      "Ġìľ¡": 1531,
      "Ġìĺ¨": 1532,
      "ë°©ìĨ¡": 1533,
      "Ġì¡¸ìĹħ": 1534,
      "Ġ25": 1535,
      "ìĤ¬ë¥¼": 1536,
      "ì¹ľ": 1537,
      "ĠëĮĢíĳľ": 1538,
      "Ġìļ°ìĬ¹": 1539,
      "ì¸µ": 1540,
      "ìĿ´ëĬĶ": 1541,
      "ìķĶ": 1542,
      "ë¦¬ìĹĲ": 1543,
      "Ġ2015": 1544,
      "ëĤĺëĿ¼": 1545,
      "Ġêµ¬ìĦ±": 1546,
      "ĠíĻĺ": 1547,
      "ëıĮ": 1548,
      "ë£¹": 1549,
      "æľ": 1550,
      "ëį¸": 1551,
      "êµ°ìĿĺ": 1552,
      "Ġê²°ê³¼": 1553,
      "Ġë¬¸íĻĶ": 1554,
      "Ġë¸Ķ": 1555,
      "ĠíĻĪ": 1556,
      "Ġs": 1557,
      "äº": 1558,
      "ëĪĦ": 1559,
      "ìŀ¥ìĿĦ": 1560,
      "Ġê¸¸": 1561,
      "Ġê²Ģ": 1562,
      "ëĮĢìĿĺ": 1563,
      "Ġíĺĳ": 1564,
      "ĠëĨį": 1565,
      "ë·": 1566,
      "ãĢĭ(": 1567,
      "ur": 1568,
      "14": 1569,
      "ìľĦìĽĲíļĮ": 1570,
      "ë¦¬ì¦Ī": 1571,
      "ĠìĿ¸êµ¬": 1572,
      "ëĨ": 1573,
      "ìĥģìĿĦ": 1574,
      "Ġëĵ±ìĿ´": 1575,
      "ìľĦë¥¼": 1576,
      "ìĦ±ìĿĦ": 1577,
      "ad": 1578,
      "ĠìĦ¤ì¹ĺ": 1579,
      "ĠìĿ´ìļ©": 1580,
      "ìĸ´ì§Ħ": 1581,
      "Ġ2007": 1582,
      "Ġ2016": 1583,
      "ê±°ëĤĺ": 1584,
      "íĬ¹ë³Ħ": 1585,
      "Ġì¸": 1586,
      "Ġì²ĺìĿĮ": 1587,
      "ëłĮ": 1588,
      "ìĺģíĻĶ": 1589,
      "ìŀĲê°Ģ": 1590,
      "ìĭľìĹĲ": 1591,
      "ìĽĢ": 1592,
      "ê¸°ìĿĺ": 1593,
      "íĤ¨": 1594,
      "Ġì¡´ìŀ¬": 1595,
      "ĠìķĮëł¤": 1596,
      "iv": 1597,
      "Ġê±¸": 1598,
      "ìĿ¸ìĿĺ": 1599,
      "Ġê°ĢëĬ¥": 1600,
      "¶ģ": 1601,
      "11": 1602,
      "ë°Ģ": 1603,
      "íĥĪë¦¬ìķĦ": 1604,
      "ì°¸ê³ł": 1605,
      "ì§Ģë¥¼": 1606,
      "ĠíĶĦëŀĳìĬ¤": 1607,
      "Ġê°ľë°ľ": 1608,
      "Ġ2018": 1609,
      "ëĮĢíķĻ": 1610,
      "Ġëħ¼": 1611,
      "ë¦¬ê°Ģ": 1612,
      "Ġm": 1613,
      "ation": 1614,
      "ìĿ´ìĹĪ": 1615,
      "ĳ¸": 1616,
      "ĠëģĿ": 1617,
      "Ġê´Ģê³Ħ": 1618,
      "Ġìĭ±": 1619,
      "Ġìľ¤": 1620,
      "ì°©": 1621,
      "ê³łëĵ±íķĻêµĲ": 1622,
      "Ġëª©ë¡Ŀ": 1623,
      "ìĨĲ": 1624,
      "...": 1625,
      "åŃ": 1626,
      "Ġëŀ": 1627,
      "ìĿĳ": 1628,
      "ëħĦë¶ĢíĦ°": 1629,
      "ëĵĿ": 1630,
      "ĠëĮĢíĨµëł¹": 1631,
      "ë²Į": 1632,
      "Ġ193": 1633,
      "Ġë¬¸ìłľ": 1634,
      "ìĬ¤íĥĢ": 1635,
      "ĠìŀĪìĸ´": 1636,
      "Ġê°ĢìĪĺ": 1637,
      "Ġp": 1638,
      "ê°Ŀ": 1639,
      "ĠìĺģêµŃ": 1640,
      "ĠìĤ¬ê±´": 1641,
      "Ġ2017": 1642,
      "ĠìĨ¡": 1643,
      "ĠìŀĲìĭłìĿĺ": 1644,
      "ĠëĮĢíļĮ": 1645,
      "ìĤ¼": 1646,
      "ĠíķĺìĺĢëĭ¤": 1647,
      "Ġê¸°ì¤Ģ": 1648,
      "ĠìĿ´ë£¨": 1649,
      "um": 1650,
      "Ġìķŀ": 1651,
      "Ġëĵ±ìĿĺ": 1652,
      "ëł¥ìĿĦ": 1653,
      "íľ": 1654,
      "Ġc": 1655,
      "Ġíŀ": 1656,
      "ĠìĹĶ": 1657,
      "ĠKBS": 1658,
      "Ġê´Ģëł¨": 1659,
      "ĠëĤĺíĥĢ": 1660,
      "ë¶Ģë¶Ħ": 1661,
      "Ġ2006": 1662,
      "ĠëıĻìķĪ": 1663,
      "Ġì¦ī": 1664,
      "íĶĦíĬ¸": 1665,
      "®¤": 1666,
      "ë¡ľìļ´": 1667,
      "ë¬¸íĻĶ": 1668,
      "Ġ24": 1669,
      "ĠìĿ¼ë°ĺ": 1670,
      "Ġë³Ħ": 1671,
      "ĠìĬĪ": 1672,
      "op": 1673,
      "ìľ¨": 1674,
      "ìĺ¬": 1675,
      "Ġë°Ģ": 1676,
      "íķľêµŃ": 1677,
      "Ġë§ŀ": 1678,
      "Ġíĸīìłķ": 1679,
      "íģ": 1680,
      "ĠìĻĢ": 1681,
      "Ġf": 1682,
      "´´": 1683,
      "ì¶©": 1684,
      "Ġê·¹": 1685,
      "ĠëĮĢíķĻêµĲ": 1686,
      "Ġíĸ¥": 1687,
      "13": 1688,
      "Ġëĳ": 1689,
      "ĠëĤł": 1690,
      "Ġê²ĥìĿĢ": 1691,
      "Ġìłĳ": 1692,
      "195": 1693,
      "Ġì§Ħíĸī": 1694,
      "ë¹ĦìķĦ": 1695,
      "ĠêµĲìľ¡": 1696,
      "ĠíıŃ": 1697,
      "Ġëħ¸ëŀĺ": 1698,
      "ìĹĺ": 1699,
      "ì°¬": 1700,
      "į¨": 1701,
      "ĠëĭĪ": 1702,
      "ĠìĦĿ": 1703,
      "ot": 1704,
      "Ġëĭ´": 1705,
      "Ġë²Īì§¸": 1706,
      "ëĤ¨ëıĦ": 1707,
      "Ġì§Ģë°©": 1708,
      "FA": 1709,
      "Ġë°ľíĳľ": 1710,
      "ë¦¬ìĿĺ": 1711,
      "Ġë§¡": 1712,
      "ĠíĹ¤": 1713,
      "ë¡ľë¶ĢíĦ°": 1714,
      "Ġìķ¨": 1715,
      "Ġ23": 1716,
      ").": 1717,
      "ëĭĪë©Ķ": 1718,
      "ĠëĿ¼ìĿ´": 1719,
      "ì´Īëĵ±íķĻêµĲ": 1720,
      "194": 1721,
      "ìŀĲìĿĺ": 1722,
      "ê°Ī": 1723,
      "Ġê³³": 1724,
      "Ġë³¼": 1725,
      "ĠìłĦíĪ¬": 1726,
      "Ġíľ": 1727,
      "Ġë°ľê²¬": 1728,
      "Ġb": 1729,
      "ìĬ¤íħ": 1730,
      "ĠíĦ": 1731,
      "ë¥ł": 1732,
      "Ġìŀĺ": 1733,
      "Ġê¸°ìĹħ": 1734,
      "Ġëĵ±ìŀ¥": 1735,
      "Ġì¤ĳìĭ¬": 1736,
      "Ġì¢ĭ": 1737,
      "ëķĮ": 1738,
      "ìļ°ìĬ¤": 1739,
      "ë²Ħì§Ģ": 1740,
      "Ġ2019": 1741,
      "ë¯¼ì£¼": 1742,
      "Ġê·Ģ": 1743,
      "ĠìĹĨëĭ¤": 1744,
      "ê¸¸": 1745,
      "Ġë©´": 1746,
      "ag": 1747,
      "ĠTV": 1748,
      "Ġì¶ľìĹ°": 1749,
      "íķĺë©´": 1750,
      "Ġê³µê²©": 1751,
      "ëĭĮ": 1752,
      "Ġ21": 1753,
      "Ġ28": 1754,
      "Ġìĭľê°Ħ": 1755,
      "ëĤ¬ëĭ¤": 1756,
      "ëıĦë¡Ŀ": 1757,
      "ìĭľíĤ¤": 1758,
      "ê´ĳìĹŃ": 1759,
      "ĠìĿ´ìłĦ": 1760,
      "Ĳëĭ¤": 1761,
      "Ġ2005": 1762,
      "ëĭĪë©ĶìĿ´ìħĺ": 1763,
      "|-": 1764,
      "ĠìĿ¼ë³¸ìĿĺ": 1765,
      "Ġë°ľìĥĿ": 1766,
      "ì¸¡": 1767,
      "Ġâ": 1768,
      "Ġ22": 1769,
      "ê¹Ģ": 1770,
      "ë²Īì§¸": 1771,
      "ĠìĿ´ìĸ´": 1772,
      "ëŁ¬íķľ": 1773,
      "Ġê°ĸ": 1774,
      "ëªħìĿĺ": 1775,
      "Ġê²½ìłľ": 1776,
      "Ġíļ¨": 1777,
      "ê·ł": 1778,
      "Ġì£¼ìŀ¥": 1779,
      "ĠìĿĺë¯¸": 1780,
      "Ġê°Ļëĭ¤": 1781,
      "=\"": 1782,
      "ìĿµ": 1783,
      "Ġë§ī": 1784,
      "íĿ¥": 1785,
      "ĠëĪĦ": 1786,
      "Ġë³Ģê²½": 1787,
      "em": 1788,
      "ì¶ľìĹ°": 1789,
      "Ġ26": 1790,
      "ëĵ¤ê³¼": 1791,
      "ëħĦìĹĲëĬĶ": 1792,
      "ëĸ": 1793,
      "Ġì±ħ": 1794,
      "ê¸°ê°Ģ": 1795,
      "Ġì¿ł": 1796,
      "íĸĪìľ¼ë©°": 1797,
      "Ġì»¤": 1798,
      "Ġì¤ĳìķĻ": 1799,
      "ë¡ľëĬĶ": 1800,
      "ĪĪ": 1801,
      "Ġì¼Ģ": 1802,
      "Ġëĵ±ìĿĦ": 1803,
      "ĠìĨĮìĨį": 1804,
      "ë²¨": 1805,
      "íļ¨": 1806,
      "£Ħ": 1807,
      "ê¸°ëĬĶ": 1808,
      "Ġìĺģíĸ¥": 1809,
      "ri": 1810,
      "Ġ27": 1811,
      "TV": 1812,
      "Ġê³¨": 1813,
      "):": 1814,
      "ìĹŃìĤ¬": 1815,
      "ì¿Ħ": 1816,
      "Ġì°¸ìĹ¬": 1817,
      "Ġë²Ķ": 1818,
      "íĻĶêµŃ": 1819,
      "Ġì¤Ħ": 1820,
      "Ġíķĺê³ł": 1821,
      "ĠìĿ´ëĬĶ": 1822,
      "íĴį": 1823,
      "Ġand": 1824,
      "Ġë°Ŀ": 1825,
      "Ġ2020": 1826,
      "ëĭĪëĭ¤": 1827,
      "Ġê³¡": 1828,
      "ĠëĲĺìĸ´": 1829,
      "ë¹Ī": 1830,
      "ìĸµ": 1831,
      "ĠìĬ¤íĥĢ": 1832,
      "ìĦľëĬĶ": 1833,
      "Ġìļ´ìĺģ": 1834,
      "Ġ2004": 1835,
      "Ġê¸°ìĪł": 1836,
      "âĢĿ": 1837,
      "ë§¹": 1838,
      "ĠìĿ¸ë¬¼": 1839,
      "ut": 1840,
      "ìĻĢìĿĺ": 1841,
      "os": 1842,
      "æĸ": 1843,
      "ec": 1844,
      "ay": 1845,
      "Ġíĥľìĸ´": 1846,
      "ìĭ±": 1847,
      "Ġë´ī": 1848,
      "ĠThe": 1849,
      "ĠìĽĶëĵľ": 1850,
      "Ġìµľì´Ī": 1851,
      "ìĤ¬ê°Ģ": 1852,
      "êµ¬ìĿĺ": 1853,
      "ìĿ´ëĵľ": 1854,
      "ers": 1855,
      "Ġê·¸ë£¹": 1856,
      "ìľ¤": 1857,
      "ìłķìĿĦ": 1858,
      "ì¹¨": 1859,
      "Ġëį°ìĿ´": 1860,
      "ĠëŁ¬ìĭľìķĦ": 1861,
      "Ġëıħë¦½": 1862,
      "ir": 1863,
      "ĠìķĶ": 1864,
      "ëī´": 1865,
      "ìĦľìļ¸": 1866,
      "ìĽĶìĹĲ": 1867,
      "ãĢį": 1868,
      "ë¥´íģ¬": 1869,
      "Ġíķĺì§Ģë§Į": 1870,
      "ê·Ģ": 1871,
      "ìĤ¬ìĿĺ": 1872,
      "ìĦ±ìĿ´": 1873,
      "Ġë¨¸": 1874,
      "ëħĦê¹Įì§Ģ": 1875,
      "ĠìłĪ": 1876,
      "ĠíĥĢìĿ´": 1877,
      "ĠìĿ´ëŁ¬íķľ": 1878,
      "íĮħ": 1879,
      "ul": 1880,
      "íĩ´": 1881,
      "ìĹĲìĦľëıĦ": 1882,
      "ìĪĻ": 1883,
      "od": 1884,
      "ĠìĿ¸íķ´": 1885,
      "ĠìķłëĭĪë©ĶìĿ´ìħĺ": 1886,
      "Ġì§ĢìĽĲ": 1887,
      "ĠëĮĢë¶Ģë¶Ħ": 1888,
      "ë¦´": 1889,
      "ë§¨": 1890,
      "Ġíĭ": 1891,
      "Ġì§Ī": 1892,
      "ĠíĸĪ": 1893,
      "2010": 1894,
      "ìį¨": 1895,
      "Ġìłķë³´": 1896,
      "ĠìĭľëĮĢ": 1897,
      "ìķ¼ë§Ī": 1898,
      "ĠìķĦëĵ¤": 1899,
      "ĠìŀĲìľł": 1900,
      "Ġ2000": 1901,
      "ĠìľĦì¹ĺíķľ": 1902,
      "ì»¬": 1903,
      "åı": 1904,
      "ì¡°ìĦł": 1905,
      "Ġê°Ī": 1906,
      "Ġë§ĪìĿ´": 1907,
      "ë¨¸ëĭĪ": 1908,
      "ë·Ķ": 1909,
      "ëĲĺìĹĪê³ł": 1910,
      "ìĬ¤ë¥¼": 1911,
      "Ġìĸ»": 1912,
      "ĠMBC": 1913,
      "ëĬĲ": 1914,
      "ĠíĥĪ": 1915,
      "ëĵ¤ìĹĲê²Į": 1916,
      "ĠìĿ´ë¥¼": 1917,
      "ia": 1918,
      "Ġë¡ľë§Ī": 1919,
      "im": 1920,
      "Ġ29": 1921,
      "ìĻĦ": 1922,
      "ĠìĪĺëıĦ": 1923,
      "ëĬĺ": 1924,
      "ë³¼": 1925,
      "ë¶ģëıĦ": 1926,
      "ìĬ¤íħľ": 1927,
      "ì¹¸": 1928,
      "ìŀĲë¥¼": 1929,
      "ìĺ¥": 1930,
      "ê³¼ìĿĺ": 1931,
      "ĠâĢľ": 1932,
      "ap": 1933,
      "Ġin": 1934,
      "ĠìĥĿê°ģ": 1935,
      "ĠìľłëŁ½": 1936,
      "ìŀĲëĬĶ": 1937,
      "Ġìķ¼êµ¬": 1938,
      "ìļķ": 1939,
      "Ġêµ¬ì¡°": 1940,
      "íĭ´": 1941,
      "īê¸Ģ": 1942,
      "ëłī": 1943,
      "ĠìŀĲë£Į": 1944,
      "Ġìĩ¼": 1945,
      "ìĬ¤íģ¬": 1946,
      "Ġíķ´ëĭ¹": 1947,
      "ìĭľì¼": 1948,
      "ëĤĺëĭ¤": 1949,
      "ë¦¬ìĬ¤íĬ¸": 1950,
      "ĠFC": 1951,
      "ìļĶíķľ": 1952,
      "Ġë¶Ģë¶Ħ": 1953,
      "ĠìĥĪë¡ľìļ´": 1954,
      "ì±Ħ": 1955,
      "Ġ...": 1956,
      "ìĹĪê³ł": 1957,
      "ìĿ¼ë³¸ìĿĺ": 1958,
      "Ġê²°ìłķ": 1959,
      "Ġì½ĺ": 1960,
      "oc": 1961,
      "ĠìĿ¼ìĸ´": 1962,
      "åľ": 1963,
      "ëł¸ëĭ¤": 1964,
      "ìĿ¸ë¯¼": 1965,
      "Ġì¸¡": 1966,
      "æ°": 1967,
      "Ġëĭ¤ìĸĳ": 1968,
      "Ġì²łëıĦìĹŃ": 1969,
      "ê°Ģì§Ģ": 1970,
      "ëª¬": 1971,
      "Ġìĭľë¦¬ì¦Ī": 1972,
      "åĲ": 1973,
      "Ġ2003": 1974,
      "Ġì¹¨": 1975,
      "ìĬ¤ê°Ģ": 1976,
      "ëį´": 1977,
      "th": 1978,
      "ëĭĺ": 1979,
      "Ġíĺķíĥľ": 1980,
      "ìľ¼ë¡ľëĬĶ": 1981,
      "ĠíĥĦ": 1982,
      "ì¢": 1983,
      "ter": 1984,
      "Ġì§Ģìłķ": 1985,
      "ĠëĤľ": 1986,
      "Ġê°ĻìĿ´": 1987,
      "Ġìķħ": 1988,
      "ëıĦë¥¼": 1989,
      "Ġíı´": 1990,
      "çĶ": 1991,
      "íı´": 1992,
      "ĠìĬ¤íİĺ": 1993,
      "å·": 1994,
      "ë¥´ëĬĶ": 1995,
      "ĠĊĠ": 1996,
      "Ġíĺ¼": 1997,
      "ìķĮ": 1998,
      "êµĲìľ¡": 1999,
      "ëĲł": 2000,
      "Ġë°°ê²½": 2001,
      "ĠíķĻêµĲ": 2002,
      "Ġìŀ¡": 2003,
      "ĠìĿ´íĥĪë¦¬ìķĦ": 2004,
      "ìļ´ëĵľ": 2005,
      "ë¶ĢìĿĺ": 2006,
      "ĠêµĲìĪĺ": 2007,
      "íĺ¸ìĦł": 2008,
      "ìĭľë§Ī": 2009,
      "íķĺìĺĢìľ¼ë©°": 2010,
      "íĸĪëįĺ": 2011,
      "ĠìĤ¬ìĭ¤": 2012,
      "ì¹´ìĿ´": 2013,
      "Ġê·¸ëħĢ": 2014,
      "Ġ2002": 2015,
      "īê¸Ģëŀľëĵľ": 2016,
      "ĠâĢĵ": 2017,
      "ĠìĹ¬ìĦ±": 2018,
      "ìŀĲë¡ľ": 2019,
      "Ġìħ": 2020,
      "Ġìĭ±ê¸Ģ": 2021,
      "ê±°ë¦¬": 2022,
      "ĠíĦ°": 2023,
      "01": 2024,
      "Ġìµľê³ł": 2025,
      "ĠêµŃê°ĢëĮĢíĳľ": 2026,
      "ĠìĹħ": 2027,
      "ĠSt": 2028,
      "Ġê¸ī": 2029,
      "ìĹ¼": 2030,
      "ĠìĹĨëĬĶ": 2031,
      "ĠìĤ¬ëŀĳ": 2032,
      "åį": 2033,
      "Ġìļ´ëıĻ": 2034,
      "Ġìĥģíĥľ": 2035,
      "ë²ĦìĬ¤": 2036,
      "Ġëį°ë·Ķ": 2037,
      "ì²ĺëŁ¼": 2038,
      "Ġëħ¸ìĦł": 2039,
      "ĠíĬ¹íŀĪ": 2040,
      "íĻį": 2041,
      "ĠY": 2042,
      "ìĹĦ": 2043,
      "ĠìĿ´ìĹĲ": 2044,
      "ĠìľĦìĽĲ": 2045,
      "30": 2046,
      "ë¯Ģë¡ľ": 2047,
      "ìĿ¸ìĿ´": 2048,
      "ê´ĳìĹŃìĭľ": 2049,
      "¥Ĳ": 2050,
      "íĺľ": 2051,
      "Ġì°¾": 2052,
      "ĠëĮĢìłĦ": 2053,
      "ëĲĺìĹĪìľ¼ë©°": 2054,
      "å¤§": 2055,
      "ëªħìĿĦ": 2056,
      "å±": 2057,
      "ìºĲ": 2058,
      "ê²½ê¸°": 2059,
      "ì¤ĳíķĻêµĲ": 2060,
      "25": 2061,
      "ìĹ°êµ¬": 2062,
      "Ġë°Ľìķĺëĭ¤": 2063,
      "Ġë¥": 2064,
      "Ġ,": 2065,
      "ê°ĢìĻĢ": 2066,
      "ĠìĦ¬": 2067,
      "Ġë²Į": 2068,
      "íŀ": 2069,
      "ĠëĦĺ": 2070,
      "Ġê²½ìĥģ": 2071,
      "2014": 2072,
      "ow": 2073,
      "ĠìĹĺ": 2074,
      "Ġê¸Ģ": 2075,
      "Ġë°ĽìķĦ": 2076,
      "Ġê°Ģì§Ģê³ł": 2077,
      "ëłĪìĬ¤": 2078,
      "Ġìĸ´ëĸ": 2079,
      "2012": 2080,
      "Ġì§Ħì¶ľ": 2081,
      "ìĹĲìĦľìĿĺ": 2082,
      "å°": 2083,
      "ëĮĢë¥¼": 2084,
      "ĠìĦ±ê³µ": 2085,
      "ê¶ģ": 2086,
      "ëĵľëĿ¼ë§Ī": 2087,
      "íķĻê³¼": 2088,
      "2011": 2089,
      "íľĺ": 2090,
      "łëĭ¤": 2091,
      "ìŀĲìĿ¸": 2092,
      "Ġìŀĳê³¡": 2093,
      "íİĺìĿ´ì§Ģ": 2094,
      "ìĭĿìĿĦ": 2095,
      "Ġì¹¼": 2096,
      "íĺĢ": 2097,
      "ĠìķĦë²Ħì§Ģ": 2098,
      "Ġìķ¨ë²Ķ": 2099,
      "ĠìĿ¸íĦ°": 2100,
      "Ġì£¼ë¡ľ": 2101,
      "ìĥĪ": 2102,
      "2008": 2103,
      "ìľ¼ë¡ľìĦľ": 2104,
      "Ġê³ĦìĨį": 2105,
      "Ġë¸ĮëĿ¼": 2106,
      "ëªħìĿ´": 2107,
      "Ġë§¤ìļ°": 2108,
      "07": 2109,
      "ĠìĥĿìĤ°": 2110,
      "ĠíıĲì§Ģ": 2111,
      "ĠíĶĦë¦¬": 2112,
      "ëŀĻ": 2113,
      "ê¸´": 2114,
      "ĠìŀĪê³ł": 2115,
      "ìĸ´ë¡ľ": 2116,
      "éģ": 2117,
      "ĠìĨĮìŀ¬": 2118,
      "2015": 2119,
      "ĠìĿ´ê²ĥ": 2120,
      "ĠëłĪìĿ´": 2121,
      "ĠëĶ¸": 2122,
      "ëŀµ": 2123,
      "Ġ[": 2124,
      "ĠêµŃë¯¼": 2125,
      "ĠìŀĪëįĺ": 2126,
      "ĠëıĮìķĦ": 2127,
      "Ġê³łëł¤": 2128,
      "¿Ĳ": 2129,
      "ì£Ħ": 2130,
      "ht": 2131,
      "ëĲĺì§Ģ": 2132,
      "Ġ100": 2133,
      "ê´´": 2134,
      "2009": 2135,
      "ì¶ĺ": 2136,
      "Ġë¹Į": 2137,
      "Ġëª¨ëį¸": 2138,
      "ce": 2139,
      "ĠíĹĮ": 2140,
      "ìĦ¬": 2141,
      "ĠìķĬìķĺëĭ¤": 2142,
      "ĠìĭľìłĪ": 2143,
      "Ġì»´": 2144,
      "ìļ´ëıĻ": 2145,
      "íı¬ì¸ł": 2146,
      "ĠìĦ¼": 2147,
      "Ġìłľê³µ": 2148,
      "Ġì¡°ì§ģ": 2149,
      "03": 2150,
      "ìŀ¥ìĿ´": 2151,
      "ê¸°ë¡ľ": 2152,
      "2013": 2153,
      "og": 2154,
      "Ġ2021": 2155,
      "2016": 2156,
      "ìĽĲìĿĺ": 2157,
      "Ġ31": 2158,
      "ìĿį": 2159,
      "Ġê³µëıĻ": 2160,
      "ìķķ": 2161,
      "Ġê±°ì£¼": 2162,
      "ĠíĽĦë³´": 2163,
      "Ġ2001": 2164,
      "Ġê¸°íĥĢ": 2165,
      "ĠìĿ´ìķ¼": 2166,
      "KBS": 2167,
      "Ġë¶ĢìĤ°": 2168,
      "Ġìļ¸": 2169,
      "ê²Ģ": 2170,
      "íķ´ìĦľ": 2171,
      "Ġê±´ì¶ķ": 2172,
      "ov": 2173,
      "ë¦¬ìĺ¤": 2174,
      "Ġêµ¬ê°Ħ": 2175,
      "ì¹Ļ": 2176,
      "ĠíĻĪíİĺìĿ´ì§Ģ": 2177,
      "23": 2178,
      "ëĤ¸": 2179,
      "ì¢Į": 2180,
      "ĠìķĦëĭĪëĿ¼": 2181,
      "âĢĵ": 2182,
      "ëĤĺëĬĶ": 2183,
      "ìĩ¼": 2184,
      "Ġì¢Į": 2185,
      "ìĦ±ìĿĺ": 2186,
      "ìĪĺìĿĺ": 2187,
      "ĠìĿ´ìľł": 2188,
      "ä¹": 2189,
      "ë¡ľìĬ¤": 2190,
      "íĶĦë¦¬ì¹´": 2191,
      "éĩĳ": 2192,
      "ĵ¨": 2193,
      "ìĿ¸ë¯¼ê³µ": 2194,
      "ab": 2195,
      "´ëĵľ": 2196,
      "ĠìĨĮìĦ¤": 2197,
      "ë¦¬ê³ł": 2198,
      "ĠëĤ´ìļ©": 2199,
      "24": 2200,
      "ëĦ·": 2201,
      "Ġê³Ħíļį": 2202,
      "Ġíŀĺ": 2203,
      "Ġë®¤": 2204,
      "Ġì°¨ì§Ģ": 2205,
      "°ëĭ¤": 2206,
      "ĠíķŃê³µ": 2207,
      "ìĬ¤ì½Ķ": 2208,
      "ëıĦëĬĶ": 2209,
      "æĺ": 2210,
      "ĠìłĦì²´": 2211,
      "ìĽĲìłĦ": 2212,
      "Ġë°©ë²ķ": 2213,
      "ĠIn": 2214,
      "ĠêµŃê°ĢëĮĢíĳľíĮĢ": 2215,
      "Ġìŀł": 2216,
      "Ġëªĩ": 2217,
      "ĠìķĬê³ł": 2218,
      "ëıĦê°Ģ": 2219,
      "ì§Ģë§ī": 2220,
      "ìłĦìĿĦ": 2221,
      "íĨ¤": 2222,
      "ë¦¬ì§Ģ": 2223,
      "Ġë°ĶìĿ´": 2224,
      "ĠìķĬëĬĶëĭ¤": 2225,
      "Ġê´Ģíķľ": 2226,
      "Ġëĭ¤ìĿ´": 2227,
      "ĠêµĲíĨµ": 2228,
      "ìĸ¼": 2229,
      "ĠìĭľìĬ¤íħľ": 2230,
      "ìĭľê°Ħ": 2231,
      "ë¥´íĬ¸": 2232,
      "ĠãĢĮ": 2233,
      "Ġë¹ł": 2234,
      "2007": 2235,
      "éĻ": 2236,
      "ë¹Į": 2237,
      "art": 2238,
      "å¾": 2239,
      "193": 2240,
      "ĠëĬ¥": 2241,
      "ëĭĿ": 2242,
      "ìĥ¤": 2243,
      "ĠìĽĮ": 2244,
      "ìĿ¼ë¶ĢíĦ°": 2245,
      "ist": 2246,
      "Ġw": 2247,
      "Ġëĳĺ": 2248,
      "Ġëħ¹": 2249,
      "2017": 2250,
      "éĥ": 2251,
      "ë¡¯": 2252,
      "ìļ±": 2253,
      "å¯": 2254,
      "ìĭŃ": 2255,
      "Ġì£¼ìļĶ": 2256,
      "íĥķ": 2257,
      "ĠëĪĪ": 2258,
      "ëıĻì°¨": 2259,
      "ì½ľ": 2260,
      "ie": 2261,
      "Ġëĸ¨": 2262,
      "ìĽĲìĿĦ": 2263,
      "ĠìĦ±ìļ°": 2264,
      "Ġê°ľìµľ": 2265,
      "2006": 2266,
      "ìĿĮìĿĦ": 2267,
      "Ġìĸ¼": 2268,
      "Ġ|": 2269,
      "ìŀ¡": 2270,
      "Ġë¶Ħë¥ĺ": 2271,
      "Ġëĸł": 2272,
      "06": 2273,
      "ĠëĶ°ë¥´": 2274,
      "ë²¤": 2275,
      "ĠíĺĦëĮĢ": 2276,
      "íĻĶë¥¼": 2277,
      "ĠìĹ°ê²°": 2278,
      "ì·¨": 2279,
      "ë¶ĢìĹĲ": 2280,
      "ì½ĺ": 2281,
      "Ġë°°ê²½ìľ¼ë¡ľ": 2282,
      "05": 2283,
      "íķĻê¸ī": 2284,
      "ack": 2285,
      "íķĺê¸°ëıĦ": 2286,
      "ìĤ¬ëĬĶ": 2287,
      "íĻķ": 2288,
      "ê¶ĮìĿĦ": 2289,
      "ìĿ¸ëĭ¤": 2290,
      "íĶ¼ìĸ¸": 2291,
      "ĠìĻ¸êµŃ": 2292,
      "ĠìĽ¹": 2293,
      "ess": 2294,
      "Ġëª¨ìĬµ": 2295,
      "Ġíį¼": 2296,
      "Ġ1999": 2297,
      "ĠìĹŃíķł": 2298,
      "ë¹ĦìĬ¤": 2299,
      "ĠâĨ": 2300,
      "2018": 2301,
      "Ġì¶Ķê°Ģ": 2302,
      "æĿİ": 2303,
      "íĶĦëŀĳ": 2304,
      "Ġv": 2305,
      "Ġë§İìĿ´": 2306,
      "ë§¥": 2307,
      "ëĵľëĬĶ": 2308,
      "ĠëıĦë¡ľ": 2309,
      "íķĺìŀĲ": 2310,
      "íĳ¸": 2311,
      "íĶĦë¡ľ": 2312,
      "ĠíĿ¬": 2313,
      ".)": 2314,
      "ĠìĿ¸ê°Ħ": 2315,
      "ìļ´ëį°": 2316,
      "ĠSBS": 2317,
      "ĠíĶĮëłĪìĿ´": 2318,
      "02": 2319,
      "Ġëª¸": 2320,
      "ëĮĢíķľ": 2321,
      "ĠìĤ¬ìĹħ": 2322,
      "íħĲ": 2323,
      "½ĥ": 2324,
      "ĠíĬ¹ë³Ħ": 2325,
      "íĹ¤": 2326,
      "ĠíĮĶ": 2327,
      "íĬľ": 2328,
      "íĬ¸ë¡ľ": 2329,
      "íģĲ": 2330,
      "ìĪĺë¥¼": 2331,
      "Ġ1998": 2332,
      "Ġë§Īì§Ģë§ī": 2333,
      "íĦ¸": 2334,
      "ì¥Ĳ": 2335,
      "ë£¡": 2336,
      "ĠìĿ´ë¯¸": 2337,
      "Ġë¯¼ì£¼": 2338,
      "ĠëıĦì¿Ħ": 2339,
      "ìĤ¬ê´Ģ": 2340,
      "ĠìĹ´ë¦°": 2341,
      "Ġê²°êµŃ": 2342,
      "¾¸": 2343,
      "êµ´": 2344,
      "Ġë§¥": 2345,
      "Ġ&": 2346,
      "Ġëĭ¤ìĸĳíķľ": 2347,
      "ĠìķĦëŀĺ": 2348,
      "Ġ1996": 2349,
      "ìĿ´ìĿĺ": 2350,
      "ra": 2351,
      "ãĢı": 2352,
      "ìĬ¤íĥĦ": 2353,
      "ìĤ¬ë¡ľ": 2354,
      "Ġíĭ°": 2355,
      "Ġê³µê°ľ": 2356,
      "Ġê³¼ìłķ": 2357,
      "íĨ¨": 2358,
      "ìķ¡": 2359,
      "ê°ĢëĬĶ": 2360,
      "ê³³": 2361,
      "íķĢ": 2362,
      "Ġê²©": 2363,
      "ĠCh": 2364,
      "íĿĲ": 2365,
      "ìľ¼ë¡ľë¶ĢíĦ°": 2366,
      "ëª¨íĨł": 2367,
      "ìłĲìĿĦ": 2368,
      "ĠìĹĦ": 2369,
      "Ġìľłì§Ģ": 2370,
      "ĠíķĦìļĶ": 2371,
      "ĠìĽĶëĵľì»µ": 2372,
      "çİ": 2373,
      "Ġìľłëªħ": 2374,
      "íĥģ": 2375,
      "Ġê°Ģì§Ħ": 2376,
      "ä»": 2377,
      "Ľ°": 2378,
      "Ġë¬ĺ": 2379,
      "Ġìłķì¹ĺìĿ¸": 2380,
      "ign": 2381,
      "ìĥģìĿĺ": 2382,
      "Ġë³´ê³ł": 2383,
      "Ġê¸°ëĬ¥": 2384,
      "ĠìłĦëĿ¼": 2385,
      "ë©Ķëĭ¬": 2386,
      "ëĥĲ": 2387,
      "ë¥Ļ": 2388,
      "ī¬": 2389,
      "09": 2390,
      "ĠíĴį": 2391,
      "ìľ¼ë¡ľìį¨": 2392,
      "Ġìĺ¤ìĬ¤íĬ¸": 2393,
      "Ġì±Ķ": 2394,
      "Ġë¬¸íĹĮ": 2395,
      "08": 2396,
      "Ġëª°": 2397,
      "ĠĊĠĊĠĊĠĊ": 2398,
      "Ġl": 2399,
      "ĠíĳľíĺĦ": 2400,
      "ĠìĥĿíĻľ": 2401,
      "íĵ¨": 2402,
      "íı°": 2403,
      "ìĿ´ê°Ģ": 2404,
      "Ġìļ´íĸī": 2405,
      "ĠìķĦë¥´": 2406,
      "ĠìĽ¨": 2407,
      "ìŀ¥ìľ¼ë¡ľ": 2408,
      "Ġst": 2409,
      "Ġê°Ģìļ´ëį°": 2410,
      "êµ°ìĿĢ": 2411,
      "Ġê±°ìĿĺ": 2412,
      "Ġê°Ģë¦¬": 2413,
      "ĠíķĺìĹ¬": 2414,
      "ĠìĿ´ëģ": 2415,
      "2000": 2416,
      "ĠFI": 2417,
      "ĠëĨĴìĿĢ": 2418,
      "ìł¤": 2419,
      "ìĸ´ë¥¼": 2420,
      "ìłľë¡ľ": 2421,
      "Ġë§Įëĵ¤ìĸ´": 2422,
      "íĹĪ": 2423,
      "ìŀ¥ìĿĢ": 2424,
      "ëĶ©": 2425,
      "Ġíķĺê³Ħ": 2426,
      "ĠìķĬìĿĢ": 2427,
      "ëłĩ": 2428,
      "Ġê°ģê°ģ": 2429,
      "æŃ": 2430,
      "Ġê²¸": 2431,
      "Ġê²½ê¸°ëıĦ": 2432,
      "Ġíľ´": 2433,
      "28": 2434,
      "ĠìłľêµŃ": 2435,
      "Ġê´Ģë¦¬": 2436,
      "ëĥĪëĭ¤": 2437,
      "Ġ1997": 2438,
      "Ġì½ľ": 2439,
      "íķĺëł¤": 2440,
      "ĠìĿĳ": 2441,
      "å¹": 2442,
      "04": 2443,
      "ĠÂ·": 2444,
      "ĠëĮĢìĥģ": 2445,
      "26": 2446,
      "Ġì¶ľìłĦ": 2447,
      "Ġìĸ´ë¨¸ëĭĪ": 2448,
      "ìĦ¼íĦ°": 2449,
      "íķĺëįĺ": 2450,
      "ëĭ¤ê°Ģ": 2451,
      "ëĮĢíķľë¯¼êµŃ": 2452,
      "ĠìĿ¸ìłķ": 2453,
      "ĠìĿ¸ëıĦ": 2454,
      "ì§ĢìĿĺ": 2455,
      "Ġìĸ´ë¦°": 2456,
      "ìħĶ": 2457,
      "ëł¥ìĿ´": 2458,
      "2019": 2459,
      "å±±": 2460,
      "Ġ1995": 2461,
      "ĠìŀĳìĿĢ": 2462,
      "íķ´ìķ¼": 2463,
      "æ´": 2464,
      "ìĽĲìĿ´": 2465,
      "2020": 2466,
      "Ġì±ĶíĶ¼ìĸ¸": 2467,
      "est": 2468,
      "Ġìķ¤": 2469,
      "ì²Ļ": 2470,
      "íĬ¹ë³Ħìĭľ": 2471,
      "Ġìĺ¤ë¸Į": 2472,
      "Ġìĥ¤": 2473,
      "Ġê°ľêµĲ": 2474,
      "2005": 2475,
      "Ġìĺģíĸ¥ìĿĦ": 2476,
      "ê°ľìļĶ": 2477,
      "Ġë°ľìłĦ": 2478,
      "ìĿ´ìĸ´": 2479,
      "´¬": 2480,
      "Ġíıīê°Ģ": 2481,
      "¹ìĿĢ": 2482,
      "ĠìĮ": 2483,
      "ĠëĶ°ë¥´ë©´": 2484,
      "ĠëĮĢìĭł": 2485,
      "ĠëĤĺëĿ¼": 2486,
      "´Ħ": 2487,
      "Ġì§ģìłĳ": 2488,
      "ê³¤": 2489,
      "ĠíķĻìĥĿ": 2490,
      "Ġê±´ìĦ¤": 2491,
      "ĠìłĦêµŃ": 2492,
      "Ġë¹ĦëĶĶìĺ¤": 2493,
      "ìĬ¤ìĻĢ": 2494,
      "ìĿ¼ìĿĺ": 2495,
      "50": 2496,
      "Ġì£¼ë³Ģ": 2497,
      "ĠìĿ´ë¦ĦìĿĦ": 2498,
      "ine": 2499,
      "27": 2500,
      "ĠìĿ´ë£¨ìĸ´": 2501,
      "ëģ¼": 2502,
      "ìĺĢëįĺ": 2503,
      "íıŃ": 2504,
      "ìĤ¬íļĮ": 2505,
      "Ġìŀĳê°Ģ": 2506,
      "íħĶ": 2507,
      "Ġê²°íĺ¼": 2508,
      "ity": 2509,
      "ì¹´ìĻĢ": 2510,
      "ĠëĤ¨ìķĦ": 2511,
      "ĠìĥģíĻ©": 2512,
      "Ġì§Ģíķĺ": 2513,
      "Ġë²¨": 2514,
      "ìŀĲìĻĢ": 2515,
      "ĠìŀĲìĹ°": 2516,
      "ĠìĿ´ëıĻ": 2517,
      "Ġå": 2518,
      "The": 2519,
      "ĩĮ": 2520,
      "ì£¼ìĭľ": 2521,
      "´¬ìĺģ": 2522,
      "Ġë¨¹": 2523,
      "ä½": 2524,
      "29": 2525,
      "ĠìłķìĿĺ": 2526,
      "è¡": 2527,
      "ìĬ¤ë¡ľ": 2528,
      "ĠìĬ¬": 2529,
      "íķĺì§Ģë§Į": 2530,
      "Ġê·¸ê²ĥ": 2531,
      "ĠìĦłìłķ": 2532,
      "ard": 2533,
      "ìĩ": 2534,
      "ëĵĢ": 2535,
      "av": 2536,
      "Ġê¼": 2537,
      "ëĭ¤ëĬĶ": 2538,
      "ì³¤": 2539,
      "ĠìŀĦëªħ": 2540,
      "ct": 2541,
      "Ġ1990": 2542,
      "ë°ĶìĿ´": 2543,
      "ì§ĢìĹĲ": 2544,
      "Ġê±´ë¬¼": 2545,
      "ë¯¸ëĶĶ": 2546,
      "Ġë³´ìĹ¬": 2547,
      "ĠìĿ´ë¡ł": 2548,
      "ĠëıĻë¬¼": 2549,
      "ĠêµŃíļĮìĿĺ": 2550,
      "ë¡¤": 2551,
      "Ġë°©ìĭĿ": 2552,
      "éķ": 2553,
      "ĠíĽ": 2554,
      "ìĻĶëĭ¤": 2555,
      "ê¸°ê´Ģ": 2556,
      "Ġíĳ¸": 2557,
      "Ġêµ¬ìĹŃ": 2558,
      "ìĿ¸ìĿĦ": 2559,
      "ìĪĺìĥģ": 2560,
      "ĠëĲĺëĬĶ": 2561,
      "íıĲ": 2562,
      "Ġìķķ": 2563,
      "ìĪĺê°Ģ": 2564,
      "ìŀĪëĭ¤": 2565,
      "ĠìķĬëĬĶ": 2566,
      "ĠëĽ°": 2567,
      "ê³µíķŃ": 2568,
      "åº": 2569,
      "ëıħêµĲ": 2570,
      "ell": 2571,
      "Ġê²½ì°°": 2572,
      "ê³¼íķĻ": 2573,
      "2004": 2574,
      "ill": 2575,
      "ìłľë¥¼": 2576,
      "ì§Ģê³ł": 2577,
      "ìłľê°Ģ": 2578,
      "ìĥĿìķł": 2579,
      "ak": 2580,
      "ĠëĬĲ": 2581,
      "íĸĪì§Ģë§Į": 2582,
      "Ġìĥī": 2583,
      "ëĨį": 2584,
      "if": 2585,
      "ëłĢ": 2586,
      "ì¤Ħ": 2587,
      "Ġn": 2588,
      "ê²¼": 2589,
      "Ġë°´ëĵľ": 2590,
      "ĠìķĮëł¤ìł¸": 2591,
      "ìłķë¶Ģ": 2592,
      "Ġë¶Ļ": 2593,
      "Ġë§ĪìĿĦ": 2594,
      "Ġìĸ¸ìĸ´": 2595,
      "ĠìłĦë¬¸": 2596,
      "ĠìĬ¤íı¬ì¸ł": 2597,
      "ìĤ¬ìĹĲ": 2598,
      "Ġê·¸ë¦¬ìĬ¤": 2599,
      "Ġì§ĢëıĦ": 2600,
      "ĠëĤĺìĺ¤": 2601,
      "¤ë²Ħ": 2602,
      "Ġì¶ľìĭľ": 2603,
      "ìĦłê±°": 2604,
      "ìĤ¬ì¹´": 2605,
      "ì¼ĵ": 2606,
      "ë¯¸êµŃ": 2607,
      "Ġíķµ": 2608,
      "ì¹ĺëĬĶ": 2609,
      "ì²łëıĦ": 2610,
      "ìŀ¥ìĿĺ": 2611,
      "ìĽ¨ìĸ´": 2612,
      "all": 2613,
      "und": 2614,
      "ëĳ¥": 2615,
      "ìľĦìĹĲ": 2616,
      "ĠX": 2617,
      "ĠFIFA": 2618,
      "ë²½": 2619,
      "ë©ĺ": 2620,
      "Ġê¸´": 2621,
      "ëłĪìĿ¼": 2622,
      "ĠíĽĪ": 2623,
      "ĠìķĦìĭľ": 2624,
      "Ġ50": 2625,
      "ëł¬": 2626,
      "ĠíĥĲ": 2627,
      "íĵ¨íĦ°": 2628,
      "åĪ": 2629,
      "ĠëĮĢêµ¬": 2630,
      "ĠìĻĦìłĦ": 2631,
      "ĠíĺķìĦ±": 2632,
      "Ġ1994": 2633,
      "ëĮĢìĹĲ": 2634,
      "ST": 2635,
      "ëŁ¬ìĬ¤": 2636,
      "ëĤĺìĿ´": 2637,
      "ĠëĶ°ëĿ¼ìĦľ": 2638,
      "Ġì·¨ìŀĦ": 2639,
      "ìĿ¸ìĿĢ": 2640,
      "ì½Ķëĵľ": 2641,
      "êµ°ìĹĲ": 2642,
      "ëįľ": 2643,
      "íĺĦìĿĺ": 2644,
      "íĤ¨ëĭ¤": 2645,
      "ë¨¼íĬ¸": 2646,
      "ìĦ¸ìĿĺ": 2647,
      "ĠìłķëıĦ": 2648,
      "Ġê³¼íķĻ": 2649,
      "ĠìĦľë¡ľ": 2650,
      "ĠíĽĦìĹĲ": 2651,
      "ĠëĤ®": 2652,
      "ç¾": 2653,
      "ì§Ģë¡ľ": 2654,
      "ìĹ¬ìŀĲ": 2655,
      "ķħ": 2656,
      "êµ°ìĿ´": 2657,
      "Ġê³µê°Ħ": 2658,
      "ĠìķĬìķĺ": 2659,
      "ĠìķĦëĭĮ": 2660,
      "Ġëħ¸ëıĻ": 2661,
      "ìĹĨ": 2662,
      "ëĵ¤ìĹĲ": 2663,
      "Ġë§Ĳíķľëĭ¤": 2664,
      "Ġêµ°ìĤ¬": 2665,
      "ë§Īëĭ¤": 2666,
      "ëĮĢíļĮ": 2667,
      "ìª½ìľ¼ë¡ľ": 2668,
      "ĠìľĮ": 2669,
      "ìłĦìĹĲ": 2670,
      "ìļĶìĿ¼": 2671,
      "Ġë¹Ī": 2672,
      "Ġëªħì¹Ń": 2673,
      "áĨ": 2674,
      "Ġëĭ¨ì²´": 2675,
      "íĬ¸ë¦¬": 2676,
      "ì§Ģê°Ģ": 2677,
      "Ġë§Įëĵł": 2678,
      "Ġì§Ģê¸Ī": 2679,
      "Ġê³µìĹ°": 2680,
      "Ġì§Ģêµ¬": 2681,
      "íģ¬ë¡ľ": 2682,
      "Ġì¶©ì²Ń": 2683,
      "ĠìłľìĻ¸": 2684,
      "Ġê¸°ê´Ģ": 2685,
      "æĪ": 2686,
      "Ġì´¬ìĺģ": 2687,
      "ìłķë³´": 2688,
      "ëĲĲëĭ¤": 2689,
      "ĠëıĻìĭľìĹĲ": 2690,
      "Ġìłķì±ħ": 2691,
      "ëĭ¨ìĿĺ": 2692,
      "ĠìĺģíĻĶìĿ´ëĭ¤": 2693,
      "ĠíĻľìķ½": 2694,
      "ìĺ¤ì¹´": 2695,
      "ì§Ģë°©": 2696,
      "ë¬ĺ": 2697,
      "ê³Ħë¥¼": 2698,
      "ĠìĥģëĮĢ": 2699,
      "íĭ±": 2700,
      "ìĦłìĿĺ": 2701,
      "ĠíĨµíķ©": 2702,
      "Ġê¸°ë°ĺ": 2703,
      "ì§ĢìĹŃ": 2704,
      "Ġê¸°ê°Ħ": 2705,
      "ĠìĹ°íķ©": 2706,
      "ë¦°ëĭ¤": 2707,
      "Ġê°ľìĿ¸": 2708,
      "Ġì¤ĳìļĶíķľ": 2709,
      "ë¥¸ëĭ¤": 2710,
      "ex": 2711,
      "'s": 2712,
      "ë¶Ģë¥¼": 2713,
      "ìĿ¼ê¹Įì§Ģ": 2714,
      "Ġìĭ¸": 2715,
      "ìĬ¤íĤ¤": 2716,
      "ev": 2717,
      "ub": 2718,
      "ìĽĲìľ¼ë¡ľ": 2719,
      "ĠìĤ¬ìĿ´ìĹĲ": 2720,
      "yle": 2721,
      "Ġê¸°ëħĲ": 2722,
      "ĠìĹ°ê·¹": 2723,
      "ìłľìĿĺ": 2724,
      "íķĺëĿ¼": 2725,
      "ì¹¼": 2726,
      "ĠìĶ": 2727,
      "ì¹ĺë¥¼": 2728,
      "ep": 2729,
      "ìĽĲìĿĢ": 2730,
      "Ġ189": 2731,
      "2002": 2732,
      "ĠíĮĲë§¤": 2733,
      "ìĽħ": 2734,
      "ĠìļĶêµ¬": 2735,
      "Ġì¹ľêµ¬": 2736,
      "ì½©": 2737,
      "Ġê¸°ë³¸": 2738,
      "Ġìĭ¤ìĭľ": 2739,
      "ìĬ¤íħĮ": 2740,
      "Ġê³łëĵ±íķĻêµĲ": 2741,
      "ì§Ħëĭ¤": 2742,
      "ĠìĿ¼ìľ¼": 2743,
      "ĠëĦĪ": 2744,
      "ĠìĿĺíķľ": 2745,
      "ëĤĺìĿĺ": 2746,
      "Ġë§Ŀ": 2747,
      "ĠëıĦìŀħ": 2748,
      "ĠìĿ¸ì²ľ": 2749,
      "ì£¼ìĹ°": 2750,
      "å¸": 2751,
      "ë©Ķë¦¬ì¹´": 2752,
      "Ġë°ĺëĮĢ": 2753,
      "Ġa": 2754,
      "ang": 2755,
      "Ġê²½ëł¥": 2756,
      "ãĢĭ,": 2757,
      "ìĤ¬ìĻĢ": 2758,
      "ëĵľë¦¬": 2759,
      "ì¹ł": 2760,
      "ĠìĤ°ìĹħ": 2761,
      "íĬ¼": 2762,
      "Ġì¤ĳíĻĶ": 2763,
      "ĠìĪĺíĸī": 2764,
      "Ġë¹Ħë¡¯": 2765,
      "ìĿ¼ëŀľëĵľ": 2766,
      "ë¦¬ìķĦìĿĺ": 2767,
      "ĠìŀĪëĬĶëį°": 2768,
      "ìĬ¤íĭ°": 2769,
      "ĠìĹŃìĭľ": 2770,
      "ĠíĬ¹ì§ķ": 2771,
      "Ġë¿Ĳ": 2772,
      "çĽ": 2773,
      "Ġíĩ´": 2774,
      "ĠìĪĺë¡Ŀ": 2775,
      "ìĿ´ë¥¼": 2776,
      "Ġê³Ħìķ½": 2777,
      "Ġíģ¬ê²Į": 2778,
      "íĹ¨": 2779,
      "íĬ¸ìĿĺ": 2780,
      "Ġìĺ¥": 2781,
      "Ġê°Ģì¡±": 2782,
      "Ġíĺģ": 2783,
      "Ġê¸°ì¤Ģìľ¼ë¡ľ": 2784,
      "Ġ=": 2785,
      "Ġíģ¬ë¦¬ìĬ¤": 2786,
      "ĠìĦ¤ë¦½ëĲľ": 2787,
      "ĠìºĲëĤĺëĭ¤": 2788,
      "ìĬ¤ì¹´": 2789,
      "Ġíİ¸ìĦ±": 2790,
      "Ġë©¤ë²Ħ": 2791,
      "ë²łìĿ´": 2792,
      "ëĮĢê°Ģ": 2793,
      "ìłĦìĹĲìĦľ": 2794,
      "ìĤ¬ìĹħ": 2795,
      "Ġê·¸ê°Ģ": 2796,
      "ë¦ī": 2797,
      "ĠìĹ°ìĨį": 2798,
      "ìŀĦìĿĦ": 2799,
      "ìĤ¬ìĿ´": 2800,
      "éĿ": 2801,
      "Ġ1992": 2802,
      "Ġë¯¼ì¡±": 2803,
      "æĹ": 2804,
      "ĠìĹ°ì£¼": 2805,
      "ian": 2806,
      "Ġìļ°ì£¼": 2807,
      "ëĵľë¡ľ": 2808,
      "Ġê·¸ëŀĺ": 2809,
      "align": 2810,
      "Ġ1993": 2811,
      "nd": 2812,
      "ëħ¼": 2813,
      "ĠìĻ¸êµŃìĿ¸": 2814,
      "ĠìĹ°ë°©": 2815,
      "Ġì°¨ëŁī": 2816,
      "ê¸°íĥĢ": 2817,
      "ĠìĭľìĦ¤": 2818,
      "ìķĦìĿ´": 2819,
      "Ġëį°ìĿ´íĦ°": 2820,
      "FC": 2821,
      "ĠìłĦê¸°": 2822,
      "ì¶ķêµ¬": 2823,
      "2003": 2824,
      "ìĨĮëħĦ": 2825,
      "ìĬ¤íİĺ": 2826,
      "ĠíĻĺê²½": 2827,
      "ĠëĲĺìĹĪ": 2828,
      "ĠìĭľìŀĳíĸĪëĭ¤": 2829,
      "ew": 2830,
      "æ³": 2831,
      "ê°ĳ": 2832,
      "Ġìĸ´ëĸ¤": 2833,
      "ìĨĮë¥¼": 2834,
      "ìĦľê´Ģ": 2835,
      "MBC": 2836,
      "ë¬¸ìĿĦ": 2837,
      "Ġê²¬": 2838,
      "Ġê°ľíĨµ": 2839,
      "ëĲĺë©°": 2840,
      "íıīê°Ģ": 2841,
      "ĠìĬ¤ìľĦ": 2842,
      "ëĿ¼ìĿ¸": 2843,
      "ĠëĿ¼ëĶĶìĺ¤": 2844,
      "48": 2845,
      "ëĤĺë¬´": 2846,
      "ĠìĤ¬ê³ł": 2847,
      "íĤ¹": 2848,
      "ìŀ¥ìĹĲ": 2849,
      "ê¸°ìĪł": 2850,
      "Ġíĥĳ": 2851,
      "Ġì°©": 2852,
      "ĠëĨĵ": 2853,
      "ì¦ĺ": 2854,
      "êµŃë¯¼": 2855,
      "ëįľëŀĢëĵľ": 2856,
      "Ġê°ľìĿĺ": 2857,
      "åŁ": 2858,
      "ëĲĺë©´ìĦľ": 2859,
      "Ġë¹ĦíĮĲ": 2860,
      "ip": 2861,
      "¢°": 2862,
      "ĠíŀĪë¡ľ": 2863,
      "Ġìľ¡êµ°": 2864,
      "ìĭľì½Ķ": 2865,
      "çİĭ": 2866,
      "Ġ1991": 2867,
      "ber": 2868,
      "Ġë¯¸ìĪł": 2869,
      "íĻĶêµŃìĿĺ": 2870,
      "ãĥ»": 2871,
      "ì£¼ëĬĶ": 2872,
      "Ġìłķëĭ¹": 2873,
      "ë£¨ìĬ¤": 2874,
      "ĠìĨĮíĶĦíĬ¸": 2875,
      "íĻĶê°Ģ": 2876,
      "ĠëĤĺê°Ģ": 2877,
      "ìłĿ": 2878,
      "ĠìĹŃíķłìĿĦ": 2879,
      "íĮĶ": 2880,
      "ì²´ìĿĺ": 2881,
      ".\"": 2882,
      "Ġëĭ´ëĭ¹": 2883,
      "ĠìŀĪìĿĦ": 2884,
      "Ġë³´íĺ¸": 2885,
      "ive": 2886,
      "ëĭī": 2887,
      "Ġê±°ì³Ĳ": 2888,
      "Ġì´Īê¸°": 2889,
      "Ġë©Ķëĭ¬": 2890,
      "ĠìĤ¬ë¬´": 2891,
      "ĠìĦ¤ëªħ": 2892,
      "Ġíģ´ëŁ½": 2893,
      "ĠìĿ¸êµ¬ëĬĶ": 2894,
      "ìŀĶ": 2895,
      "íĨłë¦¬": 2896,
      "Ġê¶ģ": 2897,
      "ëĤĺê°Ģ": 2898,
      "ëª½": 2899,
      "ĠëĤĺë": 2900,
      "ĠìĬĪíį¼": 2901,
      "ĠãĢİ": 2902,
      "Ġê¸°ì¡´": 2903,
      "ud": 2904,
      "Ġ2022": 2905,
      "ĠìŀĪëĭ¤ê³ł": 2906,
      "ë¥´ê²Į": 2907,
      "ê´Ģë¦¬": 2908,
      "ìłģìĿĢ": 2909,
      "ëĺĲ": 2910,
      "Ġìµľì´ĪìĿĺ": 2911,
      "ìŀ¥ìĹĲìĦľ": 2912,
      "Ġì§ĢìĹŃìĿĺ": 2913,
      "Ġì²ĺìĿĮìľ¼ë¡ľ": 2914,
      "íĬ¸ëĤ¨": 2915,
      "ĠĠĠĠĠĠĠĠ": 2916,
      "Ġë°°ìļ°ìĿ´ëĭ¤": 2917,
      "Ġì¢ħêµĲ": 2918,
      "ç¥": 2919,
      "ae": 2920,
      "ĠìĽĲëŀĺ": 2921,
      "ĠíĮ¬": 2922,
      "ë¶ĢëĬĶ": 2923,
      "ë¡Ń": 2924,
      "ëª°": 2925,
      "Ġëľ»ìĿĢ": 2926,
      "íĺĦìŀ¬": 2927,
      "ĠìĨĮëł¨": 2928,
      "our": 2929,
      "Ġê³µíķŃ": 2930,
      "ìłł": 2931,
      "ĠíĸīëıĻ": 2932,
      "ëĮĢëĬĶ": 2933,
      "Ġíĺ¹ìĿĢ": 2934,
      "Ġíĥľìĸ´ëĤ¬ëĭ¤": 2935,
      "ĠìłĦíĨµ": 2936,
      "ĠëĵĿ": 2937,
      "ìĪĺëĬĶ": 2938,
      "Ġëĭ¬ë¦¬": 2939,
      "Ġì¹¸": 2940,
      "ĠìĹ¬ê°Ŀ": 2941,
      "Ġìŀīê¸Ģëŀľëĵľ": 2942,
      "íķĺìĿ´": 2943,
      "ì¤ĳìĹĲ": 2944,
      "ìĿ´ìĹĪëįĺ": 2945,
      "ìłķíķľ": 2946,
      "ë®¤": 2947,
      "ìĸ´ëĬĶ": 2948,
      "Ġìĺ®": 2949,
      "ĠìĹ¼": 2950,
      "ĠêµŃë¦½": 2951,
      "ìĬ·": 2952,
      "íĤ¬": 2953,
      "ìĬ¤íĦ´": 2954,
      "æ²": 2955,
      "ë°į": 2956,
      "ì£¼ìļĶ": 2957,
      "ìĪĺë¡ľ": 2958,
      "ìłķìĿĺ": 2959,
      "eb": 2960,
      "60": 2961,
      "Ġ1980": 2962,
      "ê°Ķëĭ¤": 2963,
      "Ġë°Ķë¡ľ": 2964,
      "ë¦¬ìĻĢ": 2965,
      "ë¦¬íķĻ": 2966,
      "Ġíķľíİ¸": 2967,
      "íĺĶëĭ¤": 2968,
      "Ġë²łìĿ´": 2969,
      "ĠêµŃíļĮìĿĺìĽĲ": 2970,
      "ê²©ìĿĦ": 2971,
      "ĠìĨĶ": 2972,
      "ĠìľĦíķĺìĹ¬": 2973,
      "2001": 2974,
      "íķĺëĬĶëį°": 2975,
      "íĬ¸ë¥¼": 2976,
      "Ġìłģìļ©": 2977,
      "ëªħìĿĢ": 2978,
      "ĠíķĺìĺĢ": 2979,
      "íĸĪìľ¼ëĤĺ": 2980,
      "íĢ": 2981,
      "Ġë§ĪìĿĮ": 2982,
      "Ġë¯¸êµŃìĿ¸": 2983,
      "ĠíĴĢ": 2984,
      "ĠíĶ¼íķ´": 2985,
      "Ĳë¦¬": 2986,
      "Ġì¦Ŀê°Ģ": 2987,
      "ë¢°": 2988,
      "Ġg": 2989,
      "ëĵľìĿĺ": 2990,
      "ĠëĲł": 2991,
      "æĽ": 2992,
      "ëĿ¼ìĿĺ": 2993,
      "Ġë°©ìĺģ": 2994,
      "ë¬¼ìĿĦ": 2995,
      "ĺë¦¬": 2996,
      "Ġìķ¡": 2997,
      "ëĿ¼ìĬ¤": 2998,
      "Ġì»¨": 2999,
      "ĠêµŃëĤ´": 3000,
      "ë¥´ê³ł": 3001,
      "ĠìĹŃìŀĦ": 3002,
      "ãģ®": 3003,
      "Ġê°ĳ": 3004,
      "ìħĢ": 3005,
      "Ġìĵ": 3006,
      "ĠìĿ´ìĤ¬": 3007,
      "ìĦľë¥¼": 3008,
      "ìħľ": 3009,
      "ort": 3010,
      "íİľ": 3011,
      "ĠìļĶìĭľ": 3012,
      "Ġë¹ĦìĬ·": 3013,
      "Ġ1987": 3014,
      "êµ°ìĿĦ": 3015,
      "Ġë³´íĨµ": 3016,
      "ant": 3017,
      "ìĦŃ": 3018,
      "Ġì»´íĵ¨íĦ°": 3019,
      "ìĿ¸ë¯¼ê³µíĻĶêµŃ": 3020,
      "Ġëįķ": 3021,
      "ĠìľłìĿ¼": 3022,
      "ĠìĪĻ": 3023,
      "áĦ": 3024,
      "ĠìµľëĮĢ": 3025,
      "ĠëĲĺê³ł": 3026,
      "Ġíķĺë©°": 3027,
      "ĠìĹ´ì°¨": 3028,
      "ë£¬": 3029,
      "Ġì§Ģíľĺ": 3030,
      "Ġê³¼ê±°": 3031,
      "ith": 3032,
      "ìĿ´ê¸°ëıĦ": 3033,
      "ìĦłìĿĦ": 3034,
      "ê°ĦìĿĺ": 3035,
      "ìĩĦ": 3036,
      "ĠìĦłíĥĿ": 3037,
      "Ġì£¼ìĹ°": 3038,
      "ìĹŃëĮĢ": 3039,
      "ĠìĿ´ìķ¼ê¸°": 3040,
      "ë°°ìļ°": 3041,
      "ĠìŀĳìĹħ": 3042,
      "Ġê¸°ëıħêµĲ": 3043,
      "Ġ.": 3044,
      "ë¯¼ì£¼ì£¼ìĿĺ": 3045,
      "ìĦ±ìĿĢ": 3046,
      "ëĵ¬": 3047,
      "Ġì°¾ìķĦ": 3048,
      "2021": 3049,
      "ê³¼ëĬĶ": 3050,
      "Ġë°¤": 3051,
      "ëıĦìĹĲ": 3052,
      "ĠìĨĮìŀ¬ë¡ľ": 3053,
      "Ġ?": 3054,
      "Ġê²½ê¸°ìĹĲìĦľ": 3055,
      "éĽ": 3056,
      "æµ": 3057,
      "ĠíĻķìĿ¸": 3058,
      "ìķ¤": 3059,
      "êµĲíĨµ": 3060,
      "Ġíļį": 3061,
      "ĠìĬ¹ê°ķ": 3062,
      "Ġ40": 3063,
      "ĠëĤĻ": 3064,
      "ì²´ë¥¼": 3065,
      "ĠìĤ¬ìĥģ": 3066,
      "íĺĳíļĮ": 3067,
      "éģĵ": 3068,
      "Ġë©ĶìĿ´": 3069,
      "íĨ¨ë¦Ń": 3070,
      "ë¦ŃíĦ°": 3071,
      "ìĿ¸ë¬¼": 3072,
      "ìłģìĿĦ": 3073,
      "ìľµ": 3074,
      "ight": 3075,
      "Ġkm": 3076,
      "Ġì§ĢëĤĺ": 3077,
      "ĬìĿĢ": 3078,
      "Ġëª¨ìĸĳ": 3079,
      "Ġë°ĽìĿĢ": 3080,
      "ìĭľìķĦìĿĺ": 3081,
      "EFA": 3082,
      "ëĭ¹ìĿĺ": 3083,
      "ìĤ¬íĤ¤": 3084,
      "íķĺìĺĢìľ¼ëĤĺ": 3085,
      "ìĭľëĮĢ": 3086,
      "íķĺê±°ëĤĺ": 3087,
      "ìī¬": 3088,
      "Ġìµľì¢ħ": 3089,
      "ĠìĹĨìĿ´": 3090,
      "ìĭľì¦Į": 3091,
      "ìĦ¸ê³Ħ": 3092,
      "ìľĪ": 3093,
      "Ġì§Ģë°°": 3094,
      "ìĤ¬ìĿ´íĬ¸": 3095,
      "ĠìĹ°ê¸°": 3096,
      "ê¾¸": 3097,
      "Ġë¶Ģë¬¸": 3098,
      "ê²Ĳ": 3099,
      "ĠìĺĪìĪł": 3100,
      "qu": 3101,
      "æĸĩ": 3102,
      "Ġ1988": 3103,
      "ëľ": 3104,
      "ë¦¬ë¡ľ": 3105,
      "ĠìķĦëĤĺ": 3106,
      "êµĲíļĮ": 3107,
      "ĊĊĠ": 3108,
      "ft": 3109,
      "ĠêµŃìłľê³µíķŃ": 3110,
      "ĠêµĲíļĮ": 3111,
      "ìłķìĹĲ": 3112,
      "Ġ1989": 3113,
      "ìĺĪìĪł": 3114,
      "ĠĠĠ": 3115,
      "ìĸ´ê°Ģ": 3116,
      "Ġë°©íĸ¥": 3117,
      "Ġë¹ĦêµĲ": 3118,
      "æĻ": 3119,
      "ê²½ìłľ": 3120,
      "ìľĦë¡ľ": 3121,
      "Ġìļ°ë¦¬": 3122,
      "ĠìĬ¤íİĺìĿ¸": 3123,
      "ĠíķĺìĿ´": 3124,
      "Ġë¡Ŀ": 3125,
      "Ġëī´ìļķ": 3126,
      "ë²łë¥´": 3127,
      "40": 3128,
      "ĠíĿĳ": 3129,
      "ĠëĮĢíķĺìĹ¬": 3130,
      "ìļ°ìĬ¹": 3131,
      "ì¡°ìĿĺ": 3132,
      "ë©ĶìĿ´": 3133,
      "ĠìķĦìĭľìķĪ": 3134,
      "ìĽ¨ëį´": 3135,
      "ĠëłĪì½Ķëĵľ": 3136,
      "ä¸Ń": 3137,
      "Ġë¨¼": 3138,
      "ĠìĺĽ": 3139,
      "NA": 3140,
      "row": 3141,
      "ĠìľĪ": 3142,
      "Ġì´Īëĵ±íķĻêµĲ": 3143,
      "up": 3144,
      "Ġìī": 3145,
      "Ġìķ¼ë§Ī": 3146,
      "ìľ¼ë©´": 3147,
      "Ġì£¼ìĿ¸": 3148,
      "ìķĦìĿĺ": 3149,
      "Ġì¶Ķìłķ": 3150,
      "sp": 3151,
      "ì§ĢíĦ¸": 3152,
      "ĠëĦĵ": 3153,
      "ìĿĺë¥¼": 3154,
      "Ġë°ĸ": 3155,
      "ëĮĢìłĦ": 3156,
      "ìĽĮëĵľ": 3157,
      ")Â·": 3158,
      "ĠìŀĲê¸°": 3159,
      "ĠíĶĦë¡ľëĵĢ": 3160,
      "ì§ĢìĽĲ": 3161,
      "íĸīìłķ": 3162,
      "ķìĭľì½Ķ": 3163,
      "Ġëª½": 3164,
      "ĠâĨĴ": 3165,
      "mm": 3166,
      "¶¤": 3167,
      "1999": 3168,
      "Ã©": 3169,
      "Ġì¡°ì§Ģ": 3170,
      "ëĭ¤ê³ł": 3171,
      "ff": 3172,
      "ëħĦìĿĺ": 3173,
      "ìŀĲë¦¬": 3174,
      "Ġë¶Ħìķ¼": 3175,
      "ëĿ¼ìļ´ëĵľ": 3176,
      "ĠìĿ´ëģĮ": 3177,
      "ëıĻìķĪ": 3178,
      "Ġê±°ì£¼íķľ": 3179,
      "ĠêµĲíĻ©": 3180,
      "åŃ¸": 3181,
      "ĠìŀĪëĭ¤ëĬĶ": 3182,
      "ìĭľì¼°ëĭ¤": 3183,
      "ĠëŁ°": 3184,
      "ĠìĺĪìłķ": 3185,
      "Ġê·ľëª¨": 3186,
      "ë±": 3187,
      "ĠíĿĶ": 3188,
      "ĠíĽĦë°ĺ": 3189,
      "ĠìŀĪì§Ģë§Į": 3190,
      "íĺĪ": 3191,
      "ëŀ«": 3192,
      "ì¢ħìĿĺ": 3193,
      "ìĸ´ìĿĺ": 3194,
      "êµŃê°Ģ": 3195,
      "ìĽ¨ìĿ´": 3196,
      "ran": 3197,
      "æł": 3198,
      "Ġíĥľìĸĳ": 3199,
      "ĊĠĊ": 3200,
      "Ġë³´ëĤ´": 3201,
      "Ġë¶Ħë¦¬": 3202,
      "å¿": 3203,
      "ast": 3204,
      "ëªħìĿ´ëĭ¤": 3205,
      "ĠíĶĦë¡ľìłĿ": 3206,
      "ë¬¼ê´Ģ": 3207,
      "ê²łëĭ¤": 3208,
      "ìŀīê¸Ģëŀľëĵľ": 3209,
      "Ġíĳľì¤Ģ": 3210,
      "ìĬ¤ì¼Ģ": 3211,
      "íĺ¸ë¥¼": 3212,
      "Ġìĥģëĭ¹": 3213,
      "ĠìĦłë°ľ": 3214,
      "Ġê±´ì¶ķë¬¼": 3215,
      "Ġìĭ¤íĮ¨": 3216,
      "Ġëĸ¨ìĸ´": 3217,
      "ëĿ¼ëıĦ": 3218,
      "ìĨįëıĦë¡ľ": 3219,
      "Ġì¡°ìĤ¬": 3220,
      "íĥĳ": 3221,
      "íĥĢìĿ´": 3222,
      "ĠëĮĢì²´": 3223,
      "ĠìĿµ": 3224,
      "êµ¬ìĹŃ": 3225,
      "ë¶Ģë¥´íģ¬": 3226,
      "ĠëªħìĿĺ": 3227,
      "Ġê°ľëħĲ": 3228,
      "éĸ": 3229,
      "ìĿ´ëŀĢ": 3230,
      "Ġì¤ĳìĭ¬ìľ¼ë¡ľ": 3231,
      "ĠìĤ¼ìĦ±": 3232,
      "ĠìŀĲì¹ĺ": 3233,
      "íļĮìĤ¬": 3234,
      "ìĦłìĪĺ": 3235,
      "ĠìŀĲìĭłìĿ´": 3236,
      "ĠìĿ´ìĻĢ": 3237,
      "íģ¬ìĿĺ": 3238,
      "1998": 3239,
      "ë¬´ëĿ¼": 3240,
      "íŀĮ": 3241,
      "ĠìĿ´ìĥģìĿĺ": 3242,
      "ë¦¿": 3243,
      "Ġê´ĳì£¼": 3244,
      "Ġì¶ľíĮĲ": 3245,
      "ìĬ¤íĨł": 3246,
      "ER": 3247,
      "ĠìĺģêµŃìĿĺ": 3248,
      "ìĽĥ": 3249,
      "Ġì´ĪëĮĢ": 3250,
      "Ġê°Ģê¹Į": 3251,
      "¿Ī": 3252,
      "Ġh": 3253,
      "Ġë§Īë¥´": 3254,
      "íķĻìłģ": 3255,
      "ĠìĦľìļ¸íĬ¹ë³Ħìĭľ": 3256,
      "íĤ¤ëĬĶ": 3257,
      "ĠìĿ¼ë°ĺìłģìľ¼ë¡ľ": 3258,
      "ĠìĪĺìĥģìŀĲ": 3259,
      "ĠíĹ¬": 3260,
      "ëĭĪìĬ¤": 3261,
      "ong": 3262,
      "Ġìĸ´ëĬĲ": 3263,
      "Ġì§Ģì§Ģ": 3264,
      "Ġê°ľìĭľ": 3265,
      "ìĿ´ì§Ģë§Į": 3266,
      "ĠìºĲë¦ŃíĦ°": 3267,
      "ĠíĢ": 3268,
      "êµŃìłľ": 3269,
      "ë¥´íĪ¬": 3270,
      "ry": 3271,
      "Ġê´´": 3272,
      "åĮ": 3273,
      "ĠìĿ´ìłģ": 3274,
      "ĠìĤ¬ì§Ħ": 3275,
      "Ġë°Ķíĥķ": 3276,
      "ìĨĶ": 3277,
      "Ġíķ´ìĻ¸": 3278,
      "ĠìŀĶ": 3279,
      "ĠìĹ¬ê¸°": 3280,
      "ìĿ´ì¹ĺ": 3281,
      "é«": 3282,
      "35": 3283,
      "ĠìĿ´ëķĮ": 3284,
      "80": 3285,
      "Ġë²ĦìłĦ": 3286,
      "Ġìĭľë¯¼": 3287,
      "ë¸": 3288,
      "Ġto": 3289,
      "Ġë¥ĺ": 3290,
      "SBS": 3291,
      "Ġstyle": 3292,
      "ê¼": 3293,
      "ë¬´ë¥¼": 3294,
      "ĠëķĮë¬¸ìĿ´ëĭ¤": 3295,
      "Ġëĥ": 3296,
      "Ġê·¸ë¥¼": 3297,
      "Ġê³µíĻĶêµŃ": 3298,
      "Ġíļ¨ê³¼": 3299,
      "Ġë°Ľìķĺ": 3300,
      "ĠíļįëĵĿ": 3301,
      "cm": 3302,
      "1996": 3303,
      "Ġë°Ľê³ł": 3304,
      "ne": 3305,
      "ĠìľłëĭĪ": 3306,
      "ĠII": 3307,
      "Ġì¢ħë¥ĺ": 3308,
      "ĠíļĮìĤ¬": 3309,
      "Ġì¢ĭìķĦ": 3310,
      "ĠìķĦíĤ¤": 3311,
      "ĠìĿ´ê²ĥìĿĢ": 3312,
      "íĶĦë¦¬": 3313,
      "ìĦ±ê³¼": 3314,
      "ĠìĿ´ë¥´": 3315,
      "ì²´ê°Ģ": 3316,
      "Ġì¢ĭìĿĢ": 3317,
      "1990": 3318,
      "ê±¸": 3319,
      "Ġìĺ¤ëĬĺ": 3320,
      "ĠëıĻìĿ¼": 3321,
      "áĨŀ": 3322,
      "ok": 3323,
      "ë²ĦíĬ¸": 3324,
      "ĠìĶ¨": 3325,
      "Ġë¶Īê°Ģ": 3326,
      "ë¯¼ì£¼ëĭ¹": 3327,
      "ĠìĿĺìĽĲ": 3328,
      "ëĭ¨ìĿĦ": 3329,
      "íķĳ": 3330,
      "Ġìĸ¸ê¸ī": 3331,
      "Ġë§¨": 3332,
      "íĺ¸ë¡ľ": 3333,
      "Ġì¢ħë£Į": 3334,
      ";\"": 3335,
      "Ġë°ĺìĿĳ": 3336,
      "ë¹Ļ": 3337,
      "Ġìĺ¬ëĿ¼": 3338,
      "ĠìķĦì¹´": 3339,
      "ë¡ľìĿĺ": 3340,
      "ĠëĤĺìĿ´": 3341,
      ".(": 3342,
      "ëłµ": 3343,
      "Ġëį´": 3344,
      "ial": 3345,
      "ëĮĢìĥģ": 3346,
      "ìĽĢìĿĦ": 3347,
      "ê¸°ìĻĢ": 3348,
      "ë©¸": 3349,
      "ìĿ´íĥĪë¦¬ìķĦ": 3350,
      "Ġë§ĮíĻĶ": 3351,
      "ĮĦ": 3352,
      "ëıĦìĭľ": 3353,
      "ë¬¸íķĻ": 3354,
      "ĠêµĲìŀ¥": 3355,
      "ë¡±": 3356,
      "íĻĢ": 3357,
      "ĠìłĦìŀĲ": 3358,
      "Ġ1970": 3359,
      "ë¸Ĳ": 3360,
      "ìĿ¼ìĿĦ": 3361,
      "íĸĪëĭ¤ê³ł": 3362,
      "Ġë³ĢíĻĶ": 3363,
      "åŃĲ": 3364,
      "ass": 3365,
      "Ġë¸ĮëĿ¼ì§Ī": 3366,
      "ĠìķĦìĭľìķĦ": 3367,
      "Ġde": 3368,
      "Ġë³¸ìĦł": 3369,
      "ĠìĮį": 3370,
      "íĬ¸ìĽĮ": 3371,
      "ĠìĨĮìľł": 3372,
      "ĠìĦľë¹ĦìĬ¤": 3373,
      "ng": 3374,
      "Ġê¸°ìĽĲìłĦ": 3375,
      "ĠĊĊĠ": 3376,
      "Ġ1986": 3377,
      "ĠìŀħíķĻ": 3378,
      "Ġì§ķ": 3379,
      "ĠëıĪ": 3380,
      "íľ´": 3381,
      "ĠFCìĿĺ": 3382,
      "ord": 3383,
      "ìĤ°ìĹħ": 3384,
      "Ġíıīê·ł": 3385,
      "ĠíĺĦìŀ¬ìĿĺ": 3386,
      "ĠìĹĲëĦĪ": 3387,
      "Ġê³§": 3388,
      "Ġê²°ìĬ¹": 3389,
      "Ġê´Ģíķł": 3390,
      "ĠëĬĺ": 3391,
      "ãĥ¼": 3392,
      "Ġfor": 3393,
      "ĠìĬ¤íħĮ": 3394,
      "íķĻëħĦ": 3395,
      "éĩĮ": 3396,
      "ìª½ìĹĲ": 3397,
      "ëıĪ": 3398,
      "íĺ¸ëĬĶ": 3399,
      "ê·¸ëŀĺ": 3400,
      "ìĿĮìķħ": 3401,
      "ĠíĿĲ": 3402,
      "ëŁ¬ëĤĺ": 3403,
      "ë©´ìĹĲ": 3404,
      "Ġëķħ": 3405,
      "Ġì¡°ê±´": 3406,
      "ĠêµŃëıĦ": 3407,
      "ĠìļĶë¦¬": 3408,
      "ĠZ": 3409,
      "Ġì¹Ń": 3410,
      "ĠìĦłì¶ľ": 3411,
      "ì¤ĳìķĻ": 3412,
      "ob": 3413,
      "Ġì¡°ìķ½": 3414,
      "ĠìŀĲëıĻì°¨": 3415,
      "ëĤľëĭ¤": 3416,
      "ĠëĦ£": 3417,
      "ìĦ¯": 3418,
      "ëıĦìļ°": 3419,
      "ë¥´ìĿĺ": 3420,
      "Ġê°ĢíĨ¨ë¦Ń": 3421,
      "CA": 3422,
      "Ġìłķê·ľ": 3423,
      "ìĥģìĿ´": 3424,
      "ĠìĬ¹ë¦¬": 3425,
      "Ġë©Ķëĭ¬ë¦¬ìĬ¤íĬ¸": 3426,
      "ĠìĭĿë¬¼": 3427,
      "æ°ı": 3428,
      "Ġëĭ¤ì¹´": 3429,
      "ens": 3430,
      "íķĻìĥĿ": 3431,
      "Ġíķĺëĭ¤": 3432,
      "íĬ¸ëĬĶ": 3433,
      "Ġë³´ìĿ¸ëĭ¤": 3434,
      "ĠíĺķìĭĿ": 3435,
      "ê³ĦìĿĺ": 3436,
      "ĠìĹĶì§Ħ": 3437,
      "1997": 3438,
      "ĠìĨĮíĶĦíĬ¸ìĽ¨ìĸ´": 3439,
      "ëĵľë¥¼": 3440,
      "ain": 3441,
      "Ġë¶Ģì¡±": 3442,
      "ë§ĪìĿ´": 3443,
      "ìĬ¤ìĹĲ": 3444,
      "ĠìĦ¸íı¬": 3445,
      "ĠìĿ´íķ´": 3446,
      "Ġê°ķìĽĲ": 3447,
      "Ġìĸ¸ë¡ł": 3448,
      "ìĦ¸ìĿ´": 3449,
      "ì¹ĺê°Ģ": 3450,
      "Ġëĵ±ìĹĲ": 3451,
      "å¼": 3452,
      "Ġê°ľìĹħ": 3453,
      "ĠíĿ¥": 3454,
      "Ġê·¸ë¦¼": 3455,
      "ĠAl": 3456,
      "ìĭľì¼ľ": 3457,
      "Ġ1984": 3458,
      "ìłľëĬĶ": 3459,
      "ik": 3460,
      "ëĢ": 3461,
      "ĠëĽ°ìĸ´": 3462,
      "ë¦¬ê·¸ìĿĺ": 3463,
      "ont": 3464,
      "Ġê±¸ì³Ĳ": 3465,
      "ĠìŀĪìĸ´ìĦľ": 3466,
      "ê°ľìĽĶ": 3467,
      "ìĽĲìĹĲ": 3468,
      "Ġë¬¸íķĻ": 3469,
      "ĠëĳĲê³ł": 3470,
      "ëŁŃ": 3471,
      "ìĦ±ìĹĲ": 3472,
      "ë¶Ģê°Ģ": 3473,
      "æķ": 3474,
      "ìĤ¬ëĭ¨": 3475,
      "ĠíĻķìŀ¥": 3476,
      "ìĭ¬ìĿĦ": 3477,
      "ĠíĻľëıĻìĿĦ": 3478,
      "ĠTh": 3479,
      "ĠìĪĺëĬĶ": 3480,
      "ĠUn": 3481,
      "Ġ1985": 3482,
      "Ġíľĺ": 3483,
      "ĠìĿ´ë¦ĦìĿĢ": 3484,
      "Ġìłķìĭł": 3485,
      "íļĮë¥¼": 3486,
      "íĴĢ": 3487,
      "ìłĦìŀĲ": 3488,
      "Ł³": 3489,
      "ë¬¸íĻĶìŀ¬": 3490,
      "éĢ": 3491,
      "ëłĩê²Į": 3492,
      "ëį¤": 3493,
      "com": 3494,
      "Ġìŀĥ": 3495,
      "ë·°": 3496,
      "ìĶ©": 3497,
      "ĠíĹĮë²ķ": 3498,
      "ìłķìĿ´": 3499,
      "ĠëĿ": 3500,
      "ìļ°ë¦¬": 3501,
      "ëłĪìĿ´ìħĺ": 3502,
      "Ġè": 3503,
      "Ġê²½ìĺģ": 3504,
      "Ġë¶ĦìĦĿ": 3505,
      "ëĭ¤ìĿ´": 3506,
      "ON": 3507,
      "Ġíķĺë£¨": 3508,
      "¨ë¦¬": 3509,
      "ìĦ¸ê°Ģ": 3510,
      "Ġç": 3511,
      "Ġê°ľë´ī": 3512,
      "ìľłëŁ½": 3513,
      "ect": 3514,
      "Ġìłľì¡°": 3515,
      "ì³¤ëĭ¤": 3516,
      "êµ¬ìĹĲ": 3517,
      "Ġk": 3518,
      "eg": 3519,
      "ë¶Īìĸ´": 3520,
      "ê²ĮìŀĦ": 3521,
      "ìĺģìĸ´": 3522,
      "1995": 3523,
      "éķĩ": 3524,
      "íĸĪëĬĶëį°": 3525,
      "Ġêµ°ìĿ¸": 3526,
      "Ġìµľì´Īë¡ľ": 3527,
      "Ġê°ĲëıħìĿĺ": 3528,
      "ĠìĦłìĸ¸": 3529,
      "ëª¨ë¦¬": 3530,
      "ìĹ°íķ©": 3531,
      "round": 3532,
      "ory": 3533,
      "ì°¨ìłĦ": 3534,
      "31": 3535,
      "ì§ĢìĻĢ": 3536,
      "ĠìĬ¤íĬľ": 3537,
      "ìĭľíĤ¤ëĬĶ": 3538,
      "ĠìĬ¤íĬ¸": 3539,
      "ëį°ìĿ´": 3540,
      "ĠìłĦìĹĲ": 3541,
      "ĠëĲĺìĹĪê³ł": 3542,
      "Ġëªħëł¹": 3543,
      "Ġë¹ħ": 3544,
      "ê°Ĳëıħ": 3545,
      ")(": 3546,
      "å¥": 3547,
      "ëĤĺë¯¸": 3548,
      "íħĮìĿ¸": 3549,
      "ĠìĽĢ": 3550,
      "1994": 3551,
      "Ġ188": 3552,
      "ì§Ģì»¬": 3553,
      "ĠìķĮëłī": 3554,
      "ĠìľłìĤ¬": 3555,
      "Ġë°ĶëĢ": 3556,
      "ĠëĮĢë¶Ģë¶ĦìĿĺ": 3557,
      "Ġëª©íĳľ": 3558,
      "ĠìĹĨìĹĪëĭ¤": 3559,
      "äºº": 3560,
      "ìĿĢíĸī": 3561,
      "BO": 3562,
      "å·ŀ": 3563,
      "ìĿ¸íĬ¸": 3564,
      "Ġìłľíķľ": 3565,
      "Ġì£¼ë¯¼": 3566,
      "ëĶĶìķĦ": 3567,
      "Ġê³µìĤ°": 3568,
      "ĠìķĦíĶĦë¦¬ì¹´": 3569,
      "Ġëª¬": 3570,
      "ê·¸ë£¹": 3571,
      "Ġì§ĢìĨį": 3572,
      "Ġë®¤ì§ģ": 3573,
      "Ġì¢ħíķ©": 3574,
      "Ġìĺģìĸ´": 3575,
      "ĠìĤ¬ìĿ´ìĿĺ": 3576,
      "ìĦ¸ëĬĶ": 3577,
      "ìŀĦìĬ¤": 3578,
      "hy": 3579,
      "ĠìĨįíķĺëĬĶ": 3580,
      "ĠíĽĦì¿ł": 3581,
      "ĠëĶĶìŀĲìĿ¸": 3582,
      "Ġë§ĪìĤ¬": 3583,
      "Ġì´Į": 3584,
      "ĠìĽ¹ìĤ¬ìĿ´íĬ¸": 3585,
      "ĠìĻľ": 3586,
      "ĠìĤ¬ìļ©íķĺëĬĶ": 3587,
      "Ġë°ľë§¤ëĲľ": 3588,
      "ìĤ¬ê±´": 3589,
      "ìķĦìĭľìķĦ": 3590,
      "ĠíĶĦëŀĳìĬ¤ìĿĺ": 3591,
      "ĠìĿ´ëŁ°": 3592,
      "ĠëĦ¤ëįľëŀĢëĵľ": 3593,
      "İìĿĢ": 3594,
      "ĠíķĺëĤĺìĿ´ëĭ¤": 3595,
      "ĠìĬ¹ê²©": 3596,
      "Ġíı´ëŀĢëĵľ": 3597,
      "Ġì±ĦëĦĲ": 3598,
      "åľĭ": 3599,
      "ì§ľ": 3600,
      "Ġì½Ķë¯¸ëĶĶ": 3601,
      "nt": 3602,
      "è¨": 3603,
      "ĠìłľíĴĪ": 3604,
      "ary": 3605,
      "æĿ±": 3606,
      "ĠëĤ´ëł¤": 3607,
      "Ġon": 3608,
      "ìĨĮê°Ģ": 3609,
      "ĠíĮĮìĿ´": 3610,
      "ìĺ¹": 3611,
      "Ġíķĺì§Ģ": 3612,
      "ëĤ´ëĬĶ": 3613,
      "Ġë¹Ħíĸī": 3614,
      "ê³µìĤ¬": 3615,
      "Ġì°¬": 3616,
      "Ġê²½ìĥģë¶ģëıĦ": 3617,
      "ĠëĶĶì§ĢíĦ¸": 3618,
      "36": 3619,
      "ìŀĲëĵ¤ìĿĢ": 3620,
      "37": 3621,
      "íĺ¹": 3622,
      "íĸĪìĿĦ": 3623,
      "ĠìķĦë§Ī": 3624,
      "ë¦¬ìĹĦ": 3625,
      "Ġê²¨": 3626,
      "45": 3627,
      "Ġëª¨ìĬµìĿĦ": 3628,
      "ĠíĨµê³¼": 3629,
      "Ġë²ķë¥ł": 3630,
      "íķĺëıĦë¡Ŀ": 3631,
      "Ġì¹ł": 3632,
      "ĠìŀĪìĹĪëįĺ": 3633,
      "ë´": 3634,
      "Ġê½ĥ": 3635,
      "íı¬ëĭĪìķĦ": 3636,
      "Ġìºł": 3637,
      "ê²¼ëĭ¤": 3638,
      "íĭ¸": 3639,
      "ĠíĻĢ": 3640,
      "ĠSp": 3641,
      "ge": 3642,
      "ëĲĺìĹĪëįĺ": 3643,
      "íķľëĭ¤ëĬĶ": 3644,
      "Ġ1981": 3645,
      "ê¸°ìĹħ": 3646,
      "íĶ¼ìķĦ": 3647,
      "Ġë¯¿": 3648,
      "ëªħìľ¼ë¡ľ": 3649,
      "ë¸ĮëĿ¼": 3650,
      "ëłĢëĭ¤": 3651,
      "Ġìĸ´ëł¤": 3652,
      "ì£¼ë¥¼": 3653,
      "ĠíĬ¹ìĪĺ": 3654,
      "Ġ1983": 3655,
      "Ġì¹ĺë£Į": 3656,
      "ëŀŃ": 3657,
      "ëĳĶ": 3658,
      "ĠíķĢ": 3659,
      "Ġë¹Ľ": 3660,
      "ĠìĨĮë¹Ħ": 3661,
      "ib": 3662,
      "ĠëĮĢì¤ĳ": 3663,
      "Ġìĭ¤íĹĺ": 3664,
      "Ġæ": 3665,
      "ĠAr": 3666,
      "ĠìŀĪê²Į": 3667,
      "íĪ": 3668,
      "Ġìŀ¥ê´Ģ": 3669,
      "Ġëĵ±ìľ¼ë¡ľ": 3670,
      "ĠìĦłìĪĺê¶Į": 3671,
      "Ġëī´ìĬ¤": 3672,
      "ìłľìŀĳ": 3673,
      "ìļĶìĭľ": 3674,
      "ìĿĺíļĮ": 3675,
      "Ġê°ķíĻĶ": 3676,
      "ĠëįĶìļ±": 3677,
      "ä¿": 3678,
      "ĠìĺĪìĦł": 3679,
      "Ġë¶Īêµ¬": 3680,
      "ide": 3681,
      "ëıĻìĹĲ": 3682,
      "ìĿ¼ìĹĲëĬĶ": 3683,
      "ëĲ¨": 3684,
      "ĠìĤ¬ëĿ¼": 3685,
      "ĺë¦¬íı¬ëĭĪìķĦ": 3686,
      "Ġìŀħëĭ¨": 3687,
      "Ġìľłíĺķ": 3688,
      "íķĻëł¥": 3689,
      "íķµ": 3690,
      "Ġìľłë¡ľ": 3691,
      "ĠìłľìŀĳëĲľ": 3692,
      "Ġë§º": 3693,
      "êµ¬ë¥¼": 3694,
      "ich": 3695,
      "å®ī": 3696,
      "Ġíı¬íķ¨íķľ": 3697,
      "ë¡¬": 3698,
      "Ġë§ĲíĸĪëĭ¤": 3699,
      "ëį°ë¯¸": 3700,
      "ate": 3701,
      "Ġë¶ģíķľ": 3702,
      "99": 3703,
      "ì¤ĳêµŃ": 3704,
      "ìĦ¸ë¥¼": 3705,
      "ĠìĿ´ìľłë¡ľ": 3706,
      "ĠìĦłìĪĺìĿ´ëĭ¤": 3707,
      "ê½ĥ": 3708,
      "Ġì§Ģíķĺì²ł": 3709,
      "Ġë²¤": 3710,
      "ìŀĲë£Į": 3711,
      "Ġìĭľíĸī": 3712,
      "ìĤ¬ëŀĳ": 3713,
      "ĠíĶĦëłĪ": 3714,
      "ì»´": 3715,
      "ĠìĿĮìķħê°Ģ": 3716,
      "Ġì§ĢìĹŃìĹĲ": 3717,
      "ĠëĤĺìĺ¨": 3718,
      "Ġê°Ģë¦¬íĤ¨ëĭ¤": 3719,
      "ĠëıħìĿ¼ìĿĺ": 3720,
      "ìłģìĿ´": 3721,
      "Ġê²ĥìĿ´ëĿ¼ê³ł": 3722,
      "ê°ľë°ľ": 3723,
      "ì»¨": 3724,
      "1992": 3725,
      "ĠêµŃíļĮ": 3726,
      "ìĨĮìĿĺ": 3727,
      "Ġë°ĿíĺĶëĭ¤": 3728,
      "70": 3729,
      "ìĽłëĭ¤": 3730,
      "ĠíĺĪ": 3731,
      "ì°¨ë¡ľ": 3732,
      "ìĹ½": 3733,
      "ë§ĮìĿĦ": 3734,
      "ĠìĹĲìĿ´": 3735,
      "ĠìĭłìĦ¤": 3736,
      "ĠëĤĺì¹´": 3737,
      "end": 3738,
      "Ġíİĺë¥´": 3739,
      "ë§ĮìĿ´": 3740,
      "ĠíĴĪ": 3741,
      "ground": 3742,
      "back": 3743,
      "ìľĦìĿĺ": 3744,
      "Ġì§Ģìĥģ": 3745,
      "Ġ1982": 3746,
      "Ġëĭ¬ìĦ±": 3747,
      "ì§Ģì§Ģ": 3748,
      "Ġê·¸ëĵ¤ìĿĺ": 3749,
      "Ġìľłëŀĺ": 3750,
      "ëŀĲëĭ¤": 3751,
      "ĻìĿĢ": 3752,
      "ĠìŀĲë¦¬": 3753,
      "Ġë¶Ģë¥´": 3754,
      "Ġê²°íķ©": 3755,
      "ĠìĦ¤ê³Ħ": 3756,
      "ore": 3757,
      "å»": 3758,
      "Ġê¸°íļį": 3759,
      "Ġìłľì£¼": 3760,
      "ë¶Ģë¡ľ": 3761,
      "ë¯¸ìķ¼": 3762,
      "Ġêµ¬ëĭ¨": 3763,
      "ìŀĲì¹ĺ": 3764,
      "åįĹ": 3765,
      "íģ¬ëĿ¼ìĿ´": 3766,
      "ĠìĹ¬íĸī": 3767,
      "ĠĊĠĊĠĊ": 3768,
      "ĠìłĲëł¹": 3769,
      "io": 3770,
      "íĶĪ": 3771,
      "ë¶ĢìĤ°": 3772,
      "Ġë°©ë¬¸": 3773,
      "ëĿ¼ìļ°": 3774,
      "ĠìĿ¸íĦ°ëĦ·": 3775,
      "ìĦ±ìļ°": 3776,
      "ê¸°ìĽĲìłĦ": 3777,
      "ì¡°ìĹ°": 3778,
      "Ġë²łíĬ¸ëĤ¨": 3779,
      "ìĭľë¡ľ": 3780,
      "íĦ°íħĮìĿ¸": 3781,
      "ĠìĦ±ìŀ¥": 3782,
      "Ġì¼ĢìĿ´": 3783,
      "Ġíİľ": 3784,
      "ëħĦìĿĦ": 3785,
      "ĠëªħìĺĪ": 3786,
      "ĠëıĻìĥĿ": 3787,
      "ĠìĨĮê°ľ": 3788,
      "íĶĦëŀĳìĬ¤ìĿĺ": 3789,
      "íķ´ìĿĺ": 3790,
      "íķ¨ìľ¼ë¡ľìį¨": 3791,
      "AR": 3792,
      "åĬ": 3793,
      "ĠìĿĢíĩ´": 3794,
      "ë¹ł": 3795,
      "ĠìķĮëł¤ì§Ħ": 3796,
      "åŁİ": 3797,
      "ure": 3798,
      "Ġì§Ģì§Ħ": 3799,
      "ìĽĲìĹĲìĦľ": 3800,
      "Ġê²°ìĦ±": 3801,
      "ê·¸ëĬĶ": 3802,
      "ite": 3803,
      "Ġê²½ìĥģëĤ¨ëıĦ": 3804,
      "íıīìĸĳ": 3805,
      "ìĿ¸êµ¬": 3806,
      "íĭ°ìķĦ": 3807,
      "ĠìĿ´ë¦Ħìľ¼ë¡ľ": 3808,
      "ä¸ī": 3809,
      "ld": 3810,
      "Ġë©Ģ": 3811,
      "Ġê°Ģë¬¸": 3812,
      "1993": 3813,
      "Ġê³ĦìĹ´": 3814,
      "ë¥´íĪ¬ê°Ī": 3815,
      "Ġìĭ¤ìłľ": 3816,
      "Ġì¤Ģìļ°ìĬ¹": 3817,
      "ĠUEFA": 3818,
      ")'": 3819,
      "Ġê²½íĹĺ": 3820,
      "Ġêµ¬ë¶Ħ": 3821,
      "ëĭµ": 3822,
      "Ġìĵ´": 3823,
      "ĠPro": 3824,
      "æī": 3825,
      "ëıĻìĿĦ": 3826,
      "Ġê·¸ëħĢëĬĶ": 3827,
      "íĦ°íħĮìĿ¸ë¨¼íĬ¸": 3828,
      "íģ¼": 3829,
      "ìĻĶ": 3830,
      "ĠëŁ°ëįĺ": 3831,
      "ust": 3832,
      "ëŁ´": 3833,
      "Ġê·¸ë¦°": 3834,
      "ëĩĮ": 3835,
      "ê°ĢìĿĺ": 3836,
      "33": 3837,
      "Ġë²łìĿ´ìĬ¤": 3838,
      "Ŀê°Ģ": 3839,
      "íĶĮëłĪìĿ´": 3840,
      "ë¹Ħë¥¼": 3841,
      "Ġë¶ĢìĹ¬": 3842,
      "ĠìłĦëĿ¼ëĤ¨ëıĦ": 3843,
      "íķĺìĿĺ": 3844,
      "ĠìĿĺë¯¸íķľëĭ¤": 3845,
      "ìĸ´ìĦľ": 3846,
      "ĠëįĶë¶Īìĸ´": 3847,
      "ĠìķĦëĤ´": 3848,
      "man": 3849,
      "é«ĺ": 3850,
      "ìĿ¸ìľ¼ë¡ľ": 3851,
      "ĠìĦ¼íĦ°": 3852,
      "ç¦": 3853,
      "ê¸ĪìĿĦ": 3854,
      "ĠìĽĢì§ģ": 3855,
      "Ġê¸°ìŀĲ": 3856,
      "ĠìŀĲì£¼": 3857,
      "Ġì§ĢìłķëĲĺìĹĪëĭ¤": 3858,
      "ì¿łëĿ¼": 3859,
      "Ġëĭ¤ìĿĮìĿĦ": 3860,
      "ĠëģĮ": 3861,
      "ĠìłľìķĪ": 3862,
      "ìĬµëĭĪëĭ¤": 3863,
      "íĬ¸ìĽĮíģ¬": 3864,
      "Ġìµľê·¼": 3865,
      "ëĭ¥": 3866,
      "Ġê³łëĮĢ": 3867,
      "Ġê²ĥìĹĲ": 3868,
      "ĠëĤĺë¨¸": 3869,
      "Ġë¶Īêµ¬íķĺê³ł": 3870,
      "Ġë°ľë§¤ëĲĺìĹĪëĭ¤": 3871,
      "SS": 3872,
      "ĠìĹĺë¦¬": 3873,
      "ĠìĪĺì¤Ģ": 3874,
      "ì¼ľ": 3875,
      "ìĿ¸ì§Ģ": 3876,
      "ê²½ì°°": 3877,
      "ef": 3878,
      "ëĭĪìĭľ": 3879,
      "Ġíİ¸ìŀħ": 3880,
      "ĠíĶĦë¡ľëĵĢìĦľ": 3881,
      "ë¡ľë§Ī": 3882,
      "Ġê°ľì¹Ń": 3883,
      "ĠìķĮê³ł": 3884,
      "ì´ī": 3885,
      "Ġìłĳê·¼": 3886,
      "èĩ": 3887,
      "ĠíķĺëĤĺìĿĺ": 3888,
      "ìĽĶë¶ĢíĦ°": 3889,
      "ëĲĺê¸°": 3890,
      "Ġê¹¨": 3891,
      "75": 3892,
      "ĠíĻ©ìłľ": 3893,
      "ĠìĻ¸êµĲ": 3894,
      "38": 3895,
      "ì²´ëĬĶ": 3896,
      "Ð°": 3897,
      "her": 3898,
      "ĠëĨĢ": 3899,
      "ĠëĿ¼ìĿ´ë¸Į": 3900,
      "32": 3901,
      "åĽ": 3902,
      "ĠìłķíĻķ": 3903,
      "ì¹ĺê³ł": 3904,
      "ĠìłľêµŃìĿĺ": 3905,
      "ëĿ¼ëħ¸": 3906,
      "Ġë°Ķíĥķìľ¼ë¡ľ": 3907,
      "Ġë²Ķì£Ħ": 3908,
      "ìŀĲëĵ¤ìĿ´": 3909,
      "ĠìĻĦìłĦíŀĪ": 3910,
      "Ġë¬¼ë¦¬": 3911,
      "ìª½ìľ¼ë¡ľëĬĶ": 3912,
      "Ġìĭ¶": 3913,
      "age": 3914,
      "65": 3915,
      "1991": 3916,
      "ìĭľìĦ¤": 3917,
      "background": 3918,
      "ĠìĤ¬ëŀĮìĿ´": 3919,
      "ë¶Ģë¬¸": 3920,
      "ì§ĢëıĦ": 3921,
      "Ġë¯¸ëŀĺ": 3922,
      "34": 3923,
      "64": 3924,
      "åħ¬": 3925,
      "Ġë¬¼ì§Ī": 3926,
      "å¤©": 3927,
      "uc": 3928,
      "ies": 3929,
      "Ġë©¸": 3930,
      "Ġìľ¡ìĥģ": 3931,
      "ãĢĪ": 3932,
      "ĠìķĻ": 3933,
      "ey": 3934,
      "åĭ": 3935,
      "ĠìĺĪë¥¼": 3936,
      "ìĿ´íĽĦ": 3937,
      "Ġë§¡ìķĺëĭ¤": 3938,
      "ìĿ¸ëį°": 3939,
      "Ġëĭ¬ëŁ¬": 3940,
      "Ġìĺ¤ìĬ¤íĬ¸ëłĪìĿ¼": 3941,
      "ìłķìĿĢ": 3942,
      "ical": 3943,
      "ëĭĪìĸ´": 3944,
      "Ġì¤ĳìĹĲ": 3945,
      "ĠìķĦì§ģ": 3946,
      "Ġë§ĮëĤĺ": 3947,
      "rom": 3948,
      "ĠíĮĮê´´": 3949,
      "íķŃê³µ": 3950,
      "ç§": 3951,
      "ìĹŃìĿĦ": 3952,
      "ue": 3953,
      "ëŀį": 3954,
      "ĠìŀĳìĤ¬": 3955,
      "ĠìĪł": 3956,
      "ë²ķìĿĦ": 3957,
      "Ġíķ©ë³ĳ": 3958,
      "ĠìĿĺìĤ¬": 3959,
      "ìĭ¸": 3960,
      "ĠìĹ¬ë¦Ħ": 3961,
      "íķĺë§Ī": 3962,
      "Ġ1960": 3963,
      "ĠíķĺëĤĺë¡ľ": 3964,
      "ĠPr": 3965,
      "ì°¬ê°Ģì§Ģ": 3966,
      "39": 3967,
      "ĠìĬ¤ìĽ¨ëį´": 3968,
      "ìĤ°ìĭľ": 3969,
      "Ġë¹Ħíķ´": 3970,
      "Ð¸": 3971,
      "Ġì°¨íĬ¸": 3972,
      "ë¦¬ìĸ´": 3973,
      "Ġì¤ĳíķĻêµĲ": 3974,
      "ĠìŀĦìĭľ": 3975,
      "ë³¸ë¶Ģ": 3976,
      ":#": 3977,
      "ĠíĬ¹ìłķ": 3978,
      "1988": 3979,
      "ĠìĤ¬ìĿ´íĬ¸": 3980,
      "Ð¾": 3981,
      "Ġë¯¸ìĤ¬": 3982,
      "ly": 3983,
      "ĠìķĬìķĦ": 3984,
      "ì£¼ë¡ľ": 3985,
      "ĠìĬµ": 3986,
      "Ġ60": 3987,
      "Ġì¶Ķì§Ħ": 3988,
      "ëŀĦ": 3989,
      "78": 3990,
      "ìľĦê°Ģ": 3991,
      "Ġì£¼ìĿ¸ê³µ": 3992,
      "ĠëķĮê¹Įì§Ģ": 3993,
      "Ġê±°ëĳĲ": 3994,
      "ìķĦê°Ģ": 3995,
      "Ġìŀĩ": 3996,
      "ìĹĪìľ¼ë©°": 3997,
      "ê°ĲìĿĦ": 3998,
      "ĠCom": 3999,
      "ĠìĪĺìļ©": 4000,
      "Ġëħ¼ëŀĢ": 4001,
      "iz": 4002,
      "ĠíļĮìŀ¥": 4003,
      "ĠìĿ´ëĵ¤ìĿĢ": 4004,
      "ìĥģìĿĢ": 4005,
      "ìĹ°íĺģ": 4006,
      "å®Ĺ": 4007,
      "ë°ĶëĿ¼": 4008,
      "ĠìļĶì²Ń": 4009,
      "ê´Ģëł¨": 4010,
      "Ġë¶ĢìĿ¸": 4011,
      "Ġë¶ĪêµĲ": 4012,
      "ìĭĿìĿ´": 4013,
      "ivers": 4014,
      "ì£¼ìĹĲ": 4015,
      "ê·ľëª¨": 4016,
      "ìłĲìĿ´": 4017,
      "ond": 4018,
      "ìĿ¸ë¯¼ê³µíĻĶêµŃìĿĺ": 4019,
      "ëĶĺ": 4020,
      "è»": 4021,
      "ëĤĺëĿ¼ìĿĺ": 4022,
      "Ġê¸°ì´Ī": 4023,
      "ĠìłķìĭĿ": 4024,
      "ê´ĢìĿĢ": 4025,
      "1989": 4026,
      "ĠìľĦíĹĺ": 4027,
      "Ġíĳľìĭľ": 4028,
      "ê°Ħëĭ¤": 4029,
      "ĠìłķëıĦë¡ľ": 4030,
      "ë¬¼ìĿĺ": 4031,
      "55": 4032,
      "Ġì¡´ìŀ¬íķľëĭ¤": 4033,
      "Ġë°ľëĭ¬": 4034,
      "OS": 4035,
      "ìľ¼ë¯Ģë¡ľ": 4036,
      "ëħĦê°Ħ": 4037,
      "ĠìĦ±ê²©": 4038,
      "ĠìĿĺíķĺìĹ¬": 4039,
      "ĠìĻķêµŃ": 4040,
      "ì§ĵ": 4041,
      "ëĶĶìĸ´": 4042,
      "ìķĦë¥´": 4043,
      "Ġê¿Ī": 4044,
      "Ġê°Ģë¥´": 4045,
      "ĠìŀĪëıĦë¡Ŀ": 4046,
      "Ġ1979": 4047,
      "Ġë°°ì¹ĺ": 4048,
      "Ġìłľìĭľ": 4049,
      "Ġì´ī": 4050,
      "ë¡ľëĵľ": 4051,
      "Ġë¹Ħë°Ģ": 4052,
      "ĠëĦ¤ìĿ´": 4053,
      "ìĥģìĹĲ": 4054,
      "Ġìĺ¤ë¥¸": 4055,
      "Ġê·¸ëĵ¤ìĿĢ": 4056,
      "ĠìľĮë¦¬ìĹĦ": 4057,
      "íĹ¨íĭ°": 4058,
      "ìĤ°ìĿĦ": 4059,
      "Ġë©ľ": 4060,
      "Ġë²ĪìĹŃ": 4061,
      "Ġìŀĳê³¡ê°Ģ": 4062,
      "ë¯¸ëĦĲ": 4063,
      "ĠìĺģìĹħ": 4064,
      "Ġë¯¸ìĥģ": 4065,
      "ì²ľìĭľ": 4066,
      "ãĥ³": 4067,
      "ë§İìĿĢ": 4068,
      "Ġê¸°ìŀ¬": 4069,
      "Ġìŀĳìļ©": 4070,
      "ì¦ĪìĿĺ": 4071,
      "ĠíĪ¬íĳľ": 4072,
      "å¹³": 4073,
      "ç¤": 4074,
      "ëĵ¤ë¡ľ": 4075,
      "ĠìĺģíĨł": 4076,
      "ĠìĭŃ": 4077,
      "Ġë°ľíĸī": 4078,
      "ĠíĺĦìŀ¬ëĬĶ": 4079,
      "íĨµìĭł": 4080,
      "Ġíģ´ëŀĺ": 4081,
      "íĻĶìĿĺ": 4082,
      "ĠìĹ¬ê²¨": 4083,
      "Ġê·¸ëŁ°": 4084,
      "íĺķìĿĦ": 4085,
      "Ġë§Īì°¬ê°Ģì§Ģ": 4086,
      "Ġ+": 4087,
      "ĠíĨµìĿ¼": 4088,
      "Ġê²½ìŁģ": 4089,
      "Ġìĺ¤ìĤ¬ì¹´": 4090,
      "íı¼": 4091,
      "ìĹĨìĿ´": 4092,
      "ëĤ¨ëıĦìĿĺ": 4093,
      "ëĥ¥": 4094,
      "Ġê³µìŀĳ": 4095
    },
    "merges": [
      "Ġ ì",
      "ì Ŀ",
      "Ġ ë",
      "í ķ",
      "Ġ ê",
      "ì Ĺ",
      "ë ĭ",
      "Ġ í",
      "ìĿ ´",
      "ìĿ ĺ",
      "ëĭ ¤",
      "ìĹ Ĳ",
      "ê ³",
      "ì Ħ",
      "ë Ĭ",
      "ë ¡",
      "ëĬ Ķ",
      "ì ł",
      "ê °",
      "ë¡ ľ",
      "ì ŀ",
      "ê µ",
      "Ġì Ŀ",
      "ë ħ",
      "íķ ĺ",
      "ë ¦",
      "ì §",
      "ëħ Ħ",
      "ì ĭ",
      "ë ¥",
      "ì ľ",
      "ìĿ Ħ",
      "íķ ľ",
      "Ġì ŀ",
      "Ĥ ¬",
      "Į Ģ",
      "ì Ĭ",
      "ë ı",
      "ì ķ",
      "¸ °",
      "Ġ 1",
      "ì Ľ",
      "Ġì ł",
      "ë¦ ¬",
      "ê³ ł",
      "ë ĵ",
      "ê° Ģ",
      "ìĦ ľ",
      "ìĬ ¤",
      "ìĿ Ģ",
      "ì ļ",
      "ì§ Ģ",
      "Ġê °",
      "Ġë °",
      "Ġ 2",
      "Ġì Ĺ",
      "ê ¸°",
      "Ġì ķ",
      "Ī ëĭ¤",
      "Ġì Ħ",
      "ìľ ¼",
      "ì ĺ",
      "Ī ĺ",
      "ĠìĿ ´",
      "ì ĸ",
      "ë Ĥ",
      "ë §",
      "ë¥ ¼",
      "Ŀ ¼",
      "ê ²",
      "ë ¶",
      "ëı Ħ",
      "ìĭ ľ",
      "ë ł",
      "£ ¼",
      "ìĿ ¸",
      "ë Ŀ¼",
      "ìĿ ¼",
      "Ġì ĭ",
      "ë °",
      "ë ©",
      "Ġë §",
      "Ġê ²",
      "êµ Ń",
      "ì Ĥ¬",
      "ì ĥ",
      "Ġì ĺ",
      "ì ¹",
      "ë Ĳ",
      "ë ĮĢ",
      "ìľ¼ ë¡ľ",
      "ìŀ Ĳ",
      "· ¸",
      "ë ŀ",
      "ìĸ ´",
      "ì Ļ",
      "ìĹĲ ìĦľ",
      "Ġê ³",
      "í Ļ",
      "ë ³",
      "ë ¯",
      "ë ¬",
      "ë¶ Ģ",
      "Ġì §",
      "ìĽ Ķ",
      "Ġì Ĥ¬",
      "ìķ Ħ",
      "íķ ´",
      "ã Ģ",
      "Ġê µ",
      "Ġë ĮĢ",
      "Ġ Ċ",
      "Ġë ĭ",
      "í ĸ",
      "ê³ ¼",
      "í ĺ",
      "Ġ (",
      "í Ĭ",
      "Ġ2 0",
      "íķ Ļ",
      "ëĤ ĺ",
      "Ġì ľ",
      "ì £¼",
      "ì Īĺ",
      "Ġë ı",
      "ë ²",
      "Ġë Ĥ",
      "ë ª",
      "ì ²",
      "í ĥ",
      "Ġë ³",
      "êµ ¬",
      "íĬ ¸",
      "ì Ĩ",
      "íĻ Ķ",
      "Ġë ¶",
      "ìŀ ¥",
      "Ġê ·¸",
      "ëĵ ľ",
      "ìł ķ",
      "ë į",
      "Ġ1 9",
      "ìĽ Ĳ",
      "ëĵ ¤",
      "¡ °",
      "ìĿ´ ëĭ¤",
      "Ġë ª",
      "ëĲ ĺ",
      "¹ Ħ",
      "ìĻ Ģ",
      "ìĥ ģ",
      "ë Ł",
      "ìł Ħ",
      "Ġì ¶",
      "ìĦ ±",
      "¤ ĳ",
      "ļ Į",
      "Ġìĭ ľ",
      "Ġì Īĺ",
      "êµ Ĳ",
      "Ġìķ Ħ",
      "ìł ģ",
      "ìļ °",
      "Ġì§ Ģ",
      "Ġê ¸°",
      "Ġê° Ģ",
      "2 0",
      "Ġ -",
      "í Ķ",
      "Ġìł ľ",
      "ëı Ļ",
      "Ġìł Ħ",
      "´ Ģ",
      "ë¥ ´",
      "í Ħ",
      "ìł ľ",
      "ģ ¬",
      "ìĹ Īëĭ¤",
      "í ļĮ",
      "ê² Į",
      "ì Ĥ",
      "Ġì ĥ",
      "Ġë ĵ",
      "ìĺ Ģ",
      "Ġìŀ Ī",
      "ì¹ ĺ",
      "ë§ Ī",
      "ì °",
      "í Ĩ",
      "1 9",
      "Ġì ļ",
      "ë© °",
      "ë¯ ¼",
      "Ġ íķĺ",
      "Ġì Ĩ",
      "Ġí ĺ",
      "ìĹ ¬",
      "Ġë ¬",
      "Ľ Ħ",
      "íĦ °",
      "Ġì Ĭ",
      "Ġë ¯",
      "ë¯ ¸",
      "ë £",
      "ĠìĦ ł",
      "Ġí Ļ",
      "Ġìł ķ",
      "Ġ íķľ",
      "Ġëĭ ¤",
      "Ġì ²",
      "Ġ 3",
      "ëĭ Ī",
      "í ģ¬",
      "ĠìĿ ¼",
      "ìĦ ł",
      "Ġìĺ ģ",
      "ë¬ ¸",
      "Ġí Ķ",
      "Ġë ²",
      "ë© ´",
      "Ġìŀ Īëĭ¤",
      "ëª ħ",
      "í Į",
      "ìĹ Ń",
      "Ġì ¤ĳ",
      "Ġë³ ´",
      "ë§ Į",
      "ìĭ ł",
      "Ġ íķ",
      "ë ¹Ħ",
      "ìļ ©",
      "ëł Ī",
      "ê³ Ħ",
      "± °",
      "Ġê³ µ",
      "íĥ Ģ",
      "Ġìŀ Ĳ",
      "Ġ :",
      "ĠìĿ ¸",
      "Ġì £¼",
      "ĠìĹ Ń",
      "Ġì ĸ",
      "ê ¸",
      "Ġê² ½",
      "Ġí ı",
      "ìĦ ¸",
      "ìľ Ħ",
      "Ġ ãĢ",
      "í ı",
      "Ġì °",
      "Ġ20 1",
      "Ġìľ ł",
      "ìĺ ¤",
      "ìĤ °",
      "Ġë¯ ¸",
      "ëĲ ľ",
      "ì¹ ´",
      "ì ¡°",
      "íķĺ ìĺĢ",
      "ìĨ Į",
      "ì ¶",
      "íķĺ ëĬĶ",
      "êµŃ ìĿĺ",
      "íĸ Īëĭ¤",
      "Ġëı Ļ",
      "ê³ µ",
      "ì ¦",
      "ëŁ ¬",
      "êµ °",
      "½ Ķ",
      "Ġìľ Ħ",
      "ì§ Ħ",
      "ãĢ ĭ",
      "Ġê² ĥ",
      "ë³ ´",
      "í Ĥ",
      "Ġ20 0",
      "ë Ħ",
      "ê ·¸",
      "Ġë¶ Ģ",
      "Ġì ¹",
      "Ġë§ Ī",
      "Ġë Ĳ",
      "ìĹ °",
      "ê² ½",
      "Ġí ĥ",
      "íķĻ êµĲ",
      "Ġí Į",
      "ê ´Ģ",
      "Ġìĺ ¤",
      "Ġì Ļ",
      "Ġì ¡°",
      "ĠìĬ ¤",
      "ĠìĹ °",
      "ìĥ Ŀ",
      "Ġê° ľ",
      "¢ ħ",
      "ĠìĨ Į",
      "í ĭ",
      "ìŀ ¬",
      "ìĭ Ŀ",
      "ĠëĤ ĺ",
      "Ġëĵ ±",
      "ìĺ ģ",
      "Ķ Ķ",
      "ĠãĢ Ĭ",
      "Ġì Ľ",
      "íĶ Ħ",
      "Ġì¶ ľ",
      "íķĺ ê³ł",
      "íĺ ¸",
      "Ġêµ Ń",
      "Ġë į",
      "Ġëª ¨",
      "Ġ 4",
      "ê° Ħ",
      "Ġëı Ħ",
      "ìĿ Į",
      "Ġê³ ł",
      "ĠìĿ ĺ",
      "ĠìĹ ¬",
      "ë³ ¸",
      "ëĭ ¨",
      "íĤ ¤",
      "Ġêµ ¬",
      "ëĭ ¹",
      "Ġë° ľ",
      "ì² ´",
      "ìŀ ĳ",
      "ìĹ ħ",
      "ê ·",
      "ë¬ ´",
      "e r",
      "ê° ģ",
      "ĠíĶ Ħ",
      "ĳ ľ",
      "íķĺìĺĢ ëĭ¤",
      "Ġí Ĩ",
      "ê° ľ",
      "ì ¡",
      "ìľ ł",
      "í İ",
      "íĸ ī",
      "íķĺ ìĹ¬",
      "ĠìĦ ľ",
      "ë¬ ¼",
      "ìĹ Ī",
      "íķľ ëĭ¤",
      "ĠìĦ ¸",
      "ìķ ¼",
      "ŀ Ī",
      "íķľ ë¯¼",
      "Ġë ¹Ħ",
      "ëį °",
      "Ġë ħ",
      "Ġ 5",
      "Ġìĭ ł",
      "´ Ī",
      "íĨ ł",
      "ĳ Ĳ",
      "Ġìĥ ģ",
      "ìŀ Ħ",
      "í ĽĦ",
      "â Ģ",
      "ê ±°",
      "ë° ĺ",
      "ķ Į",
      "ë° ©",
      "¸ Į",
      "ì Ī",
      "ë£ ¨",
      "ìľ¼ ë©°",
      "ĠìĦ ±",
      "ìļ ´",
      "ê ¹",
      "± ´",
      "ëĲĺ ìĹĪëĭ¤",
      "Ġì Ĥ",
      "Ġí ĽĦ",
      "ëŀ ĺ",
      "ì° ¨",
      "ìķ Ī",
      "ëł ¥",
      "Ġê ´Ģ",
      "a n",
      "Ġë° °",
      "ìĻ ¸",
      "Ġí ĸ",
      "ìļ Ķ",
      "ĠìĦł ìĪĺ",
      "ì ½Ķ",
      "i n",
      "ìĹĲ ëĬĶ",
      "ë ĶĶ",
      "Ġ S",
      "Ġ íķ´",
      "Ġìĺģ íĻĶ",
      "o n",
      "í ħ",
      "ëł ¤",
      "íķ ł",
      "µ ľ",
      "0 0",
      "ëŀ Į",
      "ĠëĤ ¨",
      "ì ¤ĳ",
      "Ġêµ Ĳ",
      "Ġê ¹",
      "Ġìŀ ĳ",
      "ëį ĺ",
      "ĠëĲ ĺ",
      "ë¡ Ŀ",
      "20 1",
      "ëħ ¸",
      "ëª ¨",
      "Ġ ~",
      "íı ¬",
      "ì¦ Ī",
      "íĨ µ",
      "ë² Ħ",
      "Ġë ķĮ",
      "Ġë° ©",
      "íĭ °",
      "ìĸ ĳ",
      "íĺ Ħ",
      "ë¦ ½",
      "Ġ 6",
      "ìĨ į",
      "ë° Ķ",
      "ì ¢ħ",
      "Ġí Ĭ",
      "ë¶ Ħ",
      "Ġìŀ ¥",
      "¶ Į",
      "Ġë¬ ¸",
      "í ŀĪ",
      "í Ĵ",
      "ĠìŀĪ ëĬĶ",
      "Ġë ¦",
      "Ġë ©",
      "Ġìļ °",
      "ì ħ",
      "Ġë¬ ´",
      "ì ¸",
      "Ġë° Ķ",
      "í ĳľ",
      "Ġê ¸",
      "ë¶Ģ íĦ°",
      "Ġ 7",
      "Ī ¬",
      "Ġëħ ¸",
      "Ġê¹ Ģ",
      "íĮ Į",
      "Ġì¶ ķ",
      "ëĵ ±",
      "ê¹ Į",
      "ë² ķ",
      "Ġ M",
      "í Ĺ",
      "Ġ 8",
      "ĠìĤ¬ ëŀĮ",
      "Ġì µľ",
      "Ġíĺ Ħ",
      "Ġ19 9",
      "ëĤ ¨",
      "Ġ1 0",
      "Ġíı ¬",
      "20 0",
      "ĺ Ĳ",
      "´ ĳ",
      "ĠíĨ µ",
      "Ġë§ Į",
      "Ġë¦ ¬",
      "ë¥ ¸",
      "Ġí İ",
      "Ġê ·",
      "Ġìķ Ĭ",
      "íĸ Ī",
      "ì§Ģ ë§Į",
      "¤ Ģ",
      "Ġë ¡",
      "Ġ C",
      "ĠëĤ ´",
      "Ġ 9",
      "Ġê² °",
      "Ġì§ Ħ",
      "íĺ ķ",
      "ë¦ °",
      "Ġìĸ ´",
      "Â ·",
      "ë© Ķ",
      "Ġ \"",
      "ëŀ Ģ",
      "Ġë Ķ",
      "ì ¿",
      "ìĬ¤ íĬ¸",
      "Ġê ±°",
      "ì¶ ľ",
      "e n",
      "ì ¼",
      "ìĦ ¤",
      "o r",
      "Ġ T",
      "ìĬ ¹",
      "ì² ľ",
      "ìĹĲ ê²Į",
      "Ġì¶ķ êµ¬",
      "Ġ A",
      "a l",
      "Ġë ĺĲ",
      "a r",
      "ë ¸Į",
      "ìĭ ¤",
      "ëŀ ĳ",
      "ĠìĽ Ĳ",
      "ê¹Į ì§Ģ",
      "Ġê° ķ",
      "ëĤ ´",
      "ë° ľ",
      "íķ ©",
      "Ġìĥ Ŀ",
      "ìķ ĺ",
      ") ,",
      "íķľë¯¼ êµŃìĿĺ",
      "Ġë§ ģ",
      "ĠìĦ ¤",
      "ĠìĿ Į",
      "ĠíĮ Į",
      "ëı ħ",
      "Ġê° Ļ",
      "Ġë§ģ íģ¬",
      "ê² ©",
      "íĴ Ī",
      "ìĻ¸ ë¶Ģ",
      "ìĨ ¡",
      "Ġë¶ Ī",
      "Ġë¶ Ħ",
      "ìĿ´ ëĿ¼",
      "ĠìĹ Ĳ",
      "ìł Ĳ",
      "ì »",
      "Ġìķ Į",
      "Ġë Ħ",
      "ìłģ ìĿ¸",
      "Ġ1 2",
      "ê ¶Į",
      "Ġëĭ ¹",
      "a t",
      "ìłģ ìľ¼ë¡ľ",
      "ìļ ¸",
      "ì§ ģ",
      "Ġ Ġ",
      "Ġë° ĺ",
      "ëł ¹",
      "íĥ ľ",
      "ì² Ń",
      "ë¦¬ ìķĦ",
      "ëĦ ¤",
      "Ġ '",
      "Ġí Ĺ",
      "Ġë¡ ľ",
      "Ġìķ Ī",
      "ì ´Ī",
      "ìĪ ł",
      "Ġê³ Ħ",
      "´ Ŀ",
      "e s",
      "íĶ ¼",
      "ĠíĶĦ ë¡ľ",
      "ë¥ ĺ",
      "ĠìĹ Ĩ",
      "Ġë° ı",
      "Ġëª ħ",
      "Ġëĭ ¨",
      "í Ŀ",
      "Ġ F",
      "ê°ģ ì£¼",
      "Ġì¹ ´",
      "ë£ Į",
      "Ġìĭ ¤",
      "ĠìĤ¬ ìļ©",
      "ìĦ Ŀ",
      "ëĲĺ ìĸ´",
      "ê ±´",
      "Ġìŀ ¬",
      "ĠìĿ¼ ë³¸",
      "Ġë Ŀ¼",
      "Ġ1 1",
      "ĠëĶ °",
      "Ġì° ¨",
      "Ġìĺ Ī",
      "íĮ Ĳ",
      "Ġë§ Ĳ",
      "ë ĳĲ",
      "Ġê° Ĳ",
      "Ġì ½Ķ",
      "Ġì° ¸",
      "ê° ķ",
      "íķ ¨",
      "Ġìļ Ķ",
      "íħ Į",
      "ë ¨",
      "Ġë ł",
      "ê¸ ī",
      "ì¡ ±",
      "ĠĊ ĠĊ",
      "ë¦ Ħ",
      "íİ ĺ",
      "Ġëį °",
      "ë¦ ¼",
      "ë² Ī",
      "Ġë ĳĲ",
      "ë¡ ł",
      "Ġíķ ¨",
      "Ġí ħ",
      "Ġì ¡",
      "Ġ B",
      "Ġ P",
      "ì ¤Ģ",
      "ì¿ ł",
      "Ġë° Ľ",
      "ĠíĬ ¹",
      "Ġíĥ Ģ",
      "ë² ł",
      "h e",
      "Ġ âĢ",
      "Ġ19 8",
      "Ġ1 8",
      "Ġêµ °",
      "ë§ ¤",
      "Ġëł Ī",
      "ì£¼ ìĿĺ",
      "ëĵ¤ ìĿ´",
      "ê³ ¡",
      "Ġì ¢ħ",
      "í Ī¬",
      "Ġì ´Ī",
      "Ċ Ċ",
      "ìĹĲìĦľ ëĬĶ",
      "íķ Ń",
      "ë©´ ìĦľ",
      "ê¸ Ī",
      "Ġë Ĩ",
      "ìħ ĺ",
      "ģ ´",
      "Ġë°° ìļ°",
      "íķĺ ê¸°",
      "Ġê² Į",
      "ë³ Ħ",
      "ëħĦ ìĹĲ",
      "ìĭ ¬",
      "Ġíķľ ëĭ¤",
      "s t",
      "ì¸ ł",
      "ìŀ ħ",
      "ëĵ¤ ìĿĢ",
      "Ġëį Ķ",
      "ìķ ħ",
      "Ġëĵ ľ",
      "i c",
      "ë§ Ŀ",
      "Ġë ¹",
      "Ġìĺ ¬",
      "19 9",
      "i t",
      "Ġì ¦",
      "íķĺ ê²Į",
      "ìĤ ´",
      "Ġëª ©",
      "Ġ D",
      "ëŀ ľ",
      "ĠìĿ´ íĽĦ",
      "B S",
      "Ġê ±´",
      "l e",
      "ê ´ĳ",
      "ì§ Ī",
      "Ġìļ ´",
      "Ġ K",
      "Ġëı ħ",
      "Ġì¶ Ķ",
      "ìĸ ¸",
      "ìķ ½",
      "Ġíĸ ī",
      "ĠìĻ ¸",
      "( )",
      "Ġì ±",
      "ë³ ĳ",
      "Ġë² ł",
      "ĵ °",
      "į ¼",
      "ĠëĮĢ íķľ",
      "ª ½",
      "Ġì Ī",
      "ëĬ ¥",
      "´ ī",
      "Ġë° ķ",
      "ëĤ ľ",
      "ĠíĶ ¼",
      "Ġë§ ¤",
      "ëłĪ ìĿ´",
      "íİ ¸",
      "ìĭľ ìķĦ",
      "Ġë³ Ģ",
      "ëĵ± íķĻêµĲ",
      "Ġ L",
      "Ġë¯¸ êµŃ",
      "Ġìĸ ĳ",
      "íĸ ¥",
      "Ġíĥ ľ",
      "íķľë¯¼ êµŃ",
      "ìķĺ ëĭ¤",
      "ëĭ ¬",
      "Ġìŀ ħ",
      "ë ¹",
      "ë° °",
      "ë¶ ģ",
      "Ġíĺ ¸",
      "ìĺ Ī",
      "ìł Ģ",
      "ã ĥ",
      "Ġí ģ¬",
      "ĠíĻ ľ",
      "Ġíĺ ķ",
      "Ġí Ŀ",
      "ĠíĻ Ķ",
      "ëł ¨",
      "ĠìĤ °",
      "ìľ ¡",
      "ê² °",
      "ìĺĢ ëĭ¤",
      "Ļ ìĿ´",
      "ã ģ",
      "ì ª½",
      "ìĻ ķ",
      "ëª ©",
      "ëį Ķ",
      "ëŁ ī",
      "ì§ ĳ",
      "ê¸ Ģ",
      "Ġíı ī",
      "Ġì§Ģ ìĹŃ",
      "Ġ )",
      "Ġ I",
      "Ġí ļĮ",
      "Ġëĭ¤ ìĿĮ",
      "Ġë³ ¸",
      "ëĲĺ ìĹĪ",
      "ĠìĬ ¹",
      "Ġê³ ¼",
      "Ġë§ İ",
      "ìľ¼ ëĤĺ",
      "ëĵ ł",
      "ĠìĻ ķ",
      "Ġì² ł",
      "ì² ĺ",
      "Ġë© Ķ",
      "Ġì ´Ŀ",
      "ê »",
      "ì¼ Ģ",
      "¸ Ķ",
      "r o",
      "ëĲľ ëĭ¤",
      "Ġ R",
      "Ġëĭ¤ ë¥¸",
      "Ġìŀ Ħ",
      "| |",
      "Ł ģ",
      "ĠìľĦ íķ´",
      "Ġë² Ī",
      "Ġìł ģ",
      "ìĬ¤ ìĿĺ",
      "ì² ł",
      "ìĦ¸ ê¸°",
      "Ġë³´ ê¸°",
      "ë³ µ",
      "Ġê²½ ê¸°",
      "ì Ķ",
      "ĠìĹ ´",
      "ëĮĢ íķľë¯¼êµŃìĿĺ",
      "ì Łģ",
      "Ġê°Ļ ìĿĢ",
      "ìĿ´ ë©°",
      "ĠëĲĺ ìĹĪëĭ¤",
      "ìĽ Į",
      "ê» ĺ",
      "ĠëĲ ľ",
      "ëĦ Ī",
      "Ġì »",
      "Ġ t",
      "Ġë¶ ģ",
      "ê° ĻìĿ´",
      "Ġìĭľ ìŀĳ",
      "Ġìŀĳ íĴĪ",
      ". .",
      "Ġìķ ¼",
      "Ġ G",
      "Ġ íķĻ",
      "2 1",
      "Ġì¶ľ ìĥĿ",
      "Ġ19 7",
      "íĻ ĺ",
      "Ġ H",
      "í ļ",
      "ëĬĶ ëį°",
      "Ġíķľ êµŃ",
      "Ġì º",
      "ì ±",
      "ëĿ¼ ìĿ´",
      "íı ī",
      "ëĵ¤ ìĿĺ",
      "ì§ ¸",
      "Ġí ĳľ",
      "ìŀ Ī",
      "i s",
      "ëŀľ ëĵľ",
      "ì¶ ķ",
      "Ġê·¸ ë¦¬",
      "ĠëķĮ ë¬¸",
      "Ġë¯ ¼",
      "ĠëĮĢ íķľë¯¼êµŃ",
      "ìķ ł",
      "· ¨",
      "Ġê° ģ",
      "ì ½",
      "ëĿ¼ ë§Ī",
      "Ġ E",
      "Ġ1 5",
      "i on",
      "Ġê·¸ ëĬĶ",
      "ëħ Ģ",
      "Ġëĭ ¬",
      "Ġë ¸Į",
      "ĠìĤ¬ ìĿ´",
      "Ġíķ¨ ê»ĺ",
      "ìł Ī",
      "Ġ N",
      "ĠíĨ ł",
      "ĠêµŃ ê°Ģ",
      "ìł ¸",
      "ë¨ ¸",
      "ì¡ Į",
      "o l",
      "Ġëĵ ¤",
      "Ġíİ ¸",
      "ĠìĨ į",
      "ī ´",
      "ĠëĶ° ëĿ¼",
      "Ġê° Ħ",
      "ê· ¼",
      "ëĵ¤ ìĿĦ",
      "íĻ ©",
      "19 8",
      "ê· ¹",
      "Ġì¶ľ ìĭł",
      "r e",
      "ëĿ¼ ëĬĶ",
      "Ġë¬ ¼",
      "ìĺ ¨",
      "íķĺ ë©°",
      "í į¼",
      "íĥ Ī",
      "Ġê²½ ìļ°",
      "Ċ Ġ",
      "1 8",
      "Ġìķ ł",
      "Ġì§ ģ",
      "Ġë ĶĶ",
      "Ġíķ Ń",
      "Ġìķ ½",
      "Ġì² ĺ",
      "Ġìĥ Ī",
      "Ġê²Į ìŀĦ",
      "Ġìł Ģ",
      "Ġì§ ĳ",
      "ìĥ ī",
      "Ī Ħ",
      "ĠìĦ¸ ê³Ħ",
      "ëĿ¼ ê³ł",
      "Ġ1 6",
      "ĠìŀĲ ìĭł",
      "ã Ĥ",
      "Ġì² ´",
      "Ġì² Ń",
      "Ġì¡ ´",
      "Ġ o",
      "ê° Ĳ",
      "ë² Ķ",
      "íķĺ ëĭ¤",
      "íķĺ ì§Ģ",
      "Ġ W",
      "ì¦ Į",
      "ëıĦ ìĿĺ",
      "Ġì² ľ",
      "Ġê¸° ë¡Ŀ",
      "ëŁ ½",
      "e l",
      "Ġí Ī¬",
      "ëĮĢ íķĻêµĲ",
      "ĠìĿ´ ë¦Ħ",
      "ĠëĮĢ íķľë¯¼êµŃìĿĺ",
      "Ķ ëłĪ",
      "ìĶ ¨",
      "a c",
      "Ġ19 6",
      "Ġë² ķ",
      "Ġê ´ĳ",
      "Ġë Ĭ",
      "Ġë £",
      "Ġ ||",
      "íĬ ¹",
      "Ġê¸ Ī",
      "ĠëĺĲ ëĬĶ",
      "ìĭľ ìĿĺ",
      "Ġì ¢",
      "ìŀĪ ëĬĶ",
      "íĹ ĺ",
      "ĠíĬ ¸",
      "ä ¸",
      "ìľĦ ìĽĲ",
      "ĠíĺĦ ìŀ¬",
      "Ġíķĺ ëĤĺ",
      "ĠëĺĲ íķľ",
      "in g",
      "ì° ½",
      "Ġë² Ħ",
      "ĠìĿĺ íķ´",
      "Ġ1 7",
      "ĠíĻ ķ",
      "ĠìĹ¬ ìŀĲ",
      "Ġë Ĵ",
      "ĠìľĦ ì¹ĺ",
      "o u",
      "Ġë ģ",
      "íĶ ½",
      "ê² ¬",
      "´ Į",
      "ìĿ´ ëĤĺ",
      "Ġê°Ĳ ëıħ",
      "ì° ¸",
      "ì ³",
      "Ġë³ µ",
      "ĠìĦľ ìļ¸",
      "ìĿ´ ìĬ¤",
      "Ġo f",
      "íĥ Ħ",
      "Ġê°Ģ ìŀ¥",
      "ìĹ ´",
      "Ġíķ ©",
      "Ġíķ Ħ",
      "Ġí ŀĪ",
      "Ġê·¸ ëŁ¬",
      "Ġìł Ĳ",
      "í ĮĢ",
      "ĠëķĮë¬¸ ìĹĲ",
      "ë¹Ħ ìłĦ",
      "ëŀ ¨",
      "ëĲĺ ëĬĶ",
      "ëŁ °",
      "ìĹĲ ëıĦ",
      "ìĿ¼ ë³¸",
      "ë¯¸ êµŃìĿĺ",
      "ì° °",
      "o m",
      "Ġìĭ ¬",
      "Ġê²ĥ ìĿĦ",
      "Ġì¦ Ŀ",
      "ê¸° ëıĦ",
      "Ġ /",
      "íĿ ¬",
      "Ġ O",
      "Ġ U",
      "Ķ ëĭ¤",
      "ĠìĤ ¼",
      "ĠíĶ Į",
      "1 0",
      "ĠíĮ Ĳ",
      "Ġë ¨",
      "ĠëĦ ¤",
      "íĶ Į",
      "Ġìĸ ¸",
      "Ġ1 4",
      "ĠìĤ¬ ë§Ŀ",
      "ë ĥ",
      "Ġì ½",
      "ëĦ Ĳ",
      "Ġë Ł",
      "ĠëıĻ ë¬¸",
      "Ġì° ½",
      "ĠĊ Ċ",
      "Ġíİ ĺ",
      "£ ½",
      "ìĿ´ ì§Ģ",
      "Ľ Ī",
      "ë° ķ",
      "Ġì¹ ĺ",
      "i g",
      "ìĽ ¨",
      "ë° ±",
      "ĠíĻ ©",
      "Ġê·¸ ìĿĺ",
      "e t",
      "a m",
      "i l",
      "ìĿ¼ ìĹĲ",
      "ĠëĴ ¤",
      "ĠíĻľ ëıĻ",
      "ëĶĶ ìĺ¤",
      "ìķ Ļ",
      "Ġí Ĥ",
      "ĠìĿĮ ë°ĺ",
      "ĠëĲľ ëĭ¤",
      "ĠíĶĦ ëŀĳ",
      "ê·¸ ëŀ¨",
      "ĠìĤ ´",
      "ë¦¬ ìĬ¤",
      "ë¦¬ ëĬĶ",
      "ìĬ µ",
      "B C",
      "Ġ1 3",
      "Ġê²ĥ ìľ¼ë¡ľ",
      "ĶëłĪ ë¹ĦìłĦ",
      "ìĪ ľ",
      "Ġëª »",
      "Ġë° ±",
      "u s",
      "ëĭĪ ìķĦ",
      "Ġì ·¨",
      "Ġ J",
      "í ģ´",
      "ãĢ ī",
      "ĠìŀĪ ìľ¼ë©°",
      "ìĿ´ëĿ¼ ê³ł",
      "ĠìĦ¤ ë¦½",
      "Ġì°¸ ê°Ģ",
      "ìĿ´ íĬ¸",
      "ì¹ Ń",
      "ĠìŀĪ ìĹĪëĭ¤",
      "Ġí ģ´",
      "Ġê²ĥ ìĿ´",
      "å ¤",
      "Ŀ ½",
      "Ġì¶ ©",
      "a s",
      "an d",
      "Ġì¡° ìĦł",
      "Ġë£ ¨",
      "ë³ Ģ",
      "ĠìĿĮ ìķħ",
      "Ġì² «",
      "ìĬ ¬",
      "ì¶ Ķ",
      "ê· ľ",
      "ĠìĻ Ħ",
      "ĠëĤ¨ ìŀĲ",
      "Ġìłķ ì¹ĺ",
      "Ġíĸ Īëĭ¤",
      "ĠìĽ Ķ",
      "ìķĦ ìŀĪëĬĶ",
      "ê¸° ë¥¼",
      "c h",
      "Ġê· ¼",
      "âĢ Ļ",
      "ë¡ Ģ",
      "ĠíĨµ íķ´",
      "ê¸° ìĹĲ",
      "å ®",
      "Ġ19 4",
      "Ġê°Ģ ì§Ģ",
      "i d",
      "Ġëĭ¹ ìĭľ",
      "ë ´ī",
      "ë¦¼ íĶ½",
      "Ġìļ ©",
      "19 7",
      "Ġìĭľ ì¦Į",
      "¤ Ħ",
      "Ġë¦¬ ê·¸",
      "ì¡ ´",
      "ë Ŀ½",
      "ì¦ Ŀ",
      "ë¶ Ī",
      "ë¦¬ ê·¸",
      "íļĮ ìĿĺ",
      "ëĤ ł",
      "ãĢ Ĭ",
      "ì ´Į",
      "Ġë°© ìĨ¡",
      "Ġíħ ĶëłĪë¹ĦìłĦ",
      "íĭ Ģ",
      "Ġëı Į",
      "Ġíķ ł",
      "Ġ19 5",
      "ì ĵ°",
      "Ġ 0",
      "ìĤ´ ìķĦìŀĪëĬĶ",
      "ĠíĶĦë¡ľ ê·¸ëŀ¨",
      "ĠìķĦ ìĿ´",
      "ì¡Į ëĭ¤",
      "ëĬĶ ëĭ¤",
      "Ġí ļ",
      "Ġíı¬ íķ¨",
      "ĠíĮ ¨",
      "ĠìĪ ľ",
      "ìĿ´ ìħĺ",
      "ĠìĿ Ģ",
      "å ħ",
      "ë¦¬ ë¥¼",
      "ë¦ Ń",
      "ëŁ ¼",
      "ì± ħ",
      "íĻ ľ",
      "Ġì ¤Ģ",
      "Ġíħ Į",
      "Ġëĵľ ëĿ¼ë§Ī",
      "ĠëıĦ ìĭľ",
      "ë Ķ",
      "ë ģ",
      "ìĬ ¨",
      "Ġìłľ ìŀĳ",
      "Ġë¯¸ êµŃìĿĺ",
      "ĠìĹ° êµ¬",
      "Ġì ĵ°",
      "Ġë³ ĳ",
      "ĠìĿ¼ ë¶Ģ",
      "Ġë ľ",
      "± ¸",
      "Ġê ¶Į",
      "ĩ ¼",
      "Ġê·¸ë¦¬ ê³ł",
      "ì§Ģ ëĬĶ",
      "íļ į",
      "e d",
      "ê² ĥ",
      "Ġì¹ ľ",
      "Ġê·¸ëŁ¬ ëĤĺ",
      "Ġì²ł ëıĦ",
      "Ġíķĺ ëĬĶ",
      "ĠìĨ Ĳ",
      "ĠìĹŃ ìĤ¬",
      "ĠâĢ ĺ",
      "ë ¸Ķ",
      "ìĦ ¼",
      "ĠêµŃ ìłľ",
      "Ġëĵ¤ ìĸ´",
      "ë§ Ĳ",
      "Ġí ĮĢ",
      "Ġ3 0",
      "¸ ìĹħ",
      "Ġì± Ħ",
      "ìĿ´ëĿ¼ ëĬĶ",
      "Ġë§Į ëĵ¤",
      "ëĮĢ ë¡ľ",
      "ĠëĨ Ĵ",
      "ë§ ī",
      "Ġìº Ĳ",
      "Ġì £½",
      "ì º",
      "k m",
      "Ġë§İ ìĿĢ",
      "en t",
      "Ġ201 0",
      "Ġí Ĵ",
      "íĦ ´",
      "Ġê²ĥ ìĿ´ëĭ¤",
      "íĺ ģ",
      "ĠãĢ Ī",
      "1 2",
      "Ġíı Ĳ",
      "ë Ĥ¬",
      "æ Ŀ",
      "ĠëĮĢ íķ´",
      "íĹ Į",
      "Ġí ģ",
      "ëĲĺ ê³ł",
      "u n",
      "ĠìĤ¬ íļĮ",
      "ĠìĿ´ ìĥģ",
      "Ġë ĸ",
      "Ġ V",
      "1 5",
      "íĥ Ŀ",
      "Ġìĭ Ŀ",
      "Ģ ë¡ľ",
      "Ġë ī´",
      "Ġì ¼",
      "ëħĦ ëĮĢ",
      "ê² ¨",
      "ĩ ´",
      "ëıĦ ë¡ľ",
      "ì³ Ĳ",
      "1 6",
      "Ġìĺ¬ ë¦¼íĶ½",
      "ì§ ķ",
      "íķĺ ë©´ìĦľ",
      "Ġëĭ¤ ìĭľ",
      "íķĻ ìŀĲ",
      "Ġ201 2",
      "ëħ Ĳ",
      "ë¦¬ ì¹´",
      "( ,",
      "Ġëıħ ìĿ¼",
      "1 7",
      "ĠíĤ ¤",
      "Ġ201 4",
      "ë ĳ",
      "ĠíĻ į",
      "Ġëľ »",
      "ĠìłĦ ìŁģ",
      "ĠíĹ Ī",
      "ìĿ´ ìĹĪëĭ¤",
      "ì ´Ŀ",
      "ĠĠ ĠĠ",
      "ĠìŀĪ ìĹĪ",
      "íĸĪ ê³ł",
      "ìĿ´ ìŀĲ",
      "ì µľ",
      "19 6",
      "ìĬ¤ ëĬĶ",
      "Ġì¤ĳ êµŃ",
      "ì» ¤",
      "ĠìĪĺ ìĥģ",
      "ìĬ¤ íĦ°",
      "Ġë°ľ ë§¤",
      "ĠëĮĢ íķĻ",
      "Ġt he",
      "íĺ ĳ",
      "ëĭ ´",
      "ĠëŁ ¬",
      "ê°ľ ìĿĺ",
      "ë¡ľ ìĦľ",
      "íķ Ħ",
      "00 0",
      "ë³´ ëĭ¤",
      "Ġ <",
      "Ġëª¨ ëĳĲ",
      "íķĺìĺĢ ê³ł",
      "2 2",
      "Ġê³µ ìĭĿ",
      "ĠìķĦ ëĭĪ",
      "ê³ ¨",
      "ĠìĹ¬ ëŁ¬",
      "Ġ200 8",
      "ëĮĢ íĳľ",
      "í ĽĪ",
      "ëį ķ",
      "ĠìľĦ íķľ",
      "Ġëª¨ ëĵł",
      "ìĬ Ī",
      "Ġ201 3",
      "Ġ201 1",
      "Ġëĭ¤ìĿĮ ê³¼",
      "Ġê· ľ",
      "ìĿ´ ê³ł",
      "íĺ ¼",
      "Ġíģ °",
      "ìĹ Ķ",
      "ëł ¸",
      "ë¨ ¼",
      "íĮ ¨",
      "ëŀĢ ëĵľ",
      "ìł ĳ",
      "Ġ200 9",
      "ë§ ģ",
      "ĠìĦł ê±°",
      "Ġìłķ ë¶Ģ",
      "Ġì ¿",
      "é ĩ",
      "Ġ d",
      "íĨµ ëł¹",
      "ì» µ",
      "ë° Ľ",
      "Ġìľ ¡",
      "Ġìĺ ¨",
      "ë°© ìĨ¡",
      "Ġì¡ ¸ìĹħ",
      "Ġ2 5",
      "ìĤ¬ ë¥¼",
      "ì¹ ľ",
      "ĠëĮĢ íĳľ",
      "Ġìļ° ìĬ¹",
      "ì¸ µ",
      "ìĿ´ ëĬĶ",
      "ìķ Ķ",
      "ë¦¬ ìĹĲ",
      "Ġ201 5",
      "ëĤĺ ëĿ¼",
      "Ġêµ¬ ìĦ±",
      "ĠíĻ ĺ",
      "ëı Į",
      "ë£ ¹",
      "æ ľ",
      "ëį ¸",
      "êµ° ìĿĺ",
      "Ġê²° ê³¼",
      "Ġë¬¸ íĻĶ",
      "Ġë ¸Ķ",
      "ĠíĻ Ī",
      "Ġ s",
      "ä º",
      "ë ĪĦ",
      "ìŀ¥ ìĿĦ",
      "Ġê¸ ¸",
      "Ġê² Ģ",
      "ëĮĢ ìĿĺ",
      "Ġíĺ ĳ",
      "ĠëĨ į",
      "ë ·",
      "ãĢĭ (",
      "u r",
      "1 4",
      "ìľĦìĽĲ íļĮ",
      "ë¦¬ ì¦Ī",
      "ĠìĿ¸ êµ¬",
      "ë Ĩ",
      "ìĥģ ìĿĦ",
      "Ġëĵ± ìĿ´",
      "ìľĦ ë¥¼",
      "ìĦ± ìĿĦ",
      "a d",
      "ĠìĦ¤ ì¹ĺ",
      "ĠìĿ´ ìļ©",
      "ìĸ´ ì§Ħ",
      "Ġ200 7",
      "Ġ201 6",
      "ê±° ëĤĺ",
      "íĬ¹ ë³Ħ",
      "Ġì ¸",
      "Ġì²ĺ ìĿĮ",
      "ëł Į",
      "ìĺģ íĻĶ",
      "ìŀĲ ê°Ģ",
      "ìĭľ ìĹĲ",
      "ìĽ Ģ",
      "ê¸° ìĿĺ",
      "íĤ ¨",
      "Ġì¡´ ìŀ¬",
      "ĠìķĮ ëł¤",
      "i v",
      "Ġê ±¸",
      "ìĿ¸ ìĿĺ",
      "Ġê°Ģ ëĬ¥",
      "¶ ģ",
      "1 1",
      "ë° Ģ",
      "íĥĪ ë¦¬ìķĦ",
      "ì°¸ ê³ł",
      "ì§Ģ ë¥¼",
      "ĠíĶĦëŀĳ ìĬ¤",
      "Ġê°ľ ë°ľ",
      "Ġ201 8",
      "ëĮĢ íķĻ",
      "Ġëħ ¼",
      "ë¦¬ ê°Ģ",
      "Ġ m",
      "at ion",
      "ìĿ´ ìĹĪ",
      "ĳ ¸",
      "Ġëģ Ŀ",
      "Ġê´Ģ ê³Ħ",
      "Ġìĭ ±",
      "Ġìľ ¤",
      "ì° ©",
      "ê³ł ëĵ±íķĻêµĲ",
      "Ġëª© ë¡Ŀ",
      "ìĨ Ĳ",
      ".. .",
      "å Ń",
      "Ġë ŀ",
      "ìĿ ĳ",
      "ëħĦ ë¶ĢíĦ°",
      "ëĵ Ŀ",
      "ĠëĮĢ íĨµëł¹",
      "ë² Į",
      "Ġ19 3",
      "Ġë¬¸ ìłľ",
      "ìĬ¤ íĥĢ",
      "ĠìŀĪ ìĸ´",
      "Ġê°Ģ ìĪĺ",
      "Ġ p",
      "ê° Ŀ",
      "Ġìĺģ êµŃ",
      "ĠìĤ¬ ê±´",
      "Ġ201 7",
      "ĠìĨ ¡",
      "ĠìŀĲìĭł ìĿĺ",
      "ĠëĮĢ íļĮ",
      "ìĤ ¼",
      "Ġíķĺ ìĺĢëĭ¤",
      "Ġê¸° ì¤Ģ",
      "ĠìĿ´ ë£¨",
      "u m",
      "Ġìķ ŀ",
      "Ġëĵ± ìĿĺ",
      "ëł¥ ìĿĦ",
      "í ľ",
      "Ġ c",
      "Ġí ŀ",
      "ĠìĹ Ķ",
      "ĠK BS",
      "Ġê´Ģ ëł¨",
      "ĠëĤĺ íĥĢ",
      "ë¶Ģ ë¶Ħ",
      "Ġ200 6",
      "ĠëıĻ ìķĪ",
      "Ġì¦ ī",
      "íĶĦ íĬ¸",
      "® ¤",
      "ë¡ľ ìļ´",
      "ë¬¸ íĻĶ",
      "Ġ2 4",
      "ĠìĿ¼ ë°ĺ",
      "Ġë³ Ħ",
      "ĠìĬ Ī",
      "o p",
      "ìľ ¨",
      "ìĺ ¬",
      "Ġë° Ģ",
      "íķľ êµŃ",
      "Ġë§ ŀ",
      "Ġíĸī ìłķ",
      "í ģ",
      "ĠìĻ Ģ",
      "Ġ f",
      "´ ´",
      "ì¶ ©",
      "Ġê· ¹",
      "ĠëĮĢ íķĻêµĲ",
      "Ġíĸ ¥",
      "1 3",
      "Ġë ĳ",
      "ĠëĤ ł",
      "Ġê²ĥ ìĿĢ",
      "Ġìł ĳ",
      "19 5",
      "Ġì§Ħ íĸī",
      "ë¹Ħ ìķĦ",
      "ĠêµĲ ìľ¡",
      "Ġíı Ń",
      "Ġëħ¸ ëŀĺ",
      "ìĹ ĺ",
      "ì° ¬",
      "į ¨",
      "Ġëĭ Ī",
      "ĠìĦ Ŀ",
      "o t",
      "Ġëĭ ´",
      "Ġë²Ī ì§¸",
      "ëĤ¨ ëıĦ",
      "Ġì§Ģ ë°©",
      "F A",
      "Ġë°ľ íĳľ",
      "ë¦¬ ìĿĺ",
      "Ġë§ ¡",
      "ĠíĹ ¤",
      "ë¡ľ ë¶ĢíĦ°",
      "Ġìķ ¨",
      "Ġ2 3",
      ") .",
      "ëĭĪ ë©Ķ",
      "ĠëĿ¼ ìĿ´",
      "ì´Ī ëĵ±íķĻêµĲ",
      "19 4",
      "ìŀĲ ìĿĺ",
      "ê° Ī",
      "Ġê³ ³",
      "Ġë³ ¼",
      "ĠìłĦ íĪ¬",
      "Ġí ľ",
      "Ġë°ľ ê²¬",
      "Ġ b",
      "ìĬ¤ íħ",
      "Ġí Ħ",
      "ë¥ ł",
      "Ġìŀ ĺ",
      "Ġê¸° ìĹħ",
      "Ġëĵ± ìŀ¥",
      "Ġì¤ĳ ìĭ¬",
      "Ġì¢ ĭ",
      "ë ķĮ",
      "ìļ° ìĬ¤",
      "ë²Ħ ì§Ģ",
      "Ġ20 19",
      "ë¯¼ ì£¼",
      "Ġê· Ģ",
      "ĠìĹĨ ëĭ¤",
      "ê¸ ¸",
      "Ġë© ´",
      "a g",
      "ĠT V",
      "Ġì¶ľ ìĹ°",
      "íķĺ ë©´",
      "Ġê³µ ê²©",
      "ëĭ Į",
      "Ġ2 1",
      "Ġ2 8",
      "Ġìĭľ ê°Ħ",
      "ëĤ¬ ëĭ¤",
      "ëıĦ ë¡Ŀ",
      "ìĭľ íĤ¤",
      "ê´ĳ ìĹŃ",
      "ĠìĿ´ ìłĦ",
      "Ĳ ëĭ¤",
      "Ġ200 5",
      "ëĭĪë©Ķ ìĿ´ìħĺ",
      "| -",
      "ĠìĿ¼ë³¸ ìĿĺ",
      "Ġë°ľ ìĥĿ",
      "ì¸ ¡",
      "Ġ â",
      "Ġ2 2",
      "ê¹ Ģ",
      "ë²Ī ì§¸",
      "ĠìĿ´ ìĸ´",
      "ëŁ¬ íķľ",
      "Ġê° ĸ",
      "ëªħ ìĿĺ",
      "Ġê²½ ìłľ",
      "Ġíļ ¨",
      "ê· ł",
      "Ġì£¼ ìŀ¥",
      "ĠìĿĺ ë¯¸",
      "Ġê°Ļ ëĭ¤",
      "= \"",
      "ìĿ µ",
      "Ġë§ ī",
      "íĿ ¥",
      "Ġë ĪĦ",
      "Ġë³Ģ ê²½",
      "e m",
      "ì¶ľ ìĹ°",
      "Ġ2 6",
      "ëĵ¤ ê³¼",
      "ëħĦ ìĹĲëĬĶ",
      "ë ĸ",
      "Ġì± ħ",
      "ê¸° ê°Ģ",
      "Ġì¿ ł",
      "íĸĪ ìľ¼ë©°",
      "Ġì» ¤",
      "Ġì¤ĳ ìķĻ",
      "ë¡ľ ëĬĶ",
      "Ī Ī",
      "Ġì¼ Ģ",
      "Ġëĵ± ìĿĦ",
      "ĠìĨĮ ìĨį",
      "ë² ¨",
      "íļ ¨",
      "£ Ħ",
      "ê¸° ëĬĶ",
      "Ġìĺģ íĸ¥",
      "r i",
      "Ġ2 7",
      "T V",
      "Ġê³ ¨",
      ") :",
      "ìĹŃ ìĤ¬",
      "ì¿ Ħ",
      "Ġì°¸ ìĹ¬",
      "Ġë² Ķ",
      "íĻĶ êµŃ",
      "Ġì ¤Ħ",
      "Ġíķĺ ê³ł",
      "ĠìĿ´ ëĬĶ",
      "íĴ į",
      "Ġ and",
      "Ġë° Ŀ",
      "Ġ20 20",
      "ëĭ Īëĭ¤",
      "Ġê³ ¡",
      "ĠëĲĺ ìĸ´",
      "ë¹ Ī",
      "ìĸ µ",
      "ĠìĬ¤ íĥĢ",
      "ìĦľ ëĬĶ",
      "Ġìļ´ ìĺģ",
      "Ġ200 4",
      "Ġê¸° ìĪł",
      "âĢ Ŀ",
      "ë§ ¹",
      "ĠìĿ¸ ë¬¼",
      "u t",
      "ìĻĢ ìĿĺ",
      "o s",
      "æ ĸ",
      "e c",
      "a y",
      "Ġíĥľ ìĸ´",
      "ìĭ ±",
      "Ġë ´ī",
      "ĠT he",
      "ĠìĽĶ ëĵľ",
      "Ġìµľ ì´Ī",
      "ìĤ¬ ê°Ģ",
      "êµ¬ ìĿĺ",
      "ìĿ´ ëĵľ",
      "er s",
      "Ġê·¸ ë£¹",
      "ìľ ¤",
      "ìłķ ìĿĦ",
      "ì¹ ¨",
      "Ġëį° ìĿ´",
      "ĠëŁ¬ ìĭľìķĦ",
      "Ġëıħ ë¦½",
      "i r",
      "Ġìķ Ķ",
      "ë ī´",
      "ìĦľ ìļ¸",
      "ìĽĶ ìĹĲ",
      "ãĢ į",
      "ë¥´ íģ¬",
      "Ġíķĺ ì§Ģë§Į",
      "ê· Ģ",
      "ìĤ¬ ìĿĺ",
      "ìĦ± ìĿ´",
      "Ġë¨ ¸",
      "ëħĦ ê¹Įì§Ģ",
      "Ġìł Ī",
      "ĠíĥĢ ìĿ´",
      "ĠìĿ´ ëŁ¬íķľ",
      "íĮ ħ",
      "u l",
      "í ĩ´",
      "ìĹĲìĦľ ëıĦ",
      "ìĪ Ļ",
      "o d",
      "ĠìĿ¸ íķ´",
      "Ġìķł ëĭĪë©ĶìĿ´ìħĺ",
      "Ġì§Ģ ìĽĲ",
      "ĠëĮĢ ë¶Ģë¶Ħ",
      "ë¦ ´",
      "ë§ ¨",
      "Ġí ĭ",
      "Ġì§ Ī",
      "Ġíĸ Ī",
      "201 0",
      "ì į¨",
      "Ġìłķ ë³´",
      "Ġìĭľ ëĮĢ",
      "ìķ¼ ë§Ī",
      "ĠìķĦ ëĵ¤",
      "ĠìŀĲ ìľł",
      "Ġ200 0",
      "ĠìľĦì¹ĺ íķľ",
      "ì» ¬",
      "å ı",
      "ì¡° ìĦł",
      "Ġê° Ī",
      "Ġë§Ī ìĿ´",
      "ë¨¸ ëĭĪ",
      "ë· Ķ",
      "ëĲĺìĹĪ ê³ł",
      "ìĬ¤ ë¥¼",
      "Ġìĸ »",
      "ĠM BC",
      "ëĬ Ĳ",
      "Ġíĥ Ī",
      "ëĵ¤ ìĹĲê²Į",
      "ĠìĿ´ ë¥¼",
      "i a",
      "Ġë¡ľ ë§Ī",
      "i m",
      "Ġ2 9",
      "ìĻ Ħ",
      "ĠìĪĺ ëıĦ",
      "ëĬ ĺ",
      "ë³ ¼",
      "ë¶ģ ëıĦ",
      "ìĬ¤íħ ľ",
      "ì¹ ¸",
      "ìŀĲ ë¥¼",
      "ìĺ ¥",
      "ê³¼ ìĿĺ",
      "ĠâĢ ľ",
      "a p",
      "Ġ in",
      "ĠìĥĿ ê°ģ",
      "Ġìľł ëŁ½",
      "ìŀĲ ëĬĶ",
      "Ġìķ¼ êµ¬",
      "ìļ ķ",
      "Ġêµ¬ ì¡°",
      "íĭ ´",
      "ī ê¸Ģ",
      "ëł ī",
      "ĠìŀĲ ë£Į",
      "Ġì ĩ¼",
      "ìĬ¤ íģ¬",
      "Ġíķ´ ëĭ¹",
      "ìĭľ ì¼",
      "ëĤĺ ëĭ¤",
      "ë¦¬ ìĬ¤íĬ¸",
      "ĠF C",
      "ìļĶ íķľ",
      "Ġë¶Ģ ë¶Ħ",
      "ĠìĥĪ ë¡ľìļ´",
      "ì± Ħ",
      "Ġ ...",
      "ìĹĪ ê³ł",
      "ìĿ¼ë³¸ ìĿĺ",
      "Ġê²° ìłķ",
      "Ġì½ ĺ",
      "o c",
      "ĠìĿ¼ ìĸ´",
      "å ľ",
      "ëł¸ ëĭ¤",
      "ìĿ¸ ë¯¼",
      "Ġì¸ ¡",
      "æ °",
      "Ġëĭ¤ ìĸĳ",
      "Ġì²łëıĦ ìĹŃ",
      "ê°Ģ ì§Ģ",
      "ëª ¬",
      "Ġìĭľ ë¦¬ì¦Ī",
      "å Ĳ",
      "Ġ200 3",
      "Ġì¹ ¨",
      "ìĬ¤ ê°Ģ",
      "ëį ´",
      "t h",
      "ëĭ ĺ",
      "Ġíĺķ íĥľ",
      "ìľ¼ë¡ľ ëĬĶ",
      "Ġíĥ Ħ",
      "ì ¢",
      "t er",
      "Ġì§Ģ ìłķ",
      "ĠëĤ ľ",
      "Ġê°Ļ ìĿ´",
      "Ġìķ ħ",
      "ëıĦ ë¥¼",
      "Ġíı ´",
      "ç Ķ",
      "íı ´",
      "ĠìĬ¤ íİĺ",
      "å ·",
      "ë¥´ ëĬĶ",
      "ĠĊ Ġ",
      "Ġíĺ ¼",
      "ìķ Į",
      "êµĲ ìľ¡",
      "ëĲ ł",
      "Ġë°° ê²½",
      "Ġ íķĻêµĲ",
      "Ġìŀ ¡",
      "ĠìĿ´ íĥĪë¦¬ìķĦ",
      "ìļ´ ëĵľ",
      "ë¶Ģ ìĿĺ",
      "ĠêµĲ ìĪĺ",
      "íĺ¸ ìĦł",
      "ìĭľ ë§Ī",
      "íķĺìĺĢ ìľ¼ë©°",
      "íĸĪ ëįĺ",
      "ĠìĤ¬ ìĭ¤",
      "ì¹´ ìĿ´",
      "Ġê·¸ ëħĢ",
      "Ġ200 2",
      "īê¸Ģ ëŀľëĵľ",
      "ĠâĢ ĵ",
      "ĠìĹ¬ ìĦ±",
      "ìŀĲ ë¡ľ",
      "Ġì ħ",
      "Ġìĭ± ê¸Ģ",
      "ê±° ë¦¬",
      "ĠíĦ °",
      "0 1",
      "Ġìµľ ê³ł",
      "ĠêµŃê°Ģ ëĮĢíĳľ",
      "ĠìĹ ħ",
      "ĠS t",
      "Ġê¸ ī",
      "ìĹ ¼",
      "ĠìĹĨ ëĬĶ",
      "ĠìĤ¬ ëŀĳ",
      "å į",
      "Ġìļ´ ëıĻ",
      "Ġìĥģ íĥľ",
      "ë²Ħ ìĬ¤",
      "Ġëį° ë·Ķ",
      "ì²ĺ ëŁ¼",
      "Ġëħ¸ ìĦł",
      "ĠíĬ¹ íŀĪ",
      "íĻ į",
      "Ġ Y",
      "ìĹ Ħ",
      "ĠìĿ´ ìĹĲ",
      "ĠìľĦ ìĽĲ",
      "3 0",
      "ë¯ Ģë¡ľ",
      "ìĿ¸ ìĿ´",
      "ê´ĳìĹŃ ìĭľ",
      "¥ Ĳ",
      "íĺ ľ",
      "Ġì° ¾",
      "ĠëĮĢ ìłĦ",
      "ëĲĺìĹĪ ìľ¼ë©°",
      "å¤ §",
      "ëªħ ìĿĦ",
      "å ±",
      "ìº Ĳ",
      "ê²½ ê¸°",
      "ì¤ĳ íķĻêµĲ",
      "2 5",
      "ìĹ° êµ¬",
      "Ġë°Ľ ìķĺëĭ¤",
      "Ġë ¥",
      "Ġ ,",
      "ê°Ģ ìĻĢ",
      "ĠìĦ ¬",
      "Ġë² Į",
      "í ŀ",
      "ĠëĦ ĺ",
      "Ġê²½ ìĥģ",
      "201 4",
      "o w",
      "ĠìĹ ĺ",
      "Ġê¸ Ģ",
      "Ġë°Ľ ìķĦ",
      "Ġê°Ģì§Ģ ê³ł",
      "ëłĪ ìĬ¤",
      "Ġìĸ´ ëĸ",
      "201 2",
      "Ġì§Ħ ì¶ľ",
      "ìĹĲìĦľ ìĿĺ",
      "å °",
      "ëĮĢ ë¥¼",
      "ĠìĦ± ê³µ",
      "ê ¶ģ",
      "ëĵľ ëĿ¼ë§Ī",
      "íķĻ ê³¼",
      "201 1",
      "íľ ĺ",
      "ł ëĭ¤",
      "ìŀĲ ìĿ¸",
      "Ġìŀĳ ê³¡",
      "íİĺ ìĿ´ì§Ģ",
      "ìĭĿ ìĿĦ",
      "Ġì¹ ¼",
      "íĺ Ģ",
      "ĠìķĦ ë²Ħì§Ģ",
      "Ġìķ¨ ë²Ķ",
      "ĠìĿ¸ íĦ°",
      "Ġì£¼ ë¡ľ",
      "ìĥ Ī",
      "200 8",
      "ìľ¼ë¡ľ ìĦľ",
      "Ġê³Ħ ìĨį",
      "Ġë¸Į ëĿ¼",
      "ëªħ ìĿ´",
      "Ġë§¤ ìļ°",
      "0 7",
      "ĠìĥĿ ìĤ°",
      "ĠíıĲ ì§Ģ",
      "ĠíĶĦ ë¦¬",
      "ëŀ Ļ",
      "ê¸ ´",
      "ĠìŀĪ ê³ł",
      "ìĸ´ ë¡ľ",
      "é ģ",
      "ĠìĨĮ ìŀ¬",
      "201 5",
      "ĠìĿ´ ê²ĥ",
      "ĠëłĪ ìĿ´",
      "ĠëĶ ¸",
      "ëŀ µ",
      "Ġ [",
      "ĠêµŃ ë¯¼",
      "ĠìŀĪ ëįĺ",
      "ĠëıĮ ìķĦ",
      "Ġê³ł ëł¤",
      "¿ Ĳ",
      "ì £Ħ",
      "h t",
      "ëĲĺ ì§Ģ",
      "Ġ1 00",
      "ê ´´",
      "200 9",
      "ì¶ ĺ",
      "Ġë¹ Į",
      "Ġëª¨ ëį¸",
      "c e",
      "ĠíĹ Į",
      "ìĦ ¬",
      "ĠìķĬ ìķĺëĭ¤",
      "Ġìĭľ ìłĪ",
      "Ġì» ´",
      "ìļ´ ëıĻ",
      "íı¬ ì¸ł",
      "ĠìĦ ¼",
      "Ġìłľ ê³µ",
      "Ġì¡° ì§ģ",
      "0 3",
      "ìŀ¥ ìĿ´",
      "ê¸° ë¡ľ",
      "201 3",
      "o g",
      "Ġ20 21",
      "201 6",
      "ìĽĲ ìĿĺ",
      "Ġ3 1",
      "ìĿ į",
      "Ġê³µ ëıĻ",
      "ìķ ķ",
      "Ġê±° ì£¼",
      "ĠíĽĦ ë³´",
      "Ġ200 1",
      "Ġê¸° íĥĢ",
      "ĠìĿ´ ìķ¼",
      "K BS",
      "Ġë¶Ģ ìĤ°",
      "Ġìļ ¸",
      "ê² Ģ",
      "íķ´ ìĦľ",
      "Ġê±´ ì¶ķ",
      "o v",
      "ë¦¬ ìĺ¤",
      "Ġêµ¬ ê°Ħ",
      "ì¹ Ļ",
      "ĠíĻĪ íİĺìĿ´ì§Ģ",
      "2 3",
      "ëĤ ¸",
      "ì¢ Į",
      "ĠìķĦëĭĪ ëĿ¼",
      "âĢ ĵ",
      "ëĤĺ ëĬĶ",
      "ì ĩ¼",
      "Ġì¢ Į",
      "ìĦ± ìĿĺ",
      "ìĪĺ ìĿĺ",
      "ĠìĿ´ ìľł",
      "ä ¹",
      "ë¡ľ ìĬ¤",
      "íĶĦ ë¦¬ì¹´",
      "éĩ ĳ",
      "ĵ ¨",
      "ìĿ¸ë¯¼ ê³µ",
      "a b",
      "´ ëĵľ",
      "ĠìĨĮ ìĦ¤",
      "ë¦¬ ê³ł",
      "ĠëĤ´ ìļ©",
      "2 4",
      "ëĦ ·",
      "Ġê³Ħ íļį",
      "Ġíŀ ĺ",
      "Ġë ®¤",
      "Ġì°¨ ì§Ģ",
      "° ëĭ¤",
      "ĠíķŃ ê³µ",
      "ìĬ¤ ì½Ķ",
      "ëıĦ ëĬĶ",
      "æ ĺ",
      "ĠìłĦ ì²´",
      "ìĽĲ ìłĦ",
      "Ġë°© ë²ķ",
      "ĠI n",
      "ĠêµŃê°ĢëĮĢíĳľ íĮĢ",
      "Ġìŀ ł",
      "Ġëª ĩ",
      "ĠìķĬ ê³ł",
      "ëıĦ ê°Ģ",
      "ì§Ģ ë§ī",
      "ìłĦ ìĿĦ",
      "íĨ ¤",
      "ë¦¬ ì§Ģ",
      "Ġë°Ķ ìĿ´",
      "ĠìķĬ ëĬĶëĭ¤",
      "Ġê´Ģ íķľ",
      "Ġëĭ¤ ìĿ´",
      "ĠêµĲ íĨµ",
      "ìĸ ¼",
      "Ġìĭľ ìĬ¤íħľ",
      "ìĭľ ê°Ħ",
      "ë¥´ íĬ¸",
      "ĠãĢ Į",
      "Ġë¹ ł",
      "200 7",
      "é Ļ",
      "ë¹ Į",
      "ar t",
      "å ¾",
      "19 3",
      "ĠëĬ ¥",
      "ëĭ Ŀ",
      "ìĥ ¤",
      "ĠìĽ Į",
      "ìĿ¼ ë¶ĢíĦ°",
      "i st",
      "Ġ w",
      "Ġëĳ ĺ",
      "Ġëħ ¹",
      "201 7",
      "é ĥ",
      "ë¡ ¯",
      "ìļ ±",
      "å ¯",
      "ìĭ Ń",
      "Ġì£¼ ìļĶ",
      "íĥ ķ",
      "Ġë ĪĪ",
      "ëıĻ ì°¨",
      "ì½ ľ",
      "i e",
      "Ġëĸ ¨",
      "ìĽĲ ìĿĦ",
      "ĠìĦ± ìļ°",
      "Ġê°ľ ìµľ",
      "200 6",
      "ìĿĮ ìĿĦ",
      "Ġìĸ ¼",
      "Ġ |",
      "ìŀ ¡",
      "Ġë¶Ħ ë¥ĺ",
      "Ġëĸ ł",
      "0 6",
      "ĠëĶ° ë¥´",
      "ë² ¤",
      "ĠíĺĦ ëĮĢ",
      "íĻĶ ë¥¼",
      "ĠìĹ° ê²°",
      "ì ·¨",
      "ë¶Ģ ìĹĲ",
      "ì½ ĺ",
      "Ġë°°ê²½ ìľ¼ë¡ľ",
      "0 5",
      "íķĻ ê¸ī",
      "ac k",
      "íķĺê¸° ëıĦ",
      "ìĤ¬ ëĬĶ",
      "íĻ ķ",
      "ê¶Į ìĿĦ",
      "ìĿ¸ ëĭ¤",
      "íĶ¼ ìĸ¸",
      "ĠìĻ¸ êµŃ",
      "ĠìĽ ¹",
      "es s",
      "Ġëª¨ ìĬµ",
      "Ġí į¼",
      "Ġ199 9",
      "ĠìĹŃ íķł",
      "ë¹Ħ ìĬ¤",
      "Ġâ Ĩ",
      "201 8",
      "Ġì¶Ķ ê°Ģ",
      "æĿ İ",
      "íĶĦ ëŀĳ",
      "Ġ v",
      "Ġë§İ ìĿ´",
      "ë§ ¥",
      "ëĵľ ëĬĶ",
      "ĠëıĦ ë¡ľ",
      "íķĺ ìŀĲ",
      "í ĳ¸",
      "íĶĦ ë¡ľ",
      "ĠíĿ ¬",
      ". )",
      "ĠìĿ¸ ê°Ħ",
      "ìļ´ ëį°",
      "ĠS BS",
      "ĠíĶĮ ëłĪìĿ´",
      "0 2",
      "Ġëª ¸",
      "ëĮĢ íķľ",
      "ĠìĤ¬ ìĹħ",
      "íħ Ĳ",
      "½ ĥ",
      "ĠíĬ¹ ë³Ħ",
      "íĹ ¤",
      "ĠíĮ Ķ",
      "íĬ ľ",
      "íĬ¸ ë¡ľ",
      "íģ Ĳ",
      "ìĪĺ ë¥¼",
      "Ġ199 8",
      "Ġë§Ī ì§Ģë§ī",
      "íĦ ¸",
      "ì ¥Ĳ",
      "ë£ ¡",
      "ĠìĿ´ ë¯¸",
      "Ġë¯¼ ì£¼",
      "ĠëıĦ ì¿Ħ",
      "ìĤ¬ ê´Ģ",
      "ĠìĹ´ ë¦°",
      "Ġê²° êµŃ",
      "¾ ¸",
      "êµ ´",
      "Ġë§ ¥",
      "Ġ &",
      "Ġëĭ¤ìĸĳ íķľ",
      "ĠìķĦ ëŀĺ",
      "Ġ199 6",
      "ìĿ´ ìĿĺ",
      "r a",
      "ãĢ ı",
      "ìĬ¤ íĥĦ",
      "ìĤ¬ ë¡ľ",
      "Ġíĭ °",
      "Ġê³µ ê°ľ",
      "Ġê³¼ ìłķ",
      "íĨ ¨",
      "ìķ ¡",
      "ê°Ģ ëĬĶ",
      "ê³ ³",
      "íķ Ģ",
      "Ġê² ©",
      "ĠC h",
      "íĿ Ĳ",
      "ìľ¼ë¡ľ ë¶ĢíĦ°",
      "ëª¨ íĨł",
      "ìłĲ ìĿĦ",
      "ĠìĹ Ħ",
      "Ġìľł ì§Ģ",
      "ĠíķĦ ìļĶ",
      "ĠìĽĶëĵľ ì»µ",
      "ç İ",
      "Ġìľł ëªħ",
      "íĥ ģ",
      "Ġê°Ģ ì§Ħ",
      "ä »",
      "Ľ °",
      "Ġë¬ ĺ",
      "Ġìłķì¹ĺ ìĿ¸",
      "ig n",
      "ìĥģ ìĿĺ",
      "Ġë³´ ê³ł",
      "Ġê¸° ëĬ¥",
      "ĠìłĦ ëĿ¼",
      "ë©Ķ ëĭ¬",
      "ëĥ Ĳ",
      "ë¥ Ļ",
      "ī ¬",
      "0 9",
      "ĠíĴ į",
      "ìľ¼ë¡ľ ìį¨",
      "Ġìĺ¤ ìĬ¤íĬ¸",
      "Ġì± Ķ",
      "Ġë¬¸ íĹĮ",
      "0 8",
      "Ġëª °",
      "ĠĊĠĊ ĠĊĠĊ",
      "Ġ l",
      "Ġíĳľ íĺĦ",
      "ĠìĥĿ íĻľ",
      "í ĵ¨",
      "íı °",
      "ìĿ´ ê°Ģ",
      "Ġìļ´ íĸī",
      "ĠìķĦ ë¥´",
      "ĠìĽ ¨",
      "ìŀ¥ ìľ¼ë¡ľ",
      "Ġ st",
      "Ġê°Ģ ìļ´ëį°",
      "êµ° ìĿĢ",
      "Ġê±° ìĿĺ",
      "Ġê°Ģ ë¦¬",
      "Ġíķĺ ìĹ¬",
      "ĠìĿ´ ëģ",
      "20 00",
      "ĠF I",
      "ĠëĨĴ ìĿĢ",
      "ìł ¤",
      "ìĸ´ ë¥¼",
      "ìłľ ë¡ľ",
      "Ġë§Įëĵ¤ ìĸ´",
      "íĹ Ī",
      "ìŀ¥ ìĿĢ",
      "ëĶ ©",
      "Ġíķĺ ê³Ħ",
      "ĠìķĬ ìĿĢ",
      "ëł ĩ",
      "Ġê°ģ ê°ģ",
      "æ Ń",
      "Ġê² ¸",
      "Ġê²½ê¸° ëıĦ",
      "Ġíľ ´",
      "2 8",
      "Ġìłľ êµŃ",
      "Ġê´Ģ ë¦¬",
      "ëĥ Īëĭ¤",
      "Ġ199 7",
      "Ġì½ ľ",
      "íķĺ ëł¤",
      "ĠìĿ ĳ",
      "å ¹",
      "0 4",
      "Ġ Â·",
      "ĠëĮĢ ìĥģ",
      "2 6",
      "Ġì¶ľ ìłĦ",
      "Ġìĸ´ ë¨¸ëĭĪ",
      "ìĦ¼ íĦ°",
      "íķĺ ëįĺ",
      "ëĭ¤ ê°Ģ",
      "ëĮĢ íķľë¯¼êµŃ",
      "ĠìĿ¸ ìłķ",
      "ĠìĿ¸ ëıĦ",
      "ì§Ģ ìĿĺ",
      "Ġìĸ´ ë¦°",
      "ìħ Ķ",
      "ëł¥ ìĿ´",
      "20 19",
      "å± ±",
      "Ġ199 5",
      "Ġìŀĳ ìĿĢ",
      "íķ´ ìķ¼",
      "æ ´",
      "ìĽĲ ìĿ´",
      "20 20",
      "Ġì±Ķ íĶ¼ìĸ¸",
      "es t",
      "Ġìķ ¤",
      "ì² Ļ",
      "íĬ¹ë³Ħ ìĭľ",
      "Ġìĺ¤ ë¸Į",
      "Ġìĥ ¤",
      "Ġê°ľ êµĲ",
      "200 5",
      "Ġìĺģíĸ¥ ìĿĦ",
      "ê°ľ ìļĶ",
      "Ġë°ľ ìłĦ",
      "ìĿ´ ìĸ´",
      "´ ¬",
      "Ġíıī ê°Ģ",
      "¹ ìĿĢ",
      "Ġì Į",
      "ĠëĶ°ë¥´ ë©´",
      "ĠëĮĢ ìĭł",
      "ĠëĤĺ ëĿ¼",
      "´ Ħ",
      "Ġì§ģ ìłĳ",
      "ê³ ¤",
      "ĠíķĻ ìĥĿ",
      "Ġê±´ ìĦ¤",
      "ĠìłĦ êµŃ",
      "Ġë¹Ħ ëĶĶìĺ¤",
      "ìĬ¤ ìĻĢ",
      "ìĿ¼ ìĿĺ",
      "5 0",
      "Ġì£¼ ë³Ģ",
      "ĠìĿ´ë¦Ħ ìĿĦ",
      "in e",
      "2 7",
      "ĠìĿ´ë£¨ ìĸ´",
      "ëģ ¼",
      "ìĺĢ ëįĺ",
      "íı Ń",
      "ìĤ¬ íļĮ",
      "Ġìŀĳ ê°Ģ",
      "íħ Ķ",
      "Ġê²° íĺ¼",
      "it y",
      "ì¹´ ìĻĢ",
      "ĠëĤ¨ ìķĦ",
      "Ġìĥģ íĻ©",
      "Ġì§Ģ íķĺ",
      "Ġë² ¨",
      "ìŀĲ ìĻĢ",
      "ĠìŀĲ ìĹ°",
      "ĠìĿ´ ëıĻ",
      "Ġ å",
      "T he",
      "ĩ Į",
      "ì£¼ ìĭľ",
      "´¬ ìĺģ",
      "Ġë¨ ¹",
      "ä ½",
      "2 9",
      "Ġìłķ ìĿĺ",
      "è ¡",
      "ìĬ¤ ë¡ľ",
      "ĠìĬ ¬",
      "íķĺ ì§Ģë§Į",
      "Ġê·¸ ê²ĥ",
      "ĠìĦł ìłķ",
      "ar d",
      "ì ĩ",
      "ëĵ Ģ",
      "a v",
      "Ġê ¼",
      "ëĭ¤ ëĬĶ",
      "ì³ ¤",
      "ĠìŀĦ ëªħ",
      "c t",
      "Ġ199 0",
      "ë°Ķ ìĿ´",
      "ì§Ģ ìĹĲ",
      "Ġê±´ ë¬¼",
      "ë¯¸ ëĶĶ",
      "Ġë³´ ìĹ¬",
      "ĠìĿ´ ë¡ł",
      "ĠëıĻ ë¬¼",
      "ĠêµŃ íļĮìĿĺ",
      "ë¡ ¤",
      "Ġë°© ìĭĿ",
      "é ķ",
      "Ġí Ľ",
      "ìĻ Ķëĭ¤",
      "ê¸° ê´Ģ",
      "Ġí ĳ¸",
      "Ġêµ¬ ìĹŃ",
      "ìĿ¸ ìĿĦ",
      "ìĪĺ ìĥģ",
      "ĠëĲĺ ëĬĶ",
      "íı Ĳ",
      "Ġìķ ķ",
      "ìĪĺ ê°Ģ",
      "ìŀ Īëĭ¤",
      "ĠìķĬ ëĬĶ",
      "Ġë Ľ°",
      "ê³µ íķŃ",
      "å º",
      "ëıħ êµĲ",
      "el l",
      "Ġê²½ ì°°",
      "ê³¼ íķĻ",
      "200 4",
      "il l",
      "ìłľ ë¥¼",
      "ì§Ģ ê³ł",
      "ìłľ ê°Ģ",
      "ìĥĿ ìķł",
      "a k",
      "ĠëĬ Ĳ",
      "íĸĪ ì§Ģë§Į",
      "Ġìĥ ī",
      "ëĨ į",
      "i f",
      "ëł Ģ",
      "ì ¤Ħ",
      "Ġ n",
      "ê² ¼",
      "Ġë° ´ëĵľ",
      "ĠìķĮëł¤ ìł¸",
      "ìłķ ë¶Ģ",
      "Ġë¶ Ļ",
      "Ġë§Ī ìĿĦ",
      "Ġìĸ¸ ìĸ´",
      "ĠìłĦ ë¬¸",
      "ĠìĬ¤ íı¬ì¸ł",
      "ìĤ¬ ìĹĲ",
      "Ġê·¸ë¦¬ ìĬ¤",
      "Ġì§Ģ ëıĦ",
      "ĠëĤĺ ìĺ¤",
      "¤ ë²Ħ",
      "Ġì¶ľ ìĭľ",
      "ìĦł ê±°",
      "ìĤ¬ ì¹´",
      "ì¼ ĵ",
      "ë¯¸ êµŃ",
      "Ġíķ µ",
      "ì¹ĺ ëĬĶ",
      "ì²ł ëıĦ",
      "ìŀ¥ ìĿĺ",
      "ìĽ¨ ìĸ´",
      "al l",
      "un d",
      "ëĳ ¥",
      "ìľĦ ìĹĲ",
      "Ġ X",
      "ĠFI FA",
      "ë² ½",
      "ë© ĺ",
      "Ġê¸ ´",
      "ëłĪ ìĿ¼",
      "Ġí ĽĪ",
      "ĠìķĦ ìĭľ",
      "Ġ5 0",
      "ëł ¬",
      "Ġíĥ Ĳ",
      "íĵ¨ íĦ°",
      "å Ī",
      "ĠëĮĢ êµ¬",
      "ĠìĻĦ ìłĦ",
      "Ġíĺķ ìĦ±",
      "Ġ199 4",
      "ëĮĢ ìĹĲ",
      "S T",
      "ëŁ¬ ìĬ¤",
      "ëĤĺ ìĿ´",
      "ĠëĶ°ëĿ¼ ìĦľ",
      "Ġì·¨ ìŀĦ",
      "ìĿ¸ ìĿĢ",
      "ì½Ķ ëĵľ",
      "êµ° ìĹĲ",
      "ëį ľ",
      "íĺĦ ìĿĺ",
      "íĤ¨ ëĭ¤",
      "ë¨¼ íĬ¸",
      "ìĦ¸ ìĿĺ",
      "Ġìłķ ëıĦ",
      "Ġê³¼ íķĻ",
      "ĠìĦľ ë¡ľ",
      "ĠíĽĦ ìĹĲ",
      "ĠëĤ ®",
      "ç ¾",
      "ì§Ģ ë¡ľ",
      "ìĹ¬ ìŀĲ",
      "ķ ħ",
      "êµ° ìĿ´",
      "Ġê³µ ê°Ħ",
      "ĠìķĬ ìķĺ",
      "ĠìķĦ ëĭĮ",
      "Ġëħ¸ ëıĻ",
      "ìĹ Ĩ",
      "ëĵ¤ ìĹĲ",
      "Ġë§Ĳ íķľëĭ¤",
      "Ġêµ° ìĤ¬",
      "ë§ Īëĭ¤",
      "ëĮĢ íļĮ",
      "ìª½ ìľ¼ë¡ľ",
      "Ġìľ Į",
      "ìłĦ ìĹĲ",
      "ìļĶ ìĿ¼",
      "Ġë¹ Ī",
      "Ġëªħ ì¹Ń",
      "á Ĩ",
      "Ġëĭ¨ ì²´",
      "íĬ¸ ë¦¬",
      "ì§Ģ ê°Ģ",
      "Ġë§Į ëĵł",
      "Ġì§Ģ ê¸Ī",
      "Ġê³µ ìĹ°",
      "Ġì§Ģ êµ¬",
      "íģ¬ ë¡ľ",
      "Ġì¶© ì²Ń",
      "Ġìłľ ìĻ¸",
      "Ġê¸° ê´Ģ",
      "æ Ī",
      "Ġì ´¬ìĺģ",
      "ìłķ ë³´",
      "ëĲ Ĳëĭ¤",
      "ĠëıĻ ìĭľìĹĲ",
      "Ġìłķ ì±ħ",
      "ëĭ¨ ìĿĺ",
      "ĠìĺģíĻĶ ìĿ´ëĭ¤",
      "ĠíĻľ ìķ½",
      "ìĺ¤ ì¹´",
      "ì§Ģ ë°©",
      "ë¬ ĺ",
      "ê³Ħ ë¥¼",
      "Ġìĥģ ëĮĢ",
      "íĭ ±",
      "ìĦł ìĿĺ",
      "ĠíĨµ íķ©",
      "Ġê¸° ë°ĺ",
      "ì§Ģ ìĹŃ",
      "Ġê¸° ê°Ħ",
      "ĠìĹ° íķ©",
      "ë¦° ëĭ¤",
      "Ġê°ľ ìĿ¸",
      "Ġì¤ĳ ìļĶíķľ",
      "ë¥¸ ëĭ¤",
      "e x",
      "' s",
      "ë¶Ģ ë¥¼",
      "ìĿ¼ ê¹Įì§Ģ",
      "Ġìĭ ¸",
      "ìĬ¤ íĤ¤",
      "e v",
      "u b",
      "ìĽĲ ìľ¼ë¡ľ",
      "ĠìĤ¬ìĿ´ ìĹĲ",
      "y le",
      "Ġê¸° ëħĲ",
      "ĠìĹ° ê·¹",
      "ìłľ ìĿĺ",
      "íķĺ ëĿ¼",
      "ì¹ ¼",
      "Ġì Ķ",
      "ì¹ĺ ë¥¼",
      "e p",
      "ìĽĲ ìĿĢ",
      "Ġ18 9",
      "200 2",
      "ĠíĮĲ ë§¤",
      "ìĽ ħ",
      "ĠìļĶ êµ¬",
      "Ġì¹ľ êµ¬",
      "ì½ ©",
      "Ġê¸° ë³¸",
      "Ġìĭ¤ ìĭľ",
      "ìĬ¤ íħĮ",
      "Ġê³ł ëĵ±íķĻêµĲ",
      "ì§Ħ ëĭ¤",
      "ĠìĿ¼ ìľ¼",
      "ĠëĦ Ī",
      "ĠìĿĺ íķľ",
      "ëĤĺ ìĿĺ",
      "Ġë§ Ŀ",
      "ĠëıĦ ìŀħ",
      "ĠìĿ¸ ì²ľ",
      "ì£¼ ìĹ°",
      "å ¸",
      "ë©Ķ ë¦¬ì¹´",
      "Ġë°ĺ ëĮĢ",
      "Ġ a",
      "an g",
      "Ġê²½ ëł¥",
      "ãĢĭ ,",
      "ìĤ¬ ìĻĢ",
      "ëĵľ ë¦¬",
      "ì¹ ł",
      "ĠìĤ° ìĹħ",
      "íĬ ¼",
      "Ġì¤ĳ íĻĶ",
      "ĠìĪĺ íĸī",
      "Ġë¹Ħ ë¡¯",
      "ìĿ¼ ëŀľëĵľ",
      "ë¦¬ìķĦ ìĿĺ",
      "ĠìŀĪëĬĶ ëį°",
      "ìĬ¤ íĭ°",
      "ĠìĹŃ ìĭľ",
      "ĠíĬ¹ ì§ķ",
      "Ġë ¿Ĳ",
      "ç Ľ",
      "Ġí ĩ´",
      "ĠìĪĺ ë¡Ŀ",
      "ìĿ´ ë¥¼",
      "Ġê³Ħ ìķ½",
      "Ġíģ¬ ê²Į",
      "íĹ ¨",
      "íĬ¸ ìĿĺ",
      "Ġìĺ ¥",
      "Ġê°Ģ ì¡±",
      "Ġíĺ ģ",
      "Ġê¸°ì¤Ģ ìľ¼ë¡ľ",
      "Ġ =",
      "Ġíģ¬ ë¦¬ìĬ¤",
      "ĠìĦ¤ë¦½ ëĲľ",
      "ĠìºĲ ëĤĺëĭ¤",
      "ìĬ¤ ì¹´",
      "Ġíİ¸ ìĦ±",
      "Ġë© ¤ë²Ħ",
      "ë²ł ìĿ´",
      "ëĮĢ ê°Ģ",
      "ìłĦ ìĹĲìĦľ",
      "ìĤ¬ ìĹħ",
      "Ġê·¸ ê°Ģ",
      "ë¦ ī",
      "ĠìĹ° ìĨį",
      "ìŀĦ ìĿĦ",
      "ìĤ¬ ìĿ´",
      "é Ŀ",
      "Ġ199 2",
      "Ġë¯¼ ì¡±",
      "æ Ĺ",
      "ĠìĹ° ì£¼",
      "i an",
      "Ġìļ° ì£¼",
      "ëĵľ ë¡ľ",
      "Ġê·¸ ëŀĺ",
      "al ign",
      "Ġ199 3",
      "n d",
      "ëħ ¼",
      "ĠìĻ¸êµŃ ìĿ¸",
      "ĠìĹ° ë°©",
      "Ġì°¨ ëŁī",
      "ê¸° íĥĢ",
      "Ġìĭľ ìĦ¤",
      "ìķĦ ìĿ´",
      "Ġëį°ìĿ´ íĦ°",
      "F C",
      "ĠìłĦ ê¸°",
      "ì¶ķ êµ¬",
      "200 3",
      "ìĨĮ ëħĦ",
      "ìĬ¤ íİĺ",
      "ĠíĻĺ ê²½",
      "ĠëĲĺ ìĹĪ",
      "Ġìĭľìŀĳ íĸĪëĭ¤",
      "e w",
      "æ ³",
      "ê° ĳ",
      "Ġìĸ´ëĸ ¤",
      "ìĨĮ ë¥¼",
      "ìĦľ ê´Ģ",
      "M BC",
      "ë¬¸ ìĿĦ",
      "Ġê² ¬",
      "Ġê°ľ íĨµ",
      "ëĲĺ ë©°",
      "íıī ê°Ģ",
      "ĠìĬ¤ ìľĦ",
      "ëĿ¼ ìĿ¸",
      "ĠëĿ¼ ëĶĶìĺ¤",
      "4 8",
      "ëĤĺ ë¬´",
      "ĠìĤ¬ ê³ł",
      "íĤ ¹",
      "ìŀ¥ ìĹĲ",
      "ê¸° ìĪł",
      "Ġíĥ ĳ",
      "Ġì° ©",
      "ĠëĨ ĵ",
      "ì¦ ĺ",
      "êµŃ ë¯¼",
      "ëįľ ëŀĢëĵľ",
      "Ġê°ľ ìĿĺ",
      "å Ł",
      "ëĲĺ ë©´ìĦľ",
      "Ġë¹Ħ íĮĲ",
      "i p",
      "¢ °",
      "ĠíŀĪ ë¡ľ",
      "Ġìľ¡ êµ°",
      "ìĭľ ì½Ķ",
      "çİ ĭ",
      "Ġ199 1",
      "b er",
      "Ġë¯¸ ìĪł",
      "íĻĶ êµŃìĿĺ",
      "ãĥ »",
      "ì£¼ ëĬĶ",
      "Ġìłķ ëĭ¹",
      "ë£¨ ìĬ¤",
      "ĠìĨĮ íĶĦíĬ¸",
      "íĻĶ ê°Ģ",
      "ĠëĤĺ ê°Ģ",
      "ìł Ŀ",
      "ĠìĹŃíķł ìĿĦ",
      "íĮ Ķ",
      "ì²´ ìĿĺ",
      ". \"",
      "Ġëĭ´ ëĭ¹",
      "ĠìŀĪ ìĿĦ",
      "Ġë³´ íĺ¸",
      "iv e",
      "ëĭ ī",
      "Ġê±° ì³Ĳ",
      "Ġì´Ī ê¸°",
      "Ġë©Ķ ëĭ¬",
      "ĠìĤ¬ ë¬´",
      "ĠìĦ¤ ëªħ",
      "Ġíģ´ ëŁ½",
      "ĠìĿ¸êµ¬ ëĬĶ",
      "ìŀ Ķ",
      "íĨł ë¦¬",
      "Ġê ¶ģ",
      "ëĤĺ ê°Ģ",
      "ëª ½",
      "ĠëĤĺ ë",
      "ĠìĬĪ íį¼",
      "ĠãĢ İ",
      "Ġê¸° ì¡´",
      "u d",
      "Ġ20 22",
      "ĠìŀĪëĭ¤ ê³ł",
      "ë¥´ ê²Į",
      "ê´Ģ ë¦¬",
      "ìłģ ìĿĢ",
      "ë ĺĲ",
      "Ġìµľì´Ī ìĿĺ",
      "ìŀ¥ ìĹĲìĦľ",
      "Ġì§ĢìĹŃ ìĿĺ",
      "Ġì²ĺìĿĮ ìľ¼ë¡ľ",
      "íĬ¸ ëĤ¨",
      "ĠĠĠĠ ĠĠĠĠ",
      "Ġë°°ìļ° ìĿ´ëĭ¤",
      "Ġì¢ħ êµĲ",
      "ç ¥",
      "a e",
      "ĠìĽĲ ëŀĺ",
      "ĠíĮ ¬",
      "ë¶Ģ ëĬĶ",
      "ë¡ Ń",
      "ëª °",
      "Ġëľ» ìĿĢ",
      "íĺĦ ìŀ¬",
      "ĠìĨĮ ëł¨",
      "ou r",
      "Ġê³µ íķŃ",
      "ìł ł",
      "Ġíĸī ëıĻ",
      "ëĮĢ ëĬĶ",
      "Ġíĺ ¹ìĿĢ",
      "Ġíĥľìĸ´ ëĤ¬ëĭ¤",
      "ĠìłĦ íĨµ",
      "Ġëĵ Ŀ",
      "ìĪĺ ëĬĶ",
      "Ġëĭ¬ ë¦¬",
      "Ġì¹ ¸",
      "ĠìĹ¬ ê°Ŀ",
      "Ġìŀ īê¸Ģëŀľëĵľ",
      "íķĺ ìĿ´",
      "ì¤ĳ ìĹĲ",
      "ìĿ´ìĹĪ ëįĺ",
      "ìłķ íķľ",
      "ë ®¤",
      "ìĸ´ ëĬĶ",
      "Ġìĺ ®",
      "ĠìĹ ¼",
      "ĠêµŃ ë¦½",
      "ìĬ ·",
      "í Ĥ¬",
      "ìĬ¤ íĦ´",
      "æ ²",
      "ë° į",
      "ì£¼ ìļĶ",
      "ìĪĺ ë¡ľ",
      "ìłķ ìĿĺ",
      "e b",
      "6 0",
      "Ġ198 0",
      "ê° Ķëĭ¤",
      "Ġë°Ķ ë¡ľ",
      "ë¦¬ ìĻĢ",
      "ë¦¬ íķĻ",
      "Ġíķľ íİ¸",
      "íĺ Ķëĭ¤",
      "Ġë²ł ìĿ´",
      "ĠêµŃíļĮìĿĺ ìĽĲ",
      "ê²© ìĿĦ",
      "ĠìĨ Ķ",
      "ĠìľĦ íķĺìĹ¬",
      "200 1",
      "íķĺëĬĶ ëį°",
      "íĬ¸ ë¥¼",
      "Ġìłģ ìļ©",
      "ëªħ ìĿĢ",
      "Ġíķĺ ìĺĢ",
      "íĸĪ ìľ¼ëĤĺ",
      "í Ģ",
      "Ġë§Ī ìĿĮ",
      "Ġë¯¸êµŃ ìĿ¸",
      "ĠíĴ Ģ",
      "ĠíĶ¼ íķ´",
      "Ĳ ë¦¬",
      "Ġì¦Ŀ ê°Ģ",
      "ë ¢°",
      "Ġ g",
      "ëĵľ ìĿĺ",
      "ĠëĲ ł",
      "æ Ľ",
      "ëĿ¼ ìĿĺ",
      "Ġë°© ìĺģ",
      "ë¬¼ ìĿĦ",
      "ĺ ë¦¬",
      "Ġìķ ¡",
      "ëĿ¼ ìĬ¤",
      "Ġì» ¨",
      "ĠêµŃ ëĤ´",
      "ë¥´ ê³ł",
      "ĠìĹŃ ìŀĦ",
      "ãģ ®",
      "Ġê° ĳ",
      "ìħ Ģ",
      "Ġì ĵ",
      "ĠìĿ´ ìĤ¬",
      "ìĦľ ë¥¼",
      "ìħ ľ",
      "or t",
      "íİ ľ",
      "ĠìļĶ ìĭľ",
      "Ġë¹Ħ ìĬ·",
      "Ġ198 7",
      "êµ° ìĿĦ",
      "Ġë³´ íĨµ",
      "an t",
      "ìĦ Ń",
      "Ġì»´ íĵ¨íĦ°",
      "ìĿ¸ë¯¼ê³µ íĻĶêµŃ",
      "Ġëį ķ",
      "Ġìľł ìĿ¼",
      "ĠìĪ Ļ",
      "á Ħ",
      "Ġìµľ ëĮĢ",
      "ĠëĲĺ ê³ł",
      "Ġíķĺ ë©°",
      "ĠìĹ´ ì°¨",
      "ë£ ¬",
      "Ġì§Ģ íľĺ",
      "Ġê³¼ ê±°",
      "it h",
      "ìĿ´ ê¸°ëıĦ",
      "ìĦł ìĿĦ",
      "ê°Ħ ìĿĺ",
      "ìĩ Ħ",
      "ĠìĦł íĥĿ",
      "Ġì£¼ ìĹ°",
      "ìĹŃ ëĮĢ",
      "ĠìĿ´ìķ¼ ê¸°",
      "ë°° ìļ°",
      "Ġìŀĳ ìĹħ",
      "Ġê¸° ëıħêµĲ",
      "Ġ .",
      "ë¯¼ì£¼ ì£¼ìĿĺ",
      "ìĦ± ìĿĢ",
      "ëĵ ¬",
      "Ġì°¾ ìķĦ",
      "20 21",
      "ê³¼ ëĬĶ",
      "Ġë° ¤",
      "ëıĦ ìĹĲ",
      "ĠìĨĮìŀ¬ ë¡ľ",
      "Ġ ?",
      "Ġê²½ê¸° ìĹĲìĦľ",
      "é Ľ",
      "æ µ",
      "ĠíĻķ ìĿ¸",
      "ìķ ¤",
      "êµĲ íĨµ",
      "Ġíļ į",
      "ĠìĬ¹ ê°ķ",
      "Ġ4 0",
      "ĠëĤ Ļ",
      "ì²´ ë¥¼",
      "ĠìĤ¬ ìĥģ",
      "íĺĳ íļĮ",
      "éģ ĵ",
      "Ġë©Ķ ìĿ´",
      "íĨ¨ ë¦Ń",
      "ë¦Ń íĦ°",
      "ìĿ¸ ë¬¼",
      "ìłģ ìĿĦ",
      "ìľ µ",
      "ig ht",
      "Ġ km",
      "Ġì§Ģ ëĤĺ",
      "Ĭ ìĿĢ",
      "Ġëª¨ ìĸĳ",
      "Ġë°Ľ ìĿĢ",
      "ìĭľìķĦ ìĿĺ",
      "E FA",
      "ëĭ¹ ìĿĺ",
      "ìĤ¬ íĤ¤",
      "íķĺìĺĢ ìľ¼ëĤĺ",
      "ìĭľ ëĮĢ",
      "íķĺ ê±°ëĤĺ",
      "ì ī¬",
      "Ġìµľ ì¢ħ",
      "ĠìĹĨ ìĿ´",
      "ìĭľ ì¦Į",
      "ìĦ¸ ê³Ħ",
      "ìľ Ī",
      "Ġì§Ģ ë°°",
      "ìĤ¬ ìĿ´íĬ¸",
      "ĠìĹ° ê¸°",
      "ê ¾¸",
      "Ġë¶Ģ ë¬¸",
      "ê² Ĳ",
      "ĠìĺĪ ìĪł",
      "q u",
      "æĸ ĩ",
      "Ġ198 8",
      "ë ľ",
      "ë¦¬ ë¡ľ",
      "ĠìķĦ ëĤĺ",
      "êµĲ íļĮ",
      "ĊĊ Ġ",
      "f t",
      "ĠêµŃìłľ ê³µíķŃ",
      "ĠêµĲ íļĮ",
      "ìłķ ìĹĲ",
      "Ġ198 9",
      "ìĺĪ ìĪł",
      "ĠĠ Ġ",
      "ìĸ´ ê°Ģ",
      "Ġë°© íĸ¥",
      "Ġë¹Ħ êµĲ",
      "æ Ļ",
      "ê²½ ìłľ",
      "ìľĦ ë¡ľ",
      "Ġìļ° ë¦¬",
      "ĠìĬ¤íİĺ ìĿ¸",
      "Ġíķĺ ìĿ´",
      "Ġë¡ Ŀ",
      "Ġëī´ ìļķ",
      "ë²ł ë¥´",
      "4 0",
      "ĠíĿ ĳ",
      "ĠëĮĢ íķĺìĹ¬",
      "ìļ° ìĬ¹",
      "ì¡° ìĿĺ",
      "ë©Ķ ìĿ´",
      "ĠìķĦìĭľ ìķĪ",
      "ìĽ¨ ëį´",
      "ĠëłĪ ì½Ķëĵľ",
      "ä¸ Ń",
      "Ġë¨ ¼",
      "Ġìĺ Ľ",
      "N A",
      "ro w",
      "Ġìľ Ī",
      "Ġì´Ī ëĵ±íķĻêµĲ",
      "u p",
      "Ġì ī",
      "Ġìķ¼ ë§Ī",
      "ìľ¼ ë©´",
      "Ġì£¼ ìĿ¸",
      "ìķĦ ìĿĺ",
      "Ġì¶Ķ ìłķ",
      "s p",
      "ì§Ģ íĦ¸",
      "ĠëĦ ĵ",
      "ìĿĺ ë¥¼",
      "Ġë° ĸ",
      "ëĮĢ ìłĦ",
      "ìĽĮ ëĵľ",
      ") Â·",
      "ĠìŀĲ ê¸°",
      "ĠíĶĦë¡ľ ëĵĢ",
      "ì§Ģ ìĽĲ",
      "íĸī ìłķ",
      "ķ ìĭľì½Ķ",
      "Ġëª ½",
      "ĠâĨ Ĵ",
      "m m",
      "¶ ¤",
      "199 9",
      "Ã ©",
      "Ġì¡° ì§Ģ",
      "ëĭ¤ ê³ł",
      "f f",
      "ëħĦ ìĿĺ",
      "ìŀĲ ë¦¬",
      "Ġë¶Ħ ìķ¼",
      "ëĿ¼ ìļ´ëĵľ",
      "ĠìĿ´ëģ Į",
      "ëıĻ ìķĪ",
      "Ġê±°ì£¼ íķľ",
      "ĠêµĲ íĻ©",
      "åŃ ¸",
      "ĠìŀĪëĭ¤ ëĬĶ",
      "ìĭľì¼ °ëĭ¤",
      "ĠëŁ °",
      "ĠìĺĪ ìłķ",
      "Ġê·ľ ëª¨",
      "ë ±",
      "ĠíĿ Ķ",
      "ĠíĽĦ ë°ĺ",
      "ĠìŀĪ ì§Ģë§Į",
      "íĺ Ī",
      "ëŀ «",
      "ì¢ħ ìĿĺ",
      "ìĸ´ ìĿĺ",
      "êµŃ ê°Ģ",
      "ìĽ¨ ìĿ´",
      "r an",
      "æ ł",
      "Ġíĥľ ìĸĳ",
      "Ċ ĠĊ",
      "Ġë³´ ëĤ´",
      "Ġë¶Ħ ë¦¬",
      "å ¿",
      "a st",
      "ëªħ ìĿ´ëĭ¤",
      "ĠíĶĦë¡ľ ìłĿ",
      "ë¬¼ ê´Ģ",
      "ê² łëĭ¤",
      "ìŀ īê¸Ģëŀľëĵľ",
      "Ġíĳľ ì¤Ģ",
      "ìĬ¤ ì¼Ģ",
      "íĺ¸ ë¥¼",
      "Ġìĥģ ëĭ¹",
      "ĠìĦł ë°ľ",
      "Ġê±´ì¶ķ ë¬¼",
      "Ġìĭ¤ íĮ¨",
      "Ġëĸ¨ ìĸ´",
      "ëĿ¼ ëıĦ",
      "ìĨį ëıĦë¡ľ",
      "Ġì¡° ìĤ¬",
      "íĥ ĳ",
      "íĥĢ ìĿ´",
      "ĠëĮĢ ì²´",
      "ĠìĿ µ",
      "êµ¬ ìĹŃ",
      "ë¶Ģ ë¥´íģ¬",
      "Ġëªħ ìĿĺ",
      "Ġê°ľ ëħĲ",
      "é ĸ",
      "ìĿ´ ëŀĢ",
      "Ġì¤ĳìĭ¬ ìľ¼ë¡ľ",
      "ĠìĤ¼ ìĦ±",
      "ĠìŀĲ ì¹ĺ",
      "íļĮ ìĤ¬",
      "ìĦł ìĪĺ",
      "ĠìŀĲìĭł ìĿ´",
      "ĠìĿ´ ìĻĢ",
      "íģ¬ ìĿĺ",
      "199 8",
      "ë¬´ ëĿ¼",
      "íŀ Į",
      "ĠìĿ´ìĥģ ìĿĺ",
      "ë¦ ¿",
      "Ġê´ĳ ì£¼",
      "Ġì¶ľ íĮĲ",
      "ìĬ¤ íĨł",
      "E R",
      "Ġìĺģ êµŃìĿĺ",
      "ìĽ ĥ",
      "Ġì´Ī ëĮĢ",
      "Ġê°Ģ ê¹Į",
      "¿ Ī",
      "Ġ h",
      "Ġë§Ī ë¥´",
      "íķĻ ìłģ",
      "ĠìĦľìļ¸ íĬ¹ë³Ħìĭľ",
      "íĤ¤ ëĬĶ",
      "ĠìĿ¼ë°ĺ ìłģìľ¼ë¡ľ",
      "ĠìĪĺìĥģ ìŀĲ",
      "ĠíĹ ¬",
      "ëĭĪ ìĬ¤",
      "on g",
      "Ġìĸ´ ëĬĲ",
      "Ġì§Ģ ì§Ģ",
      "Ġê°ľ ìĭľ",
      "ìĿ´ ì§Ģë§Į",
      "ĠìºĲ ë¦ŃíĦ°",
      "Ġí Ģ",
      "êµŃ ìłľ",
      "ë¥´ íĪ¬",
      "r y",
      "Ġê ´´",
      "å Į",
      "ĠìĿ´ ìłģ",
      "ĠìĤ¬ ì§Ħ",
      "Ġë°Ķ íĥķ",
      "ìĨ Ķ",
      "Ġíķ´ ìĻ¸",
      "Ġìŀ Ķ",
      "ĠìĹ¬ ê¸°",
      "ìĿ´ ì¹ĺ",
      "é «",
      "3 5",
      "ĠìĿ´ ëķĮ",
      "8 0",
      "Ġë²Ħ ìłĦ",
      "Ġìĭľ ë¯¼",
      "ë ¸",
      "Ġt o",
      "Ġë¥ ĺ",
      "S BS",
      "Ġst yle",
      "ê ¼",
      "ë¬´ ë¥¼",
      "ĠëķĮë¬¸ ìĿ´ëĭ¤",
      "Ġë ĥ",
      "Ġê·¸ ë¥¼",
      "Ġê³µ íĻĶêµŃ",
      "Ġíļ¨ ê³¼",
      "Ġë°Ľ ìķĺ",
      "Ġíļį ëĵĿ",
      "c m",
      "199 6",
      "Ġë°Ľ ê³ł",
      "n e",
      "Ġìľł ëĭĪ",
      "ĠI I",
      "Ġì¢ħ ë¥ĺ",
      "ĠíļĮ ìĤ¬",
      "Ġì¢ĭ ìķĦ",
      "ĠìķĦ íĤ¤",
      "ĠìĿ´ê²ĥ ìĿĢ",
      "íĶĦ ë¦¬",
      "ìĦ± ê³¼",
      "ĠìĿ´ ë¥´",
      "ì²´ ê°Ģ",
      "Ġì¢ĭ ìĿĢ",
      "199 0",
      "ê ±¸",
      "Ġìĺ¤ ëĬĺ",
      "ĠëıĻ ìĿ¼",
      "áĨ ŀ",
      "o k",
      "ë²Ħ íĬ¸",
      "ĠìĶ ¨",
      "Ġë¶Ī ê°Ģ",
      "ë¯¼ì£¼ ëĭ¹",
      "ĠìĿĺ ìĽĲ",
      "ëĭ¨ ìĿĦ",
      "íķ ĳ",
      "Ġìĸ¸ ê¸ī",
      "Ġë§ ¨",
      "íĺ¸ ë¡ľ",
      "Ġì¢ħ ë£Į",
      "; \"",
      "Ġë°ĺ ìĿĳ",
      "ë¹ Ļ",
      "Ġìĺ¬ ëĿ¼",
      "ĠìķĦ ì¹´",
      "ë¡ľ ìĿĺ",
      "ĠëĤĺ ìĿ´",
      ". (",
      "ëł µ",
      "Ġëį ´",
      "i al",
      "ëĮĢ ìĥģ",
      "ìĽĢ ìĿĦ",
      "ê¸° ìĻĢ",
      "ë© ¸",
      "ìĿ´ íĥĪë¦¬ìķĦ",
      "Ġë§Į íĻĶ",
      "Į Ħ",
      "ëıĦ ìĭľ",
      "ë¬¸ íķĻ",
      "ĠêµĲ ìŀ¥",
      "ë¡ ±",
      "íĻ Ģ",
      "ĠìłĦ ìŀĲ",
      "Ġ197 0",
      "ë¸ Ĳ",
      "ìĿ¼ ìĿĦ",
      "íĸĪëĭ¤ ê³ł",
      "Ġë³Ģ íĻĶ",
      "åŃ Ĳ",
      "as s",
      "Ġë¸ĮëĿ¼ ì§Ī",
      "ĠìķĦ ìĭľìķĦ",
      "Ġd e",
      "Ġë³¸ ìĦł",
      "ĠìĮ į",
      "íĬ¸ ìĽĮ",
      "ĠìĨĮ ìľł",
      "ĠìĦľ ë¹ĦìĬ¤",
      "n g",
      "Ġê¸° ìĽĲìłĦ",
      "ĠĊ ĊĠ",
      "Ġ198 6",
      "Ġìŀħ íķĻ",
      "Ġì§ ķ",
      "Ġëı Ī",
      "íľ ´",
      "ĠFC ìĿĺ",
      "or d",
      "ìĤ° ìĹħ",
      "Ġíıī ê·ł",
      "ĠíĺĦìŀ¬ ìĿĺ",
      "ĠìĹĲ ëĦĪ",
      "Ġê³ §",
      "Ġê²° ìĬ¹",
      "Ġê´Ģ íķł",
      "ĠëĬ ĺ",
      "ãĥ ¼",
      "Ġf or",
      "ĠìĬ¤ íħĮ",
      "íķĻ ëħĦ",
      "éĩ Į",
      "ìª½ ìĹĲ",
      "ëı Ī",
      "íĺ¸ ëĬĶ",
      "ê·¸ ëŀĺ",
      "ìĿĮ ìķħ",
      "ĠíĿ Ĳ",
      "ëŁ¬ ëĤĺ",
      "ë©´ ìĹĲ",
      "Ġë ķħ",
      "Ġì¡° ê±´",
      "ĠêµŃ ëıĦ",
      "ĠìļĶ ë¦¬",
      "Ġ Z",
      "Ġì¹ Ń",
      "ĠìĦł ì¶ľ",
      "ì¤ĳ ìķĻ",
      "o b",
      "Ġì¡° ìķ½",
      "ĠìŀĲ ëıĻì°¨",
      "ëĤľ ëĭ¤",
      "ĠëĦ £",
      "ìĦ ¯",
      "ëıĦ ìļ°",
      "ë¥´ ìĿĺ",
      "Ġê°Ģ íĨ¨ë¦Ń",
      "C A",
      "Ġìłķ ê·ľ",
      "ìĥģ ìĿ´",
      "ĠìĬ¹ ë¦¬",
      "Ġë©Ķëĭ¬ ë¦¬ìĬ¤íĬ¸",
      "ĠìĭĿ ë¬¼",
      "æ° ı",
      "Ġëĭ¤ ì¹´",
      "en s",
      "íķĻ ìĥĿ",
      "Ġíķĺ ëĭ¤",
      "íĬ¸ ëĬĶ",
      "Ġë³´ ìĿ¸ëĭ¤",
      "Ġíĺķ ìĭĿ",
      "ê³Ħ ìĿĺ",
      "ĠìĹĶ ì§Ħ",
      "199 7",
      "ĠìĨĮíĶĦíĬ¸ ìĽ¨ìĸ´",
      "ëĵľ ë¥¼",
      "a in",
      "Ġë¶Ģ ì¡±",
      "ë§Ī ìĿ´",
      "ìĬ¤ ìĹĲ",
      "ĠìĦ¸ íı¬",
      "ĠìĿ´ íķ´",
      "Ġê°ķ ìĽĲ",
      "Ġìĸ¸ ë¡ł",
      "ìĦ¸ ìĿ´",
      "ì¹ĺ ê°Ģ",
      "Ġëĵ± ìĹĲ",
      "å ¼",
      "Ġê°ľ ìĹħ",
      "ĠíĿ ¥",
      "Ġê·¸ ë¦¼",
      "ĠA l",
      "ìĭľì¼ ľ",
      "Ġ198 4",
      "ìłľ ëĬĶ",
      "i k",
      "ë Ģ",
      "ĠëĽ° ìĸ´",
      "ë¦¬ê·¸ ìĿĺ",
      "on t",
      "Ġê±¸ ì³Ĳ",
      "ĠìŀĪìĸ´ ìĦľ",
      "ê°ľ ìĽĶ",
      "ìĽĲ ìĹĲ",
      "Ġë¬¸ íķĻ",
      "ĠëĳĲ ê³ł",
      "ëŁ Ń",
      "ìĦ± ìĹĲ",
      "ë¶Ģ ê°Ģ",
      "æ ķ",
      "ìĤ¬ ëĭ¨",
      "ĠíĻķ ìŀ¥",
      "ìĭ¬ ìĿĦ",
      "ĠíĻľëıĻ ìĿĦ",
      "ĠT h",
      "ĠìĪĺ ëĬĶ",
      "ĠU n",
      "Ġ198 5",
      "Ġíľ ĺ",
      "ĠìĿ´ë¦Ħ ìĿĢ",
      "Ġìłķ ìĭł",
      "íļĮ ë¥¼",
      "íĴ Ģ",
      "ìłĦ ìŀĲ",
      "Ł ³",
      "ë¬¸íĻĶ ìŀ¬",
      "é Ģ",
      "ëłĩ ê²Į",
      "ëį ¤",
      "c om",
      "Ġìŀ ĥ",
      "ë· °",
      "ìĶ ©",
      "ĠíĹĮ ë²ķ",
      "ìłķ ìĿ´",
      "Ġë Ŀ",
      "ìļ° ë¦¬",
      "ëłĪìĿ´ ìħĺ",
      "Ġ è",
      "Ġê²½ ìĺģ",
      "Ġë¶Ħ ìĦĿ",
      "ëĭ¤ ìĿ´",
      "O N",
      "Ġíķĺ ë£¨",
      "¨ ë¦¬",
      "ìĦ¸ ê°Ģ",
      "Ġ ç",
      "Ġê°ľ ë´ī",
      "ìľł ëŁ½",
      "ec t",
      "Ġìłľ ì¡°",
      "ì³¤ ëĭ¤",
      "êµ¬ ìĹĲ",
      "Ġ k",
      "e g",
      "ë¶Ī ìĸ´",
      "ê²Į ìŀĦ",
      "ìĺģ ìĸ´",
      "199 5",
      "éķ ĩ",
      "íĸĪ ëĬĶëį°",
      "Ġêµ° ìĿ¸",
      "Ġìµľì´Ī ë¡ľ",
      "Ġê°Ĳëıħ ìĿĺ",
      "ĠìĦł ìĸ¸",
      "ëª¨ ë¦¬",
      "ìĹ° íķ©",
      "ro und",
      "or y",
      "ì°¨ ìłĦ",
      "3 1",
      "ì§Ģ ìĻĢ",
      "ĠìĬ¤ íĬľ",
      "ìĭľíĤ¤ ëĬĶ",
      "ĠìĬ¤ íĬ¸",
      "ëį° ìĿ´",
      "ĠìłĦ ìĹĲ",
      "ĠëĲĺ ìĹĪê³ł",
      "Ġëªħ ëł¹",
      "Ġë¹ ħ",
      "ê°Ĳ ëıħ",
      ") (",
      "å ¥",
      "ëĤĺ ë¯¸",
      "íħĮ ìĿ¸",
      "ĠìĽ Ģ",
      "199 4",
      "Ġ18 8",
      "ì§Ģ ì»¬",
      "ĠìķĮ ëłī",
      "Ġìľł ìĤ¬",
      "Ġë°Ķ ëĢ",
      "ĠëĮĢë¶Ģë¶Ħ ìĿĺ",
      "Ġëª© íĳľ",
      "ĠìĹĨ ìĹĪëĭ¤",
      "äº º",
      "ìĿĢ íĸī",
      "B O",
      "å· ŀ",
      "ìĿ¸ íĬ¸",
      "Ġìłľ íķľ",
      "Ġì£¼ ë¯¼",
      "ëĶĶ ìķĦ",
      "Ġê³µ ìĤ°",
      "ĠìķĦ íĶĦë¦¬ì¹´",
      "Ġëª ¬",
      "ê·¸ ë£¹",
      "Ġì§Ģ ìĨį",
      "Ġë®¤ ì§ģ",
      "Ġì¢ħ íķ©",
      "Ġìĺģ ìĸ´",
      "ĠìĤ¬ìĿ´ ìĿĺ",
      "ìĦ¸ ëĬĶ",
      "ìŀĦ ìĬ¤",
      "h y",
      "ĠìĨį íķĺëĬĶ",
      "ĠíĽĦ ì¿ł",
      "ĠëĶĶ ìŀĲìĿ¸",
      "Ġë§Ī ìĤ¬",
      "Ġì ´Į",
      "ĠìĽ¹ ìĤ¬ìĿ´íĬ¸",
      "ĠìĻ ľ",
      "ĠìĤ¬ìļ© íķĺëĬĶ",
      "Ġë°ľë§¤ ëĲľ",
      "ìĤ¬ ê±´",
      "ìķĦ ìĭľìķĦ",
      "ĠíĶĦëŀĳ ìĬ¤ìĿĺ",
      "ĠìĿ´ ëŁ°",
      "ĠëĦ¤ ëįľëŀĢëĵľ",
      "İ ìĿĢ",
      "ĠíķĺëĤĺ ìĿ´ëĭ¤",
      "ĠìĬ¹ ê²©",
      "Ġíı´ ëŀĢëĵľ",
      "Ġì±Ħ ëĦĲ",
      "åľ ĭ",
      "ì§ ľ",
      "Ġì½Ķ ë¯¸ëĶĶ",
      "n t",
      "è ¨",
      "Ġìłľ íĴĪ",
      "ar y",
      "æĿ ±",
      "ĠëĤ´ ëł¤",
      "Ġ on",
      "ìĨĮ ê°Ģ",
      "ĠíĮĮ ìĿ´",
      "ìĺ ¹",
      "Ġíķĺ ì§Ģ",
      "ëĤ´ ëĬĶ",
      "Ġë¹Ħ íĸī",
      "ê³µ ìĤ¬",
      "Ġì° ¬",
      "Ġê²½ìĥģ ë¶ģëıĦ",
      "ĠëĶĶ ì§ĢíĦ¸",
      "3 6",
      "ìŀĲ ëĵ¤ìĿĢ",
      "3 7",
      "íĺ ¹",
      "íĸĪ ìĿĦ",
      "ĠìķĦ ë§Ī",
      "ë¦¬ ìĹĦ",
      "Ġê² ¨",
      "4 5",
      "Ġëª¨ìĬµ ìĿĦ",
      "ĠíĨµ ê³¼",
      "Ġë²ķ ë¥ł",
      "íķĺ ëıĦë¡Ŀ",
      "Ġì¹ ł",
      "ĠìŀĪìĹĪ ëįĺ",
      "ë ´",
      "Ġê ½ĥ",
      "íı¬ ëĭĪìķĦ",
      "Ġìº ł",
      "ê²¼ ëĭ¤",
      "íĭ ¸",
      "ĠíĻ Ģ",
      "ĠS p",
      "g e",
      "ëĲĺìĹĪ ëįĺ",
      "íķľëĭ¤ ëĬĶ",
      "Ġ198 1",
      "ê¸° ìĹħ",
      "íĶ¼ ìķĦ",
      "Ġë¯ ¿",
      "ëªħ ìľ¼ë¡ľ",
      "ë¸Į ëĿ¼",
      "ëłĢ ëĭ¤",
      "Ġìĸ´ ëł¤",
      "ì£¼ ë¥¼",
      "ĠíĬ¹ ìĪĺ",
      "Ġ198 3",
      "Ġì¹ĺ ë£Į",
      "ëŀ Ń",
      "ëĳ Ķ",
      "Ġíķ Ģ",
      "Ġë¹ Ľ",
      "ĠìĨĮ ë¹Ħ",
      "i b",
      "ĠëĮĢ ì¤ĳ",
      "Ġìĭ¤ íĹĺ",
      "Ġ æ",
      "ĠA r",
      "ĠìŀĪ ê²Į",
      "í Ī",
      "Ġìŀ¥ ê´Ģ",
      "Ġëĵ± ìľ¼ë¡ľ",
      "ĠìĦłìĪĺ ê¶Į",
      "Ġëī´ ìĬ¤",
      "ìłľ ìŀĳ",
      "ìļĶ ìĭľ",
      "ìĿĺ íļĮ",
      "Ġê°ķ íĻĶ",
      "ĠëįĶ ìļ±",
      "ä ¿",
      "ĠìĺĪ ìĦł",
      "Ġë¶Ī êµ¬",
      "id e",
      "ëıĻ ìĹĲ",
      "ìĿ¼ ìĹĲëĬĶ",
      "ëĲ ¨",
      "ĠìĤ¬ ëĿ¼",
      "ĺë¦¬ íı¬ëĭĪìķĦ",
      "Ġìŀħ ëĭ¨",
      "Ġìľł íĺķ",
      "íķĻ ëł¥",
      "íķ µ",
      "Ġìľł ë¡ľ",
      "Ġìłľìŀĳ ëĲľ",
      "Ġë§ º",
      "êµ¬ ë¥¼",
      "ic h",
      "å® ī",
      "Ġíı¬íķ¨ íķľ",
      "ë¡ ¬",
      "Ġë§Ĳ íĸĪëĭ¤",
      "ëį° ë¯¸",
      "at e",
      "Ġë¶ģ íķľ",
      "9 9",
      "ì¤ĳ êµŃ",
      "ìĦ¸ ë¥¼",
      "ĠìĿ´ìľł ë¡ľ",
      "ĠìĦłìĪĺ ìĿ´ëĭ¤",
      "ê ½ĥ",
      "Ġì§Ģíķĺ ì²ł",
      "Ġë² ¤",
      "ìŀĲ ë£Į",
      "Ġìĭľ íĸī",
      "ìĤ¬ ëŀĳ",
      "ĠíĶĦ ëłĪ",
      "ì» ´",
      "ĠìĿĮìķħ ê°Ģ",
      "Ġì§ĢìĹŃ ìĹĲ",
      "ĠëĤĺ ìĺ¨",
      "Ġê°Ģë¦¬ íĤ¨ëĭ¤",
      "ĠëıħìĿ¼ ìĿĺ",
      "ìłģ ìĿ´",
      "Ġê²ĥ ìĿ´ëĿ¼ê³ł",
      "ê°ľ ë°ľ",
      "ì» ¨",
      "199 2",
      "ĠêµŃ íļĮ",
      "ìĨĮ ìĿĺ",
      "Ġë°Ŀ íĺĶëĭ¤",
      "7 0",
      "ìĽ łëĭ¤",
      "Ġíĺ Ī",
      "ì°¨ ë¡ľ",
      "ìĹ ½",
      "ë§Į ìĿĦ",
      "ĠìĹĲ ìĿ´",
      "Ġìĭł ìĦ¤",
      "ĠëĤĺ ì¹´",
      "en d",
      "Ġíİĺ ë¥´",
      "ë§Į ìĿ´",
      "ĠíĴ Ī",
      "g round",
      "b ack",
      "ìľĦ ìĿĺ",
      "Ġì§Ģ ìĥģ",
      "Ġ198 2",
      "Ġëĭ¬ ìĦ±",
      "ì§Ģ ì§Ģ",
      "Ġê·¸ ëĵ¤ìĿĺ",
      "Ġìľł ëŀĺ",
      "ëŀ Ĳëĭ¤",
      "Ļ ìĿĢ",
      "ĠìŀĲ ë¦¬",
      "Ġë¶Ģ ë¥´",
      "Ġê²° íķ©",
      "ĠìĦ¤ ê³Ħ",
      "or e",
      "å »",
      "Ġê¸° íļį",
      "Ġìłľ ì£¼",
      "ë¶Ģ ë¡ľ",
      "ë¯¸ ìķ¼",
      "Ġêµ¬ ëĭ¨",
      "ìŀĲ ì¹ĺ",
      "åį Ĺ",
      "íģ¬ ëĿ¼ìĿ´",
      "ĠìĹ¬ íĸī",
      "ĠĊĠĊ ĠĊ",
      "ĠìłĲ ëł¹",
      "i o",
      "íĶ Ī",
      "ë¶Ģ ìĤ°",
      "Ġë°© ë¬¸",
      "ëĿ¼ ìļ°",
      "ĠìĿ¸íĦ° ëĦ·",
      "ìĦ± ìļ°",
      "ê¸° ìĽĲìłĦ",
      "ì¡° ìĹ°",
      "Ġë²ł íĬ¸ëĤ¨",
      "ìĭľ ë¡ľ",
      "íĦ° íħĮìĿ¸",
      "ĠìĦ± ìŀ¥",
      "Ġì¼Ģ ìĿ´",
      "Ġíİ ľ",
      "ëħĦ ìĿĦ",
      "Ġëªħ ìĺĪ",
      "ĠëıĻ ìĥĿ",
      "ĠìĨĮ ê°ľ",
      "íĶĦëŀĳ ìĬ¤ìĿĺ",
      "íķ´ ìĿĺ",
      "íķ¨ ìľ¼ë¡ľìį¨",
      "A R",
      "å Ĭ",
      "ĠìĿĢ íĩ´",
      "ë¹ ł",
      "ĠìķĮëł¤ ì§Ħ",
      "åŁ İ",
      "u re",
      "Ġì§Ģ ì§Ħ",
      "ìĽĲ ìĹĲìĦľ",
      "Ġê²° ìĦ±",
      "ê·¸ ëĬĶ",
      "it e",
      "Ġê²½ìĥģ ëĤ¨ëıĦ",
      "íıī ìĸĳ",
      "ìĿ¸ êµ¬",
      "íĭ° ìķĦ",
      "ĠìĿ´ë¦Ħ ìľ¼ë¡ľ",
      "ä¸ ī",
      "l d",
      "Ġë© Ģ",
      "Ġê°Ģ ë¬¸",
      "199 3",
      "Ġê³Ħ ìĹ´",
      "ë¥´íĪ¬ ê°Ī",
      "Ġìĭ¤ ìłľ",
      "Ġì¤Ģ ìļ°ìĬ¹",
      "ĠU EFA",
      ") '",
      "Ġê²½ íĹĺ",
      "Ġêµ¬ ë¶Ħ",
      "ëĭ µ",
      "Ġìĵ ´",
      "ĠP ro",
      "æ ī",
      "ëıĻ ìĿĦ",
      "Ġê·¸ëħĢ ëĬĶ",
      "íĦ°íħĮìĿ¸ ë¨¼íĬ¸",
      "íģ ¼",
      "ìĻ Ķ",
      "ĠëŁ° ëįĺ",
      "u st",
      "ëŁ ´",
      "Ġê·¸ ë¦°",
      "ë ĩĮ",
      "ê°Ģ ìĿĺ",
      "3 3",
      "Ġë²ł ìĿ´ìĬ¤",
      "Ŀ ê°Ģ",
      "íĶĮ ëłĪìĿ´",
      "ë¹Ħ ë¥¼",
      "Ġë¶Ģ ìĹ¬",
      "ĠìłĦëĿ¼ ëĤ¨ëıĦ",
      "íķĺ ìĿĺ",
      "ĠìĿĺë¯¸ íķľëĭ¤",
      "ìĸ´ ìĦľ",
      "ĠëįĶ ë¶Īìĸ´",
      "ĠìķĦ ëĤ´",
      "m an",
      "é« ĺ",
      "ìĿ¸ ìľ¼ë¡ľ",
      "ĠìĦ¼ íĦ°",
      "ç ¦",
      "ê¸Ī ìĿĦ",
      "ĠìĽĢ ì§ģ",
      "Ġê¸° ìŀĲ",
      "ĠìŀĲ ì£¼",
      "Ġì§Ģìłķ ëĲĺìĹĪëĭ¤",
      "ì¿ł ëĿ¼",
      "Ġëĭ¤ìĿĮ ìĿĦ",
      "Ġëģ Į",
      "Ġìłľ ìķĪ",
      "ìĬµ ëĭĪëĭ¤",
      "íĬ¸ìĽĮ íģ¬",
      "Ġìµľ ê·¼",
      "ëĭ ¥",
      "Ġê³ł ëĮĢ",
      "Ġê²ĥ ìĹĲ",
      "ĠëĤĺ ë¨¸",
      "Ġë¶Īêµ¬ íķĺê³ł",
      "Ġë°ľë§¤ ëĲĺìĹĪëĭ¤",
      "S S",
      "ĠìĹĺ ë¦¬",
      "ĠìĪĺ ì¤Ģ",
      "ì¼ ľ",
      "ìĿ¸ ì§Ģ",
      "ê²½ ì°°",
      "e f",
      "ëĭĪ ìĭľ",
      "Ġíİ¸ ìŀħ",
      "ĠíĶĦë¡ľëĵĢ ìĦľ",
      "ë¡ľ ë§Ī",
      "Ġê°ľ ì¹Ń",
      "ĠìķĮ ê³ł",
      "ì ´ī",
      "Ġìłĳ ê·¼",
      "è ĩ",
      "ĠíķĺëĤĺ ìĿĺ",
      "ìĽĶ ë¶ĢíĦ°",
      "ëĲĺ ê¸°",
      "Ġê¹ ¨",
      "7 5",
      "ĠíĻ© ìłľ",
      "ĠìĻ¸ êµĲ",
      "3 8",
      "ì²´ ëĬĶ",
      "Ð °",
      "h er",
      "ĠëĨ Ģ",
      "ĠëĿ¼ìĿ´ ë¸Į",
      "3 2",
      "å Ľ",
      "Ġìłķ íĻķ",
      "ì¹ĺ ê³ł",
      "Ġìłľ êµŃìĿĺ",
      "ëĿ¼ ëħ¸",
      "Ġë°Ķíĥķ ìľ¼ë¡ľ",
      "Ġë²Ķ ì£Ħ",
      "ìŀĲ ëĵ¤ìĿ´",
      "ĠìĻĦìłĦ íŀĪ",
      "Ġë¬¼ ë¦¬",
      "ìª½ ìľ¼ë¡ľëĬĶ",
      "Ġìĭ ¶",
      "ag e",
      "6 5",
      "199 1",
      "ìĭľ ìĦ¤",
      "back ground",
      "ĠìĤ¬ëŀĮ ìĿ´",
      "ë¶Ģ ë¬¸",
      "ì§Ģ ëıĦ",
      "Ġë¯¸ ëŀĺ",
      "3 4",
      "6 4",
      "åħ ¬",
      "Ġë¬¼ ì§Ī",
      "å¤ ©",
      "u c",
      "i es",
      "Ġë© ¸",
      "Ġìľ¡ ìĥģ",
      "ãĢ Ī",
      "Ġìķ Ļ",
      "e y",
      "å ĭ",
      "ĠìĺĪ ë¥¼",
      "ìĿ´ íĽĦ",
      "Ġë§¡ ìķĺëĭ¤",
      "ìĿ¸ ëį°",
      "Ġëĭ¬ ëŁ¬",
      "Ġìĺ¤ìĬ¤íĬ¸ ëłĪìĿ¼",
      "ìłķ ìĿĢ",
      "ic al",
      "ëĭĪ ìĸ´",
      "Ġì¤ĳ ìĹĲ",
      "ĠìķĦ ì§ģ",
      "Ġë§Į ëĤĺ",
      "ro m",
      "ĠíĮĮ ê´´",
      "íķŃ ê³µ",
      "ç §",
      "ìĹŃ ìĿĦ",
      "u e",
      "ëŀ į",
      "Ġìŀĳ ìĤ¬",
      "ĠìĪ ł",
      "ë²ķ ìĿĦ",
      "Ġíķ© ë³ĳ",
      "ĠìĿĺ ìĤ¬",
      "ìĭ ¸",
      "ĠìĹ¬ ë¦Ħ",
      "íķĺ ë§Ī",
      "Ġ196 0",
      "ĠíķĺëĤĺ ë¡ľ",
      "ĠP r",
      "ì°¬ ê°Ģì§Ģ",
      "3 9",
      "ĠìĬ¤ ìĽ¨ëį´",
      "ìĤ° ìĭľ",
      "Ġë¹Ħ íķ´",
      "Ð ¸",
      "Ġì°¨ íĬ¸",
      "ë¦¬ ìĸ´",
      "Ġì¤ĳ íķĻêµĲ",
      "ĠìŀĦ ìĭľ",
      "ë³¸ ë¶Ģ",
      ": #",
      "ĠíĬ¹ ìłķ",
      "198 8",
      "ĠìĤ¬ìĿ´ íĬ¸",
      "Ð ¾",
      "Ġë¯¸ ìĤ¬",
      "l y",
      "ĠìķĬ ìķĦ",
      "ì£¼ ë¡ľ",
      "ĠìĬ µ",
      "Ġ6 0",
      "Ġì¶Ķ ì§Ħ",
      "ëŀ Ħ",
      "7 8",
      "ìľĦ ê°Ģ",
      "Ġì£¼ìĿ¸ ê³µ",
      "ĠëķĮ ê¹Įì§Ģ",
      "Ġê±° ëĳĲ",
      "ìķĦ ê°Ģ",
      "Ġìŀ ĩ",
      "ìĹĪ ìľ¼ë©°",
      "ê°Ĳ ìĿĦ",
      "ĠC om",
      "ĠìĪĺ ìļ©",
      "Ġëħ¼ ëŀĢ",
      "i z",
      "ĠíļĮ ìŀ¥",
      "ĠìĿ´ ëĵ¤ìĿĢ",
      "ìĥģ ìĿĢ",
      "ìĹ° íĺģ",
      "å® Ĺ",
      "ë°Ķ ëĿ¼",
      "ĠìļĶ ì²Ń",
      "ê´Ģ ëł¨",
      "Ġë¶Ģ ìĿ¸",
      "Ġë¶Ī êµĲ",
      "ìĭĿ ìĿ´",
      "iv ers",
      "ì£¼ ìĹĲ",
      "ê·ľ ëª¨",
      "ìłĲ ìĿ´",
      "on d",
      "ìĿ¸ë¯¼ê³µ íĻĶêµŃìĿĺ",
      "ëĶ ĺ",
      "è »",
      "ëĤĺëĿ¼ ìĿĺ",
      "Ġê¸° ì´Ī",
      "Ġìłķ ìĭĿ",
      "ê´Ģ ìĿĢ",
      "198 9",
      "ĠìľĦ íĹĺ",
      "Ġíĳľ ìĭľ",
      "ê°Ħ ëĭ¤",
      "Ġìłķ ëıĦë¡ľ",
      "ë¬¼ ìĿĺ",
      "5 5",
      "Ġì¡´ìŀ¬ íķľëĭ¤",
      "Ġë°ľ ëĭ¬",
      "O S",
      "ìľ¼ ë¯Ģë¡ľ",
      "ëħĦ ê°Ħ",
      "ĠìĦ± ê²©",
      "ĠìĿĺ íķĺìĹ¬",
      "ĠìĻķ êµŃ",
      "ì§ ĵ",
      "ëĶĶ ìĸ´",
      "ìķĦ ë¥´",
      "Ġê ¿Ī",
      "Ġê°Ģ ë¥´",
      "ĠìŀĪ ëıĦë¡Ŀ",
      "Ġ197 9",
      "Ġë°° ì¹ĺ",
      "Ġìłľ ìĭľ",
      "Ġì ´ī",
      "ë¡ľ ëĵľ",
      "Ġë¹Ħ ë°Ģ",
      "ĠëĦ¤ ìĿ´",
      "ìĥģ ìĹĲ",
      "Ġìĺ¤ ë¥¸",
      "Ġê·¸ ëĵ¤ìĿĢ",
      "ĠìľĮ ë¦¬ìĹĦ",
      "íĹ¨ íĭ°",
      "ìĤ° ìĿĦ",
      "Ġë© ľ",
      "Ġë²Ī ìĹŃ",
      "Ġìŀĳê³¡ ê°Ģ",
      "ë¯¸ ëĦĲ",
      "Ġìĺģ ìĹħ",
      "Ġë¯¸ ìĥģ",
      "ì²ľ ìĭľ",
      "ãĥ ³",
      "ë§ İìĿĢ",
      "Ġê¸° ìŀ¬",
      "Ġìŀĳ ìļ©",
      "ì¦Ī ìĿĺ",
      "ĠíĪ¬ íĳľ",
      "å¹ ³",
      "ç ¤",
      "ëĵ¤ ë¡ľ",
      "Ġìĺģ íĨł",
      "Ġìĭ Ń",
      "Ġë°ľ íĸī",
      "ĠíĺĦìŀ¬ ëĬĶ",
      "íĨµ ìĭł",
      "Ġíģ´ ëŀĺ",
      "íĻĶ ìĿĺ",
      "ĠìĹ¬ ê²¨",
      "Ġê·¸ ëŁ°",
      "íĺķ ìĿĦ",
      "Ġë§Ī ì°¬ê°Ģì§Ģ",
      "Ġ +",
      "ĠíĨµ ìĿ¼",
      "Ġê²½ ìŁģ",
      "Ġìĺ¤ ìĤ¬ì¹´",
      "íı ¼",
      "ìĹĨ ìĿ´",
      "ëĤ¨ ëıĦìĿĺ",
      "ëĥ ¥",
      "Ġê³µ ìŀĳ"
    ]
  }
}