{
  "version": "1.0",
  "truncation": null,
  "padding": null,
  "added_tokens": [
    {
      "id": 0,
      "content": "<|unk|>",
      "single_word": false,
      "lstrip": false,
      "rstrip": false,
      "normalized": false,
      "special": true
    },
    {
      "id": 1,
      "content": "<|pad|>",
      "single_word": false,
      "lstrip": false,
      "rstrip": false,
      "normalized": false,
      "special": true
    },
    {
      "id": 2,
      "content": "<|endofprompt|>",
      "single_word": false,
      "lstrip": false,
      "rstrip": false,
      "normalized": false,
      "special": true
    },
    {
      "id": 3,
      "content": "<|endoftext|>",
      "single_word": false,
      "lstrip": false,
      "rstrip": false,
      "normalized": false,
      "special": true
    }
  ],
  "normalizer": null,
  "pre_tokenizer": {
    "type": "WhitespaceSplit"
  },
  "post_processor": null,
  "decoder": {
    "type": "BPEDecoder",
    "suffix": "</w>"
  },
  "model": {
    "type": "BPE",
    "dropout": 0.1,
    "unk_token": "<|unk|>",
    "continuing_subword_prefix": null,
    "end_of_word_suffix": "</w>",
    "fuse_unk": false,
    "byte_fallback": false,
    "vocab": {
      "<|unk|>": 0,
      "<|pad|>": 1,
      "<|endofprompt|>": 2,
      "<|endoftext|>": 3,
      "\t": 4,
      "\n": 5,
      "\r": 6,
      " ": 7,
      "!": 8,
      "\"": 9,
      "#": 10,
      "$": 11,
      "%": 12,
      "&": 13,
      "'": 14,
      "(": 15,
      ")": 16,
      "*": 17,
      "+": 18,
      ",": 19,
      "-": 20,
      ".": 21,
      "/": 22,
      "0": 23,
      "1": 24,
      "2": 25,
      "3": 26,
      "4": 27,
      "5": 28,
      "6": 29,
      "7": 30,
      "8": 31,
      "9": 32,
      ":": 33,
      ";": 34,
      "<": 35,
      "=": 36,
      ">": 37,
      "?": 38,
      "@": 39,
      "A": 40,
      "B": 41,
      "C": 42,
      "D": 43,
      "E": 44,
      "F": 45,
      "G": 46,
      "H": 47,
      "I": 48,
      "J": 49,
      "K": 50,
      "L": 51,
      "M": 52,
      "N": 53,
      "O": 54,
      "P": 55,
      "Q": 56,
      "R": 57,
      "S": 58,
      "T": 59,
      "U": 60,
      "V": 61,
      "W": 62,
      "X": 63,
      "Y": 64,
      "Z": 65,
      "[": 66,
      "\\": 67,
      "]": 68,
      "^": 69,
      "_": 70,
      "`": 71,
      "a": 72,
      "b": 73,
      "c": 74,
      "d": 75,
      "e": 76,
      "f": 77,
      "g": 78,
      "h": 79,
      "i": 80,
      "j": 81,
      "k": 82,
      "l": 83,
      "m": 84,
      "n": 85,
      "o": 86,
      "p": 87,
      "q": 88,
      "r": 89,
      "s": 90,
      "t": 91,
      "u": 92,
      "v": 93,
      "w": 94,
      "x": 95,
      "y": 96,
      "z": 97,
      "{": 98,
      "|": 99,
      "}": 100,
      "~": 101,
      "£": 102,
      "¥": 103,
      "§": 104,
      "©": 105,
      "®": 106,
      "°": 107,
      "±": 108,
      "²": 109,
      "³": 110,
      "¼": 111,
      "½": 112,
      "¾": 113,
      "×": 114,
      "÷": 115,
      "Α": 116,
      "Β": 117,
      "Γ": 118,
      "Δ": 119,
      "Ε": 120,
      "Ζ": 121,
      "Η": 122,
      "Θ": 123,
      "Ι": 124,
      "Κ": 125,
      "Λ": 126,
      "Μ": 127,
      "Ν": 128,
      "Ξ": 129,
      "Ο": 130,
      "Π": 131,
      "Ρ": 132,
      "Σ": 133,
      "Τ": 134,
      "Υ": 135,
      "Φ": 136,
      "Χ": 137,
      "Ψ": 138,
      "Ω": 139,
      "α": 140,
      "β": 141,
      "γ": 142,
      "δ": 143,
      "ε": 144,
      "ζ": 145,
      "η": 146,
      "θ": 147,
      "ι": 148,
      "κ": 149,
      "λ": 150,
      "μ": 151,
      "ν": 152,
      "ξ": 153,
      "ο": 154,
      "π": 155,
      "ρ": 156,
      "ς": 157,
      "σ": 158,
      "τ": 159,
      "υ": 160,
      "φ": 161,
      "χ": 162,
      "ψ": 163,
      "ω": 164,
      "–": 165,
      "—": 166,
      "―": 167,
      "‘": 168,
      "’": 169,
      "‚": 170,
      "‛": 171,
      "“": 172,
      "”": 173,
      "„": 174,
      "‟": 175,
      "•": 176,
      "…": 177,
      "‰": 178,
      "′": 179,
      "″": 180,
      "‴": 181,
      "‵": 182,
      "‶": 183,
      "‷": 184,
      "‸": 185,
      "‹": 186,
      "›": 187,
      "※": 188,
      "€": 189,
      "₹": 190,
      "₽": 191,
      "₿": 192,
      "™": 193,
      "←": 194,
      "↑": 195,
      "→": 196,
      "↓": 197,
      "↪": 198,
      "⇐": 199,
      "⇑": 200,
      "⇒": 201,
      "⇓": 202,
      "⇔": 203,
      "∈": 204,
      "∉": 205,
      "∞": 206,
      "∫": 207,
      "≈": 208,
      "≠": 209,
      "≡": 210,
      "≢": 211,
      "≣": 212,
      "≤": 213,
      "≥": 214,
      "■": 215,
      "□": 216,
      "○": 217,
      "◌": 218,
      "◍": 219,
      "◎": 220,
      "●": 221,
      "★": 222,
      "☆": 223,
      "✓": 224,
      "✔": 225,
      "✕": 226,
      "✖": 227,
      "✗": 228,
      "✘": 229,
      "ㄱ": 230,
      "ㄲ": 231,
      "ㄳ": 232,
      "ㄴ": 233,
      "ㄵ": 234,
      "ㄶ": 235,
      "ㄷ": 236,
      "ㄸ": 237,
      "ㄹ": 238,
      "ㄺ": 239,
      "ㄻ": 240,
      "ㄼ": 241,
      "ㄽ": 242,
      "ㄾ": 243,
      "ㄿ": 244,
      "ㅀ": 245,
      "ㅁ": 246,
      "ㅂ": 247,
      "ㅃ": 248,
      "ㅄ": 249,
      "ㅅ": 250,
      "ㅆ": 251,
      "ㅇ": 252,
      "ㅈ": 253,
      "ㅉ": 254,
      "ㅊ": 255,
      "ㅋ": 256,
      "ㅌ": 257,
      "ㅍ": 258,
      "ㅎ": 259,
      "ㅏ": 260,
      "ㅐ": 261,
      "ㅑ": 262,
      "ㅒ": 263,
      "ㅓ": 264,
      "ㅔ": 265,
      "ㅕ": 266,
      "ㅖ": 267,
      "ㅗ": 268,
      "ㅘ": 269,
      "ㅙ": 270,
      "ㅚ": 271,
      "ㅛ": 272,
      "ㅜ": 273,
      "ㅝ": 274,
      "ㅞ": 275,
      "ㅟ": 276,
      "ㅠ": 277,
      "ㅡ": 278,
      "ㅢ": 279,
      "ㅣ": 280,
      "ㅔ</w>": 281,
      ",</w>": 282,
      "ㅢ</w>": 283,
      "ㄴ</w>": 284,
      ".</w>": 285,
      "ㅣ</w>": 286,
      "e</w>": 287,
      "ㅏ</w>": 288,
      ")</w>": 289,
      ":</w>": 290,
      "t</w>": 291,
      "N</w>": 292,
      "ㅗ</w>": 293,
      "ㄹ</w>": 294,
      "ㅡ</w>": 295,
      "ㅚ</w>": 296,
      "ㅘ</w>": 297,
      "ㅁ</w>": 298,
      "ㅓ</w>": 299,
      "ㅂ</w>": 300,
      "0</w>": 301,
      "g</w>": 302,
      "ㅜ</w>": 303,
      "4</w>": 304,
      "ㄱ</w>": 305,
      "u</w>": 306,
      "h</w>": 307,
      "3</w>": 308,
      "ㅖ</w>": 309,
      "6</w>": 310,
      "ㅇ</w>": 311,
      "Y</w>": 312,
      "ㅐ</w>": 313,
      "ㅕ</w>": 314,
      "9</w>": 315,
      "'</w>": 316,
      "l</w>": 317,
      "ㅛ</w>": 318,
      "></w>": 319,
      "A</w>": 320,
      "y</w>": 321,
      "c</w>": 322,
      "p</w>": 323,
      "!</w>": 324,
      "7</w>": 325,
      "M</w>": 326,
      "n</w>": 327,
      "5</w>": 328,
      "S</w>": 329,
      "]</w>": 330,
      "I</w>": 331,
      "a</w>": 332,
      "B</w>": 333,
      ";</w>": 334,
      "r</w>": 335,
      "ㅑ</w>": 336,
      "1</w>": 337,
      "s</w>": 338,
      "m</w>": 339,
      "”</w>": 340,
      "2</w>": 341,
      "\"</w>": 342,
      "d</w>": 343,
      "i</w>": 344,
      "`</w>": 345,
      "o</w>": 346,
      "?</w>": 347,
      "ㅟ</w>": 348,
      "f</w>": 349,
      "ㅅ</w>": 350,
      "+</w>": 351,
      "k</w>": 352,
      "ㅍ</w>": 353,
      "W</w>": 354,
      "’</w>": 355,
      "G</w>": 356,
      "X</w>": 357,
      "C</w>": 358,
      "w</w>": 359,
      "-</w>": 360,
      "8</w>": 361,
      "D</w>": 362,
      "ν</w>": 363,
      "~</w>": 364,
      "O</w>": 365,
      "(</w>": 366,
      "b</w>": 367,
      "E</w>": 368,
      "}</w>": 369,
      "R</w>": 370,
      "P</w>": 371,
      "x</w>": 372,
      "/</w>": 373,
      "ㅠ</w>": 374,
      "V</w>": 375,
      "%</w>": 376,
      "×</w>": 377,
      "›</w>": 378,
      "z</w>": 379,
      "☆</w>": 380,
      "ㅈ</w>": 381,
      "ㅆ</w>": 382,
      "ㅞ</w>": 383,
      "°</w>": 384,
      "Z</w>": 385,
      "T</w>": 386,
      "F</w>": 387,
      "ㅙ</w>": 388,
      "ㅝ</w>": 389,
      "Q</w>": 390,
      "H</w>": 391,
      "≤</w>": 392,
      "K</w>": 393,
      "*</w>": 394,
      "=</w>": 395,
      "ㅊ</w>": 396,
      "L</w>": 397,
      "{</w>": 398,
      "³</w>": 399,
      "|</w>": 400,
      "“</w>": 401,
      "U</w>": 402,
      "j</w>": 403,
      "²</w>": 404,
      "ς</w>": 405,
      "←</w>": 406,
      "v</w>": 407,
      "…</w>": 408,
      "q</w>": 409,
      "ㅋ</w>": 410,
      "ㅎ</w>": 411,
      "‘</w>": 412,
      "ㅌ</w>": 413,
      "&</w>": 414,
      "β</w>": 415,
      "‚</w>": 416,
      "\\</w>": 417,
      "ㅄ</w>": 418,
      "J</w>": 419,
      "ㄺ</w>": 420,
      "θ</w>": 421,
      "–</w>": 422,
      "―</w>": 423,
      "#</w>": 424,
      "○</w>": 425,
      "_</w>": 426,
      "ψ</w>": 427,
      "α</w>": 428,
      "ο</w>": 429,
      "®</w>": 430,
      "★</w>": 431,
      "ι</w>": 432,
      "″</w>": 433,
      "½</w>": 434,
      "→</w>": 435,
      "ㄷ</w>": 436,
      "$</w>": 437,
      "■</w>": 438,
      "ㄳ</w>": 439,
      "ω</w>": 440,
      "ε</w>": 441,
      "※</w>": 442,
      "[</w>": 443,
      "δ</w>": 444,
      "ㄲ</w>": 445,
      "ㅒ</w>": 446,
      "∞</w>": 447,
      "π</w>": 448,
      "—</w>": 449,
      "Η</w>": 450,
      "●</w>": 451,
      "Ε</w>": 452,
      "υ</w>": 453,
      "ρ</w>": 454,
      "◌</w>": 455,
      "^</w>": 456,
      "<</w>": 457,
      "λ</w>": 458,
      "ㄻ</w>": 459,
      "′</w>": 460,
      "Ο</w>": 461,
      "ㄼ</w>": 462,
      "□</w>": 463,
      "@</w>": 464,
      "φ</w>": 465,
      "μ</w>": 466,
      "ㅀ</w>": 467,
      "ㄽ</w>": 468,
      "γ</w>": 469,
      "⇒</w>": 470,
      "η</w>": 471,
      "Λ</w>": 472,
      "≠</w>": 473,
      "™</w>": 474,
      "Τ</w>": 475,
      "≥</w>": 476,
      "•</w>": 477,
      "↓</w>": 478,
      "ㄵ</w>": 479,
      "Ξ</w>": 480,
      "Σ</w>": 481,
      "¼</w>": 482,
      "Ω</w>": 483,
      "Γ</w>": 484,
      "Ψ</w>": 485,
      "◎</w>": 486,
      "↑</w>": 487,
      "Α</w>": 488,
      "Φ</w>": 489,
      "σ</w>": 490,
      "‸</w>": 491,
      "‛</w>": 492,
      "Μ</w>": 493,
      "‹</w>": 494,
      "Ι</w>": 495,
      "χ</w>": 496,
      "Π</w>": 497,
      "ㄶ</w>": 498,
      "τ</w>": 499,
      "±</w>": 500,
      "Κ</w>": 501,
      "£</w>": 502,
      "≈</w>": 503,
      "„</w>": 504,
      "¥</w>": 505,
      "ㅃ</w>": 506,
      "✖</w>": 507,
      "ξ</w>": 508,
      "ㄾ</w>": 509,
      "∉</w>": 510,
      "¾</w>": 511,
      "⇓</w>": 512,
      "Δ</w>": 513,
      "Υ</w>": 514,
      "‰</w>": 515,
      "ㅉ</w>": 516,
      "✓</w>": 517,
      "≡</w>": 518,
      "∈</w>": 519,
      "κ</w>": 520,
      "✗</w>": 521,
      "Ρ</w>": 522,
      "Θ</w>": 523,
      "∫</w>": 524,
      "↪</w>": 525,
      "ㄿ</w>": 526,
      "Ζ</w>": 527,
      "₽</w>": 528,
      "‷</w>": 529,
      "⇔</w>": 530,
      "÷</w>": 531,
      "✕</w>": 532,
      "‵</w>": 533,
      "₿</w>": 534,
      "§</w>": 535,
      "€</w>": 536,
      "Χ</w>": 537,
      "Ν</w>": 538,
      "ζ</w>": 539,
      "‴</w>": 540,
      "⇑</w>": 541,
      "◍</w>": 542,
      "Β</w>": 543,
      "©</w>": 544,
      "‶</w>": 545,
      "≢</w>": 546,
      "ㄸ</w>": 547,
      "₹</w>": 548,
      "✔</w>": 549,
      "‟</w>": 550,
      "⇐</w>": 551,
      "✘</w>": 552,
      "≣</w>": 553,
      "ㅇㅣ": 554,
      "ㅎㅏ": 555,
      "ㅇㅡ": 556,
      "ㄷㅏ": 557,
      "ㅇㅢ</w>": 558,
      "ㅏㅇ": 559,
      "ㅈㅓ": 560,
      "ㄴㅡ": 561,
      "ㄷㅏ.</w>": 562,
      "ㅗㅇ": 563,
      "ㅇㅕ": 564,
      "ㄴㅡㄴ</w>": 565,
      "ㅅㅓ": 566,
      "ㅅㅣ": 567,
      "ㅡㄹ": 568,
      "ㅈㅣ": 569,
      "ㄱㅜ": 570,
      "ㅏㄹ": 571,
      "ㄴㅕ": 572,
      "ㅏㄴ": 573,
      "ㅇㅓ": 574,
      "ㅇㅡㄹ</w>": 575,
      "ㅏㄱ": 576,
      "ㄹㅣ": 577,
      "ㅆㄷㅏ.</w>": 578,
      "ㅇㅔ</w>": 579,
      "ㅗㄱ": 580,
      "ㅇㅝ": 581,
      "ㅈㅜ": 582,
      "ㅅㅡ": 583,
      "ㅇㅣ</w>": 584,
      "ㅕㅇ": 585,
      "ㅇㅔ": 586,
      "ㄹㅗ</w>": 587,
      "ㄱㅣ": 588,
      "ㅂㅜ": 589,
      "ㄷㅐ": 590,
      "ㄹㅡ": 591,
      "ㄴㅕㄴ</w>": 592,
      "ㅇㅡㄴ</w>": 593,
      "ㅁㅣ": 594,
      "ㅏㅁ": 595,
      "ㅎㅐ": 596,
      "20": 597,
      "ㅇㅣㄹ": 598,
      "ㄷㅚ": 599,
      "ㅎㅏㄱ": 600,
      "ㅇㅏ": 601,
      "ㄱㅏ": 602,
      "ㅁㅜ": 603,
      "ㅅㅜ": 604,
      "ㅅㅓ</w>": 605,
      "ㅎㅏㄴ</w>": 606,
      "ㅅㅏ": 607,
      "19": 608,
      "ㄱㅜㄱ": 609,
      "ㅗㄴ": 610,
      "ㅇㅣㄴ": 611,
      "ㅕㄴ": 612,
      "ㄹㅡㄹ</w>": 613,
      "ㅎㅏㄴ": 614,
      "ㅎㅘ": 615,
      "ㄷㅡ": 616,
      "ㅈㅓㅇ": 617,
      "ㅈㅔ": 618,
      "ㄱㅓ": 619,
      "ㅊㅜ": 620,
      "ㅅㅏㅇ": 621,
      "ㅗㄹ": 622,
      "ㅈㅏ": 623,
      "ㄱㅘ": 624,
      "ㅈㅓㄴ": 625,
      "ㄷㅗㅇ": 626,
      "ㄱㅡ": 627,
      "ㅇㅜ": 628,
      "ㅇㅡㄹㅗ</w>": 629,
      "ㄷㅡㄹ": 630,
      "ㄱㅏ</w>": 631,
      "ㅁㅏ": 632,
      "ㅂㅓ": 633,
      "ㅊㅓ": 634,
      "ㅇㅝㄹ</w>": 635,
      "ㅈㅏㅇ": 636,
      "ㄷㅗ": 637,
      "ㅇㅠ": 638,
      "ㄱㅗ": 639,
      "ㅇㅔㅅㅓ</w>": 640,
      "ㅂㅣ": 641,
      "ㅅㅓㄴ": 642,
      "ㅅㅓㅇ": 643,
      "ㄱㅗㅇ": 644,
      "ㄹㅗ": 645,
      "ㅊㅣ": 646,
      "ㄱㅗ</w>": 647,
      "ㅐㅇ": 648,
      "ㄴㅕㄴ": 649,
      "ㅅㅔ": 650,
      "ㄷㅗ</w>": 651,
      "ㅇㅕㅇ": 652,
      "ㅇㅟ": 653,
      "ㄱㅘ</w>": 654,
      "ㄱㅕㅇ": 655,
      "ㅇㅣㅆ": 656,
      "ㅇㅣㄷㅏ.</w>": 657,
      "ㅇㅡㅁ": 658,
      "ㅇㅣㄴ</w>": 659,
      "ㅈㅜㅇ": 660,
      "ㅈㅗ": 661,
      "ㅇㅑ": 662,
      "ㅇㅝㄴ": 663,
      "ㅁㅣㄴ": 664,
      "ㅂㅏ": 665,
      "201": 666,
      "ㅂㅗ": 667,
      "ㅅㅣㄴ": 668,
      "ㅈㅣ</w>": 669,
      "ㅅㅗ": 670,
      "ㅇㅛ": 671,
      "ㅇㅣㄹ</w>": 672,
      "ㅈㅏㄱ": 673,
      "ㅇㅕㄴ": 674,
      "ㅅㅜ</w>": 675,
      "ㄱㅕ": 676,
      "ㅌㅡ": 677,
      "ㄴㅏ": 678,
      "ㄱㅐ": 679,
      "200": 680,
      "ㄱㅛ": 681,
      "ㅁㅜㄴ": 682,
      "ㅈㅓㄱ": 683,
      "ㅅㅏㄹ": 684,
      "ㅔㅇㅣ": 685,
      "ㅍㅡㄹ": 686,
      "ㅎㅚ": 687,
      "ㅇㅗ": 688,
      "ㅇㅓㅆㄷㅏ.</w>": 689,
      "ㅇㅢ": 690,
      "ㅅㅡㅌ": 691,
      "ㅁㅗ": 692,
      "ㅂㅏㄹ": 693,
      "ㅁㅕㅇ": 694,
      "ㅅㅡ</w>": 695,
      "ㅇㅕㄱ": 696,
      "ㄹㄹ": 697,
      "()": 698,
      "ㅎㅏㅇㅕ": 699,
      "ㅍㅣ": 700,
      "ㄱㅡㄹ": 701,
      "ㅊㅜㄹ": 702,
      "ㄱㅘㄴ": 703,
      "ㅂㅏㅇ": 704,
      "ㄷㅓ": 705,
      "ㅈㅣㄴ": 706,
      "ㅐㄱ": 707,
      "ㅎㅏㅁ": 708,
      "ㄹㅕ": 709,
      "ㄷㅡㅇ": 710,
      "ㄹㅏ": 711,
      "ㅎㅏㅇ": 712,
      "ㅎㅐ</w>": 713,
      "ㅅㅏㄴ": 714,
      "ㅇㅏㄴ": 715,
      "ㅓㄴ": 716,
      "ㅈㅏ</w>": 717,
      "ㅇㅣㅆㄷㅏ.</w>": 718,
      "ㅎㅏㄴㅡㄴ</w>": 719,
      "ㄱㅓㅅ": 720,
      "ㅕㄴ</w>": 721,
      "ㅁㅏㄴ": 722,
      "ㅅㅣ</w>": 723,
      "ㅈㅐ": 724,
      "ㅇㅓ</w>": 725,
      "ㄴㅏㅁ": 726,
      "ㅎㅐㅆㄷㅏ.</w>": 727,
      "ㄱㅖ": 728,
      "ㅇㅘ": 729,
      "ㅎㅜ": 730,
      "ㅈㅡ": 731,
      "ㄱㅜㄱㅇㅢ</w>": 732,
      "ㅌㅗㅇ": 733,
      "ㅎㅐㅇ": 734,
      "ㄷㅏㄴ": 735,
      "ㅅㅐㅇ": 736,
      "ㅇㅘ</w>": 737,
      "ㄱㅣ</w>": 738,
      "ㅋㅣ": 739,
      "ㅇㅣㅁ": 740,
      "ㅌㅣ": 741,
      "ㅎㅗ": 742,
      "ㄱㅏㅇ": 743,
      "ㄱㅜㄴ": 744,
      "ㄱㅏㄱ": 745,
      "ㅍㅗ": 746,
      "ㅂㅜ</w>": 747,
      "ㄹㄹㅣ": 748,
      "ㄷㅏㅇ": 749,
      "ㄷㅔ": 750,
      "ㅐㄴ": 751,
      "ㄱㅔ</w>": 752,
      "ㅈㅗㅇ": 753,
      "ㅎㅏㄴㄷㅏ.</w>": 754,
      "ㄱㅜ</w>": 755,
      "ㅂㅏㄴ": 756,
      "ㅇㅕㄱ</w>": 757,
      "ㄱㅜㄱ</w>": 758,
      "ㅂㅗㄴ": 759,
      "ㅂㅜㄴ": 760,
      "ㅎㅕㄴ": 761,
      "ㄷㅣ": 762,
      "ㅇㅓㅆ": 763,
      "ㄷㅚㄴ</w>": 764,
      "ㅇㅚ": 765,
      "ㄷㅚㅇㅓㅆㄷㅏ.</w>": 766,
      "ㅅㅣㄱ": 767,
      "ㅡㄹ</w>": 768,
      "ㅊㅔ": 769,
      "ㄷㅡ</w>": 770,
      "ㅂㅗㄱ": 771,
      "ㅎㅏㅇㅕㅆㄷㅏ.</w>": 772,
      "ㄱㅛ</w>": 773,
      "199": 774,
      "ㅍㅜ": 775,
      "ㅎㅘ</w>": 776,
      "ㅋㅗ": 777,
      "ㄷㅐ</w>": 778,
      "ㅇㅏㄹ": 779,
      "ㄷㅗㄱ": 780,
      "ㅈㅜ</w>": 781,
      "ㄷㅐㅎㅏㄴ": 782,
      "ㄴㅗ": 783,
      "ㅎㅏㄱㅗ</w>": 784,
      "ㅎㅕ": 785,
      "10": 786,
      "ㅂㅔ": 787,
      "ㅌㅏ": 788,
      "ㅈㅏㅇ</w>": 789,
      "ㅋㅏ": 790,
      "ㄱㅏㅌ": 791,
      "ㅅㅏ</w>": 792,
      "ㄴㄷㅏ.</w>": 793,
      "ㅅㅗㄱ": 794,
      "ㅌㅔ": 795,
      "ㅊㅜㄱ": 796,
      "ㅑㅇ": 797,
      "ㅕ,</w>": 798,
      "ㅎㅏㅇㅕ</w>": 799,
      "ㄷㅐㅎㅏㄴㅁㅣㄴ": 800,
      "ㅈㅓㄴ</w>": 801,
      "ㅌㅓ</w>": 802,
      "ㄴㅣ": 803,
      "ㄱㅕㄹ": 804,
      "ㅂㅐ": 805,
      "ㄹㅔ": 806,
      "ㅅㅣㄹ": 807,
      "ㅋㅡ</w>": 808,
      "ㅁㅏㄹ": 809,
      "ㅎㅐㅆ": 810,
      "ㅅㅡㅇ": 811,
      "ㄱㅡ</w>": 812,
      "ㅁㅜㄹ": 813,
      "ㅌㅗ": 814,
      "ㅇㅣㅆㄴㅡㄴ</w>": 815,
      "ㅇㅣㅂ": 816,
      "ㄹㅓ": 817,
      "ㅇㅛㅇ": 818,
      "ㅍㅛ": 819,
      "ㅇㅏ</w>": 820,
      "ㅅㅐ": 821,
      "ㅋㅡㄹ": 822,
      "ㅌㅓ": 823,
      "ㅋㅡ": 824,
      "ㅊㅗ": 825,
      "ㅎㅏㄱㄱㅛ</w>": 826,
      "ㅇㅖ": 827,
      "ㅍㅏ": 828,
      "ㅁㅏㄴ</w>": 829,
      "ㅇㅑㅇ": 830,
      "ㄱㅗ,</w>": 831,
      "ㅌㅡ</w>": 832,
      "ㄱㅣㅁ": 833,
      "ㅅㅓㄹ": 834,
      "ㄷㅜ": 835,
      "ㅊㅏ": 836,
      "ㅊㅚ": 837,
      "ㅇㅔㄴㅡㄴ</w>": 838,
      "ㄹㅣ</w>": 839,
      "er": 840,
      "ㄱㅏㅁ": 841,
      "ㅌㅡㄹ": 842,
      "ㅁㅔ": 843,
      "ㄱㅏㄴ": 844,
      "ㅂㅓㅂ": 845,
      "ㅅㅏㅁ": 846,
      "ㅅㅏㅇ</w>": 847,
      "ㅎㅚ</w>": 848,
      "ㅎㅏㄹ</w>": 849,
      "ㅎㅕㅇ": 850,
      "ㅊㅓㄴ": 851,
      "ㅂㅡㄹ": 852,
      "ㅌㅐ": 853,
      "ㄷㅓㄴ</w>": 854,
      "ㅁㅐ": 855,
      "ㅅㅗㅇ": 856,
      "()</w>": 857,
      "ㅇㅓㅂ": 858,
      "ㅎㅣ": 859,
      "ㄹㅣㅇ": 860,
      "an": 861,
      "198": 862,
      "in": 863,
      "ㅂㅕ": 864,
      "ㅁㅕㄴ": 865,
      "ㅋㅓ": 866,
      "ㅇㅝㄴ</w>": 867,
      "ㅊㅏㅁ": 868,
      "ㅁㅗㄱ": 869,
      "ㅇㅝㄹ": 870,
      "ㅌㅡㄱ": 871,
      "ㅝㄴ": 872,
      "ㅇㅕㅇㅎㅘ</w>": 873,
      "ㅎㅏㅂ": 874,
      "18": 875,
      "12": 876,
      "ㅛㅇ": 877,
      "ㅈㅏㄹ": 878,
      "ㅎㅜ</w>": 879,
      "ㅇㅔㅅㅓ": 880,
      "ㅅㅣㅁ": 881,
      "ㅅㅏㄱ": 882,
      "ㄴㅐ": 883,
      "ㅈㅓㄱ</w>": 884,
      "ㄲㅏ": 885,
      "ㅈㅣㄱ": 886,
      "ㅍㅔ": 887,
      "ㅌㅜ": 888,
      "ㅅㅡㄹ": 889,
      "ㅊㅡ": 890,
      "ㅊㅓㅇ": 891,
      "ㄹㅜ": 892,
      "ㄴㅕㄴ)</w>": 893,
      "ㄷㅏ</w>": 894,
      "ㅇㅏㄶ": 895,
      "ㅇㅓㄴ": 896,
      "ㄴㅡㄴ": 897,
      "ㅇㅜㄴ": 898,
      "ㅂㅓㄴ": 899,
      "ㅂㅜㅌㅓ</w>": 900,
      "ㅅㅓㄴㅅㅜ</w>": 901,
      "ㅍㅕㅇ": 902,
      "ㅍㅏㄴ": 903,
      "ㅇㅗㄹ": 904,
      "ㄱㅓㄴ": 905,
      "ㅈㅓㅁ": 906,
      "1ㄴㅕㄴ</w>": 907,
      "ㅇㅡㄴ": 908,
      "ㅂㅜㄱ": 909,
      "8ㄴㅕㄴ</w>": 910,
      "2ㄴㅕㄴ</w>": 911,
      "ㅂㅏㄷ": 912,
      "ㅇㅡㄹㅗ": 913,
      "ㅎㅓ": 914,
      "6ㄴㅕㄴ</w>": 915,
      "ㄸㅐ": 916,
      "on": 917,
      "ㅂㅏㄱ": 918,
      "ㅇㅏㅇ": 919,
      "ㄷㅗㄹ": 920,
      "7ㄴㅕㄴ</w>": 921,
      "5ㄴㅕㄴ</w>": 922,
      "ㅈㅗㄱ": 923,
      "4ㄴㅕㄴ</w>": 924,
      "ㄹㅠ": 925,
      "ㄱㅘㅇ": 926,
      "ㅂㅗㅇ": 927,
      "ㅊㅓㄹ": 928,
      "ㅊㅜㄱㄱㅜ</w>": 929,
      "11": 930,
      "ㄷㅐㅎㅏㄴㅁㅣㄴㄱㅜㄱㅇㅢ</w>": 931,
      "ㅜㄴ": 932,
      "ㄱㅏㄹ": 933,
      "ㅂㅜㄹ": 934,
      "ㅅㅜㄹ": 935,
      "ㄸㅗ": 936,
      "ㅇㅚㅂㅜ</w>": 937,
      "ㅈㅣㄴ</w>": 938,
      "ㄹㅣㅇㅋㅡ</w>": 939,
      "ar": 940,
      "ㅇㅓㅄ": 941,
      "3ㄴㅕㄴ</w>": 942,
      "ㅇㅘㅇ": 943,
      "ㄱㅜㄴ</w>": 944,
      "0ㄴㅕㄴ</w>": 945,
      "ㅇㅏㄱ": 946,
      "ㅋㅜ": 947,
      "ㅍㅕㄴ": 948,
      "ㅎㅘㄹ": 949,
      "ㅊㅏㅇ": 950,
      "ㅈㅣㅂ": 951,
      "ㅈㅓㄱㅇㅣㄴ</w>": 952,
      "en": 953,
      "ㄱㅡㅁ": 954,
      "ㅇㅡㅁㅕ,</w>": 955,
      "ㅅㅓㅇ</w>": 956,
      "ㅂㅕㄴ": 957,
      "ㄱㅗㄱ": 958,
      "or": 959,
      "ㄷㅚㅇㅓㅆ": 960,
      "00": 961,
      "ㅂㅕㅇ": 962,
      "ㅅㅓㄱ": 963,
      "ㄷㅚㅇㅓ</w>": 964,
      "ㅇㅐ": 965,
      "ㅇㅕㄹ": 966,
      "ㅏㄱㅗ</w>": 967,
      "197": 968,
      "ㅅㅓㄴ</w>": 969,
      "ㅈㅜㄴ": 970,
      "ㄸㅏㄹ": 971,
      "ㅍㅡ": 972,
      "ㄱㅝㄴ": 973,
      "ㅁㅣㅊ</w>": 974,
      "ㄷㅚㄴㄷㅏ.</w>": 975,
      "ㄹㅕㄱ": 976,
      "ㄲㅏㅈㅣ</w>": 977,
      "ㅎㅏㅇㅕㅆ": 978,
      "ㄱㅏㄱㅈㅜ</w>": 979,
      "ㅌㅏㄹ": 980,
      ")ㄴㅡㄴ</w>": 981,
      "ㅈㅓㄱㅇㅡㄹㅗ</w>": 982,
      "ti": 983,
      "ㄱㅕㄱ": 984,
      "ㅁㅇㅡㄹ</w>": 985,
      "ㅁㅕㄴ</w>": 986,
      "9ㄴㅕㄴ</w>": 987,
      "ㄴㅔ": 988,
      "ㅅㅏㅇㅛㅇ": 989,
      "ㄹㅗㄱ": 990,
      "ㅈㅔ</w>": 991,
      "ㄴㅓ": 992,
      "ㅁㅕ": 993,
      "ㄴㅏㄹ": 994,
      "ㄱㅖ</w>": 995,
      "ㅅㅐㅇ</w>": 996,
      "ㅇㅣㄹㅂㅗㄴ": 997,
      "ㅎㅑㅇ": 998,
      "ㅇㅔㄱㅔ</w>": 999,
      "ㅎㅣ</w>": 1000,
      "ㅊㅏㄹ": 1001,
      "ㅇㅠㄱ": 1002,
      "ㅎㅘㅇ": 1003,
      "ㅈㅓㅇ</w>": 1004,
      "ㅅㅏㄹㅏ": 1005,
      "ㄱㅡㄹㅣ": 1006,
      "ㅇㅜㄹ": 1007,
      "ㅋㅔ": 1008,
      "ㅂㅕㄹ": 1009,
      "ㅊㅗㅇ": 1010,
      "ㅇㅏㅁ": 1011,
      "ㅅㅣㄴ</w>": 1012,
      "15": 1013,
      "ㄹㅡㄴ</w>": 1014,
      "),</w>": 1015,
      "ㅁㅣㄱㅜㄱㅇㅢ</w>": 1016,
      "ㄷㅜ</w>": 1017,
      "ㄱㅠ": 1018,
      "ㄷㅡㄹㅇㅡㄴ</w>": 1019,
      "196": 1020,
      "ㅁㅓ": 1021,
      "ㄱㅡㄴ": 1022,
      "(,</w>": 1023,
      "ㅌㅏㄴ": 1024,
      "ㄴㅕㄴㅇㅔ</w>": 1025,
      "ㅎㅏㄱㅔ</w>": 1026,
      "ㄱㅏㄴ</w>": 1027,
      "ㄷㅏㄱㅗ</w>": 1028,
      "ㅎㅡ": 1029,
      "ㄱㅏㅌㅇㅣ</w>": 1030,
      "ㄱㅔ": 1031,
      "ㄴㅡㅇ": 1032,
      "ㅂㅐㄱ": 1033,
      "ㅈㅜㅇ</w>": 1034,
      "ㄱㅗㄹ": 1035,
      "ㅁㅜㄴ</w>": 1036,
      "ㄹㄹㅔ": 1037,
      "ㄷㅐㅎㅏㄴ</w>": 1038,
      "ㅇㅑㄱ": 1039,
      "16": 1040,
      "ㅎㅘㄴ": 1041,
      "ㄷㅡㄹㅇㅣ</w>": 1042,
      "ㅋㅐ": 1043,
      "ㄷㅔ</w>": 1044,
      "ㅇㅔㅅㅓㄴㅡㄴ</w>": 1045,
      "ㅎㅏㄱ</w>": 1046,
      "ㅅㅣㄱ</w>": 1047,
      "ㅈㅡㅇ": 1048,
      "ㅅㅏㅇㅣ": 1049,
      "ㅅㅏㄹㅏㅁ</w>": 1050,
      "al": 1051,
      "ㅐㅇㅜ</w>": 1052,
      "ㅊㅣ</w>": 1053,
      "ㄹㅣㅂ": 1054,
      "ㅅㅜㄴ": 1055,
      "ㅈㅣㅁㅏㄴ</w>": 1056,
      "ㄷㅗㅇ</w>": 1057,
      "ㅎㅏㄱㄱㅛ": 1058,
      "ㅈㅗㄴ": 1059,
      "ㄷㅏㄴㅡㄴ</w>": 1060,
      "ㅁㅏㄶ": 1061,
      "ㅅㅗㄴ": 1062,
      "ㅕㅆㄷㅏ.</w>": 1063,
      "17": 1064,
      "ㄱㅡㅂ": 1065,
      ")ㅇㅡㄴ</w>": 1066,
      "ㄷㅓ</w>": 1067,
      "ㅂㅗㄴ</w>": 1068,
      "ㅈㅣㄹ": 1069,
      "ㄷㅏㅇ</w>": 1070,
      "ㄱㅔㅇㅣ": 1071,
      "ㄹㅏ</w>": 1072,
      "ㅎㅏㄴㄱㅜㄱ": 1073,
      "ㄹㅏㄴ": 1074,
      "ㅆㅡ": 1075,
      "st": 1076,
      "ㄱㅕㅇㄱㅣ": 1077,
      "ㄹㅐ": 1078,
      "le": 1079,
      "ㄷㅏㄹ": 1080,
      "ㄷㅏㄹㅡㄴ</w>": 1081,
      "ㅇㅡㅁㅕ</w>": 1082,
      "(201": 1083,
      "ㅁㅏㅇ": 1084,
      "ㄹㅣㅁ": 1085,
      "th": 1086,
      "3ㅇㅝㄹ</w>": 1087,
      "ㅈㅏㄱㅍㅜ": 1088,
      "ㄹㅕㅇ": 1089,
      "ㄱㅏㅌㅇㅡㄴ</w>": 1090,
      "ㅋㅏㄹ": 1091,
      "ㅍㅐ": 1092,
      "ㅎㅗㅇ": 1093,
      "(200": 1094,
      "ㅏㄴㅡㄴ</w>": 1095,
      "ㄱㅡㄴㅡㄴ</w>": 1096,
      "ㅇㅣㄹㅡ": 1097,
      "ㅊㅜㅇ": 1098,
      "ㅂㅗㄱㅣ</w>": 1099,
      "ㅅㅡㅇㅢ</w>": 1100,
      "ro": 1101,
      "194": 1102,
      "ㅊㅏ</w>": 1103,
      "ㅍㅓ": 1104,
      "14": 1105,
      "ㅎㅔ": 1106,
      "ㅇㅏㄴ</w>": 1107,
      "195": 1108,
      "ㅇㅞ": 1109,
      "ㅈㅣㅇㅕㄱ": 1110,
      "ㅎㅘㄱ": 1111,
      "ㅍㅏㄹ": 1112,
      "ㅈㅓㄹ": 1113,
      "it": 1114,
      "ㅇㅣㅎㅜ</w>": 1115,
      "13": 1116,
      "re": 1117,
      "ㅇㅏㅆㄷㅏ.</w>": 1118,
      "ㄸㅐㅁㅜㄴ": 1119,
      "ㄷㅡㄹㅇㅢ</w>": 1120,
      "ㄷㅡㅇ</w>": 1121,
      "ㅅㅠ": 1122,
      "ㅈㅗ</w>": 1123,
      ".0": 1124,
      "ㅁㅜㄹ</w>": 1125,
      "ㅅㅣㅈㅏㄱ": 1126,
      "ㅅㅏㄴ</w>": 1127,
      "1ㅇㅣㄹ</w>": 1128,
      "ㅍㅡㄹㅏㅇ": 1129,
      "ㅅㅏㄹㅏㅁ": 1130,
      "ㅎㅕㅂ": 1131,
      "ㅂㅏㄴ</w>": 1132,
      "ㅊㅐ": 1133,
      "ㅇㅗㄴ": 1134,
      "ㅈㅡ</w>": 1135,
      "ㅎㅏㄱㅣ</w>": 1136,
      "ㄱㅡㄱ": 1137,
      "ㅎㅏㅁㄲ": 1138,
      "ㄷㅏㄴ</w>": 1139,
      "ㄱㅡㅇㅢ</w>": 1140,
      "ㄸㅐ</w>": 1141,
      "ㄷㅐㅎㅏㄱㄱㅛ</w>": 1142,
      "ㅎㅏㄹ": 1143,
      "ㄹㅔㅇㅣ": 1144,
      "ㄷㅚㄴㅡㄴ</w>": 1145,
      "ㅂㅓㅁ": 1146,
      "ㅈㅐ</w>": 1147,
      "ㄴㅏㄴ": 1148,
      "ic": 1149,
      "ㄷㅡㄹㅇㅡㄹ</w>": 1150,
      "ㅂㅐㅇㅜ</w>": 1151,
      "ㅋㅏ</w>": 1152,
      "ㅊㅜㄹㅅㅐㅇ</w>": 1153,
      "ㅇㅏㄴㅣ": 1154,
      "ㅍㅣㄹ": 1155,
      "ㅌㅏ</w>": 1156,
      "ㅇㅗ</w>": 1157,
      "ㅊㅟ": 1158,
      "ㄷㅡㄹㅏㅁ": 1159,
      "ㄷㅡㄴ</w>": 1160,
      "ㄱㅣㄷㅗ</w>": 1161,
      "ㄷㅐㅎㅏㄴㅁㅣㄴㄱㅜㄱ</w>": 1162,
      "ㅕㅆ": 1163,
      "ㅁㅏㄱ": 1164,
      "ㄷㅏㅇㅡㅁ": 1165,
      "ol": 1166,
      "ㅎㅏㅁㄲㅔ</w>": 1167,
      "ㅇㅟㅎㅐ</w>": 1168,
      "4ㅇㅝㄹ</w>": 1169,
      "ㅎㅏㅈㅣ</w>": 1170,
      "ㅇㅕㅇㅎㅘ": 1171,
      "ㅅㅓㅇㅜㄹ": 1172,
      "ㄹㅐㄴ": 1173,
      "ㅇㅘㄴ": 1174,
      "ㅔㅅㅓ</w>": 1175,
      "ㅇㅣㄹ,</w>": 1176,
      "ㅉㅗㄱ": 1177,
      "ㅋㅣ</w>": 1178,
      "ㅊㅐㄱ": 1179,
      "ㅊㅣㄴ": 1180,
      "ㅈㅏㅅㅣㄴ": 1181,
      "ㅊㅏㄱ": 1182,
      "ㅇㅣㄴㅡㄴ</w>": 1183,
      "ㅁㅏ</w>": 1184,
      "ㅁㅏㄴ,</w>": 1185,
      "ㄷㅔ,</w>": 1186,
      "ㅈㅐㅇ": 1187,
      "ㅜㄴ</w>": 1188,
      "ㅅㅣㅈㅡ": 1189,
      "ㅓㄴ</w>": 1190,
      "ㅗ,</w>": 1191,
      "ㄴㅏㅇ": 1192,
      "ㅋㅏㅇ": 1193,
      "ㄱㅕㄴ": 1194,
      "KB": 1195,
      "at": 1196,
      "ㅇㅏㅇㅢ</w>": 1197,
      "ㄴㅗㄹ": 1198,
      "ㅎㅕㄴ</w>": 1199,
      "ㅅㅔㄱㅣ</w>": 1200,
      "ㄱㅓㅅㅇㅡㄹ</w>": 1201,
      "ㅓㄴㅏ</w>": 1202,
      "ㅅㅗ</w>": 1203,
      "ㅍㅡㄹㅗ": 1204,
      "ㄷㅡㅇㅎㅏㄱㄱㅛ</w>": 1205,
      "ㅅㅡㅌㅡㄹ": 1206,
      "ㅍㅡㄹㅣ": 1207,
      "12ㅇㅝㄹ</w>": 1208,
      "ㄷㅡㄹ</w>": 1209,
      "ㅁㅓㄴ": 1210,
      "ㄷㅐㅍㅛ": 1211,
      "30": 1212,
      "ㄷㅏㅁ": 1213,
      "ㄴㅗㅇ": 1214,
      "ㄸㅗㄴㅡㄴ</w>": 1215,
      "ㄱㅘㄴ</w>": 1216,
      "ㅆㅣ": 1217,
      "ㅅㅓㄴㅅㅜ": 1218,
      "ㅁㅕㅇ</w>": 1219,
      "10ㅇㅝㄹ</w>": 1220,
      "ㅇㅣㄹㅂㅗㄴ</w>": 1221,
      "ㅅㅐㄱ": 1222,
      "9ㅇㅝㄹ</w>": 1223,
      "ㄹㅗㄱ</w>": 1224,
      "ㅗㄱ</w>": 1225,
      "ㅍㅗㄱ": 1226,
      "ㅈㅜㅇㅢ</w>": 1227,
      "ㅇㅟㅇㅝㄴ": 1228,
      "ㅅㅡㅌㅡ</w>": 1229,
      "ㅈㅣㅁㅏㄴ,</w>": 1230,
      "ㅎㅗ</w>": 1231,
      "ㅎㅗㄴ": 1232,
      "ㅎㅢ": 1233,
      "ㄹㅗㅇ": 1234,
      "ㄹㅕㄱ</w>": 1235,
      "ㄹㅛ": 1236,
      "ㄷㅗㅇㅢ</w>": 1237,
      "ㅂㅓㄴㅉ": 1238,
      "ac": 1239,
      "ㅅㅔ</w>": 1240,
      "ㄹㅏㅇ": 1241,
      "7ㅇㅝㄹ</w>": 1242,
      "ㅈㅗㄹ": 1243,
      "ㅈㅣㄴㅡㄴ</w>": 1244,
      "202": 1245,
      "ㅇㅜ</w>": 1246,
      "ㅅㅣㅇㅢ</w>": 1247,
      "1ㅇㅝㄹ</w>": 1248,
      "ㅇㅏㅆ": 1249,
      "ㄹㄹㅓ": 1250,
      "ㅅㅔㄴ": 1251,
      "ㄲㅡ": 1252,
      "ㅗㄱㅡㄹ": 1253,
      "ㅇㅟㅊㅣ": 1254,
      "ㄸㅗㅎㅏㄴ</w>": 1255,
      "ㅁㅗㅇ": 1256,
      "ㅁㅇㅢ</w>": 1257,
      "ㅅㅡㅂ": 1258,
      "ㅇㅏㅇㅣ": 1259,
      "ㅂㅏㅇㅅㅗㅇ": 1260,
      "ㅈㅗㅅㅓㄴ": 1261,
      "8ㅇㅝㄹ</w>": 1262,
      "ㅁㅜㄴㅎㅘ": 1263,
      "5ㅇㅝㄹ</w>": 1264,
      "is": 1265,
      "||</w>": 1266,
      "ㅌㅔㄹㄹㅔ": 1267,
      "es": 1268,
      "ㅁㅣㄱㅜㄱ</w>": 1269,
      "ㄴㅠ": 1270,
      "ㅁㅗㅅ": 1271,
      "ㅇㅣㄴㅏ</w>": 1272,
      "0ㄴㅕㄴ": 1273,
      "Th": 1274,
      "2ㅇㅝㄹ</w>": 1275,
      "ㄴㅡㄴㄷㅔ,</w>": 1276,
      "ㄱㅣㄹㅗㄱ": 1277,
      "ㅇㅔㄷㅗ</w>": 1278,
      "ㄱㅏㅈㅏㅇ</w>": 1279,
      "ㅁㅇㅡㄴ</w>": 1280,
      "ㅊㅔ</w>": 1281,
      "ㅅㅣㅇ": 1282,
      "of</w>": 1283,
      "ㅍㅖ": 1284,
      "on</w>": 1285,
      "ㅇㅓㅂ</w>": 1286,
      "ㅇㅔㄴ": 1287,
      "ㅗㄱㅡㄹㅐ": 1288,
      "ㅁㅔㅇㅣ": 1289,
      "ㅋㅗㄴ": 1290,
      "6ㅇㅝㄹ</w>": 1291,
      "ㅈㅗㅇ</w>": 1292,
      "ㄹㅣㄴ": 1293,
      "ㅅㅗㄱ</w>": 1294,
      "11ㅇㅝㄹ</w>": 1295,
      "ㄷㅡㄹㅇㅓ": 1296,
      "ㄴㅏㄱ": 1297,
      "ㅎㅛ": 1298,
      "ㅅㅕㄴ</w>": 1299,
      "ㅍㅗㄹ": 1300,
      "el": 1301,
      "ㅇㅠㄴ": 1302,
      "ㅇㅡㅁ</w>": 1303,
      "ㅅㅕㄴ": 1304,
      "ㅎㅕㅇ</w>": 1305,
      "ou": 1306,
      "ㄷㅗㅇㅁㅜㄴ</w>": 1307,
      "ㅅㅓㄹㄹㅣ": 1308,
      "ㅇㅣㄹㅂㅗㄴㅇㅢ</w>": 1309,
      "ㅇㅕㄴㄱㅜ": 1310,
      "ㅍㅡ</w>": 1311,
      "ㅇㅣㄹㅇㅔ</w>": 1312,
      "ㅍㅡㄹㅗㄱㅡㄹㅐ": 1313,
      "ㅈㅓㅂ": 1314,
      "ㅕㄴㅅㅓ</w>": 1315,
      "ㅕㄱ": 1316,
      "ㅇㅐㄴ": 1317,
      "ㅇㅢㅎㅐ</w>": 1318,
      "ㅇㅓㄴㅏ": 1319,
      "ㅅㅗㄹ": 1320,
      "ㅝㄴ</w>": 1321,
      "ㄱㅣㄹ": 1322,
      "al</w>": 1323,
      "ㄱㅜㄱㄱㅏ": 1324,
      "ㅈㅜㅇㅢ": 1325,
      "ㅌㅔㄹㄹㅔㅂㅣ": 1326,
      "ㄱㅐㅇㅢ</w>": 1327,
      "ㅁㅇㅣ</w>": 1328,
      "ㅌㅗ</w>": 1329,
      "ㅅㅏㅎㅚ": 1330,
      "ㅈㅜㄱ": 1331,
      "ㄷㅡㄹㅏㅁㅏ</w>": 1332,
      "ㄹㅏㄴㅡㄴ</w>": 1333,
      "ㅊㅜㄹㅅㅣㄴ</w>": 1334,
      "25": 1335,
      "193": 1336,
      "ㅇㅟ</w>": 1337,
      "ㄴㅏ</w>": 1338,
      "ㄹㅗㄴ": 1339,
      "ㅇㅕㄴ</w>": 1340,
      "ㅁㅏㄶㅇㅡㄴ</w>": 1341,
      "ㅎㅏㅁㅕ</w>": 1342,
      "ig": 1343,
      "ㄱㅐ</w>": 1344,
      "ㅌㅏㅇ": 1345,
      "ㅈㅏㄱㅍㅜㅁ</w>": 1346,
      "ㅌㅡㄱㅂㅕㄹ": 1347,
      "ㅇㅕㅈㅏ</w>": 1348,
      "ㄸㅡ": 1349,
      "ㅇㅗㄹㄹㅣㅁ": 1350,
      "()ㅇㅡㄴ</w>": 1351,
      "ㅇㅗㄱ": 1352,
      "ㄹㅏㅇㅣ": 1353,
      "ㅎㅘㄹㄷㅗㅇ": 1354,
      "ㅇㅏㅇㅣㅆㄴㅡㄴ</w>": 1355,
      "ㅈㅕ</w>": 1356,
      "ㄸㅐㅁㅜㄴㅇㅔ</w>": 1357,
      "ㄸㅏㄹㅏ</w>": 1358,
      "ㄹㅣㄱㅡ</w>": 1359,
      "ㄷㅏ.": 1360,
      "ㅎㅚㄱ": 1361,
      "om": 1362,
      "er</w>": 1363,
      "ㅈㅓㅇㅊㅣ": 1364,
      "ㅇㅡㄴㅏ</w>": 1365,
      "ㅌㅔㄹㄹㅔㅂㅣㅈㅓㄴ</w>": 1366,
      "ㄴㅏ,</w>": 1367,
      "il": 1368,
      ")ㅇㅢ</w>": 1369,
      "ㅇㅗㄹㄹㅣㅁㅍㅣ": 1370,
      "ㅁㅣㄹ": 1371,
      "ㄱㅓㅁ": 1372,
      "ㅇㅑㄱ</w>": 1373,
      "ㄱㅏㅈㅣ": 1374,
      "()ㄴㅡㄴ</w>": 1375,
      "ㅅㅏㄹㅇㅏㅇㅣㅆㄴㅡㄴ</w>": 1376,
      "ㄱㅟ": 1377,
      "ㅈㅔㅈㅏㄱ": 1378,
      "ㅇㅣㅆㅇㅓㅆ": 1379,
      "ㅈㅏㅁ": 1380,
      "ㄱㅓㅅㅇㅡㄴ</w>": 1381,
      "ㅁㅣㄱㅜㄱ": 1382,
      "ㅊㅣㅇ": 1383,
      "ㅂㅓㄴㅉㅐ</w>": 1384,
      "ㅅㅣㅋㅣ": 1385,
      "ch": 1386,
      "ㅊㅗㄱ": 1387,
      "ㄱㅓㅅㅇㅡㄹㅗ</w>": 1388,
      "ㄱㅡㄹㅣㄱㅗ</w>": 1389,
      "ㄱㅡㄹㅓㄴㅏ</w>": 1390,
      "ㄷㅡㅇㅢ</w>": 1391,
      "ㅁㅣㄴㅈㅜ": 1392,
      "ㅊㅡㄱ": 1393,
      "ㅂㅜㅂㅜㄴ": 1394,
      "ㅈㅔ2": 1395,
      "ㄱㅏㄱ</w>": 1396,
      "ㅇㅡㅇ": 1397,
      "ㅍㅗㅎㅏㅁ": 1398,
      "ㄹㅏㄱ": 1399,
      "ㅎㅓㄴ": 1400,
      "ㅅㅡㅌㅔ": 1401,
      "ㅓㄹ": 1402,
      "ㅇㅣㄹㅏㄱㅗ</w>": 1403,
      "ㅁㅗㄹ": 1404,
      "ㄱㅗㅇㅎㅘ": 1405,
      "ㄷㅓㄱ": 1406,
      "ㄴㅗㅍ": 1407,
      "ㅂㅐㅇㅜ": 1408,
      "ㄱㅣㄹㅡㄹ</w>": 1409,
      "(199": 1410,
      "ㅎㅏㄷㅏ.</w>": 1411,
      "ㅏㄴ</w>": 1412,
      "ㅇㅣㅆㅇㅓㅆㄷㅏ.</w>": 1413,
      "ㄱㅕㅇ</w>": 1414,
      "ㅁㅣ</w>": 1415,
      "ㅋㅗㄹ": 1416,
      "ㄱㅔㅇㅣㅁ</w>": 1417,
      "ㅑㅇ</w>": 1418,
      "ㅇㅣㅇㅓㅆㄷㅏ.</w>": 1419,
      "ㅁㅍ": 1420,
      "am": 1421,
      "ㄱㅗㅅ": 1422,
      "ㅂㅗ</w>": 1423,
      "as": 1424,
      "ㅌㅗㅇㅎㅐ</w>": 1425,
      "ㅇㅣㄹㅓ": 1426,
      "ㅈㅏㅂ": 1427,
      "ㅊㅓㅅ</w>": 1428,
      "ㅊㅣㅁ": 1429,
      "ㄴㅗㄴ": 1430,
      "ㅇㅣㄹㅏㄴㅡㄴ</w>": 1431,
      "ㅅㅡㅌㅣ": 1432,
      "2019": 1433,
      "ㄷㅏㅇㅅㅣ</w>": 1434,
      "MB": 1435,
      "ㄱㅓㅅㅇㅣ</w>": 1436,
      "ㄷㅐㅎㅏㄱ": 1437,
      "ㅊㅗㄴ": 1438,
      "ㅅㅡㄴㅡㄴ</w>": 1439,
      "ㄷㅚㄱㅗ</w>": 1440,
      "ㅌㅐㄱ": 1441,
      "ㅋㅏㄴ": 1442,
      "ati": 1443,
      "ㅎㅐㅇ</w>": 1444,
      "ㄱㅣㅇㅔ</w>": 1445,
      "ㅋㅗ</w>": 1446,
      "ㅇㅣㅁㅕ,</w>": 1447,
      "21": 1448,
      "ㄹㅏㄱㅗ</w>": 1449,
      "ㅎㅜㄴ": 1450,
      "24": 1451,
      "ㅇㅛㅇ</w>": 1452,
      "ㄱㅏㅈ": 1453,
      "ㄸㅡㅅ": 1454,
      "ㅅㅔㄱㅖ": 1455,
      "ㄷㅡㄱ": 1456,
      "ㅇㅣㅇㅓㅆ": 1457,
      "ㄷㅟ": 1458,
      "ㅇㅕㅇ</w>": 1459,
      "ㅈㅓㅇㅂㅜ": 1460,
      "ㅂㅡ</w>": 1461,
      "ㅂㅣ</w>": 1462,
      "id": 1463,
      "ㄱㅕㅇㅇㅜ": 1464,
      "ㄴㅜ": 1465,
      "ㅇㅟㅎㅏㄴ</w>": 1466,
      "ㄴㅏㅁㅈㅏ</w>": 1467,
      "ㄹㅕㄴ": 1468,
      "2020": 1469,
      "ㅁㅗㄷㅡㄴ</w>": 1470,
      "ㄷㅏㅅㅣ</w>": 1471,
      "ㅌㅣㅁ</w>": 1472,
      "ㅅㅣㄹㅣ": 1473,
      "ㅂㅡ": 1474,
      "ㅌㅗㅇ</w>": 1475,
      "ㄱㅛㅇㅠㄱ": 1476,
      "ㅂㅓㄹ": 1477,
      "ㅈㅣㅇ": 1478,
      "ㄱㅓㅅㅇㅣㄷㅏ.</w>": 1479,
      "ㅅㅏㅇㅇㅡㄹ</w>": 1480,
      "ㅎㅏㄱㅗ,</w>": 1481,
      "ㅅㅡㅌㅏ": 1482,
      "ㄴㅡㄴㄷㅔ</w>": 1483,
      "ㄱㅏㄴㅡㅇ": 1484,
      "ㅅㅏㄹㅡㄹ</w>": 1485,
      "23": 1486,
      "ㅂㅗㄹ": 1487,
      "ㅅㅓㄹ</w>": 1488,
      "ㄹㅣㄴ</w>": 1489,
      "ㄱㅏㅁㄷㅗㄱ": 1490,
      "ㅅㅡㅍㅔ": 1491,
      "un": 1492,
      "ㅌㅏㅇㅣ": 1493,
      "ㄷㅐㄹㅗ</w>": 1494,
      "ㅇㅣㄹㅜ": 1495,
      "ㅇㅕㄱㅅㅏ</w>": 1496,
      "ㅊㅏㄴ": 1497,
      "ㅎㅏㅁㅕㄴㅅㅓ</w>": 1498,
      "ㅇㅡㄹ": 1499,
      "ㅂㅏㄲ": 1500,
      "ㅇㅡㄹㅗ,</w>": 1501,
      "The</w>": 1502,
      "ㅅㅛ": 1503,
      "the</w>": 1504,
      "ㅏㅇ</w>": 1505,
      "(S": 1506,
      "ㅇㅏㅅㅣ": 1507,
      "ㅅㅓㅇㅇㅡㄹ</w>": 1508,
      "ㄷㅡㅇㅇㅣ</w>": 1509,
      "ㄷㅏㅇㅡㅁㄱㅘ</w>": 1510,
      "ㅈㅘ": 1511,
      "ㅈㅕㅆㄷㅏ.</w>": 1512,
      "ㅎㅗㄱ": 1513,
      "ㄷㅗㄹㅗ</w>": 1514,
      "ㅍㅜㅇ": 1515,
      "28": 1516,
      "ㅕㄱ</w>": 1517,
      "ㅇㅣㄹㅡㄹ</w>": 1518,
      "2010ㄴㅕㄴ</w>": 1519,
      "ㅁㅕ</w>": 1520,
      "ㅂㅓㄴ</w>": 1521,
      "ㄴㅕㄴ,</w>": 1522,
      "ㅅㅑ": 1523,
      "ㅁㅕㅇㅇㅢ</w>": 1524,
      "(),</w>": 1525,
      "ㅁㅕㄴㅅㅓ</w>": 1526,
      "ㅗㄴㅣ": 1527,
      "ㅅㅡㅌㅡ": 1528,
      "ㅎㅐㅅㅓ</w>": 1529,
      "ㅂㅗㄷㅏ</w>": 1530,
      "ㅎㅕㄴㅈㅐ</w>": 1531,
      "ㅅㅣㅇㅔ</w>": 1532,
      "ㄷㅐㅇㅢ</w>": 1533,
      "ㅅㅓㄴㄱㅓ": 1534,
      "ㄴㅐㅇ": 1535,
      "ㄹㄹㅣ</w>": 1536,
      "()ㅇㅢ</w>": 1537,
      "ㅓㅂ": 1538,
      "26": 1539,
      "ㄷㅔㅇㅣ": 1540,
      "ㄱㅜㄱㅈㅔ": 1541,
      "ㅅㅓㄴㅡㄴ</w>": 1542,
      "ㅅㅓㄹㄹㅣㅂ": 1543,
      "ㄱㅜㄴㅇㅢ</w>": 1544,
      "ㅅㅗㅇ</w>": 1545,
      "ㅌㅓㄴ": 1546,
      "ㅋㅡㄹㅣ": 1547,
      "ㅇㅣㅌㅏㄹ": 1548,
      "ㄹㅓㅅㅣ": 1549,
      "ㅈㅏㅇㅇㅡㄹ</w>": 1550,
      "ㄱㅡㄹㅜ": 1551,
      "ㄷㅣㅇㅗ</w>": 1552,
      "ㄹㅣㄹㅡㄹ</w>": 1553,
      "ㅇㅗㅇ": 1554,
      "ㅁㅏㅈ": 1555,
      "ㅂㅏㄹㅁㅐ": 1556,
      "22": 1557,
      "ㅅㅡㅇ</w>": 1558,
      "ㅂㅏㅇ</w>": 1559,
      "ㄴㅡㄴㄷㅏ.</w>": 1560,
      "ㅇㅗㄹㄹㅣㅁㅍㅣㄱ</w>": 1561,
      "..": 1562,
      "ㅎㅓㅁ": 1563,
      "ㅈㅏㄱㅏ</w>": 1564,
      "ㄷㅗㄱㅇㅣㄹ": 1565,
      "ㄱㅜㅅㅓㅇ": 1566,
      "ㅊㅡ</w>": 1567,
      "ㅈㅣㄹㅡㄹ</w>": 1568,
      "ㅇㅕㄹㅓ</w>": 1569,
      "ㄷㅐㅌㅗㅇ": 1570,
      "ㅇㅡㅁㅇㅏㄱ": 1571,
      "ㅇㅏㄹㄹㅕ": 1572,
      "ㅂㅜㄹㅡ": 1573,
      "ㅋㅗㅇ": 1574,
      "ㅌㅚ": 1575,
      "27": 1576,
      "ㅈㅣㅂㅏㅇ": 1577,
      "ㅇㅣㄱ": 1578,
      "ㄷㅏㄱㅏ</w>": 1579,
      "ㅇㅣㅇ": 1580,
      "ㅂㅓㅂ</w>": 1581,
      "ㅇㅐㄴㅣ": 1582,
      "ㄷㅡㅇㅇㅢ</w>": 1583,
      "ur": 1584,
      "ㄷㅗㅇㅇㅏㄴ</w>": 1585,
      "ㅋㅡㄴ</w>": 1586,
      "ㅇㅣㅁㅕ</w>": 1587,
      "ㅇㅜㄴㄷㅗㅇ": 1588,
      "ㅊㅜㄹㅇㅕㄴ": 1589,
      "ㅎㅕㄱ": 1590,
      "ㅈㅓㅁ</w>": 1591,
      "ㅎㅡㅇ": 1592,
      "ㅇㅠㄹㅓ": 1593,
      "2012ㄴㅕㄴ</w>": 1594,
      "ㅈㅏㄱ</w>": 1595,
      "ㄹㅑㅇ": 1596,
      "ㄴㅐ</w>": 1597,
      "ㅘㄴ": 1598,
      "ㅌㅏㄱ": 1599,
      "ㅈㅣㄱ</w>": 1600,
      "ㅇㅡㅁㅂㅏㄴ</w>": 1601,
      "ㅇㅣㅇㅛㅇ": 1602,
      "ㅁㅐㄱ": 1603,
      "ㅇㅣㄴㅇㅢ</w>": 1604,
      "ㄲㅡㅌ": 1605,
      "ㄱㅡㅂ</w>": 1606,
      "ㄴㅕㄴ(": 1607,
      "ㅁㅗㄷㅜ</w>": 1608,
      "ㅇㅣㅇㅓ": 1609,
      "ㅏㅇㅢ</w>": 1610,
      "ㅅㅔㄱㅖ</w>": 1611,
      "ㅇㅟㄹㅡㄹ</w>": 1612,
      "us": 1613,
      "et": 1614,
      "2014ㄴㅕㄴ</w>": 1615,
      "ㅍㅏㅇ": 1616,
      "ㄷㅚㄹ</w>": 1617,
      "ㅇㅏㅍ": 1618,
      "ㅇㅣㅈㅏ</w>": 1619,
      "ㄲㅗ": 1620,
      "ㄷㅗㅅㅣ": 1621,
      ")ㅇㅔ</w>": 1622,
      "ㅇㅏㅂㅓ": 1623,
      "ㄷㅗㄱ</w>": 1624,
      "ㄱㅓ</w>": 1625,
      "2011ㄴㅕㄴ</w>": 1626,
      "ㅁㅜㄴㅈㅔ": 1627,
      "ㅅㅣㅋ": 1628,
      "ㅈㅏㅅㅣㄴㅇㅢ</w>": 1629,
      "TV</w>": 1630,
      "ㄱㅗㄱ</w>": 1631,
      "ㅎㅕㄴㅈㅐ": 1632,
      "ㄷㅗㄴ": 1633,
      "ㅂㅔㅇㅣ": 1634,
      "ㄱㅝㄴ</w>": 1635,
      "ㅈㅗㄴㅈㅐ": 1636,
      "an</w>": 1637,
      "ㅁㅠ": 1638,
      "2008ㄴㅕㄴ</w>": 1639,
      "ㅈㅜㅇㅇㅏㅇ": 1640,
      "ㅇㅜㄴ</w>": 1641,
      "ㅍㅜㅁ": 1642,
      "29": 1643,
      "ㄹㅗ,</w>": 1644,
      "ㅇㅡㄴㅏ,</w>": 1645,
      "ㅎㅟ": 1646,
      "ㅇㅣㅅㅏㅇ": 1647,
      "ㄱㅐㅂㅏㄹ": 1648,
      "ㄷㅣ</w>": 1649,
      "ㅇㅕㅆㄷㅏ.</w>": 1650,
      "ㅈㅏㅇㅢ</w>": 1651,
      "ㅎㅏㅇ</w>": 1652,
      "and</w>": 1653,
      "ㅇㅏㅂ": 1654,
      "2018ㄴㅕㄴ</w>": 1655,
      "ㅁㅏㅌ": 1656,
      "2015ㄴㅕㄴ</w>": 1657,
      "ㄴㅇㅢ</w>": 1658,
      "2009ㄴㅕㄴ</w>": 1659,
      "ㅌㅏㅁ": 1660,
      "ㅇㅕㅆ": 1661,
      "ㄹㅣㄴㅡㄴ</w>": 1662,
      "ㅈㅗㅎ": 1663,
      "ㅊㅏㅁㄱㅗ</w>": 1664,
      "ㅇㅏㄹㅡ": 1665,
      "ㄱㅘㄴㄱㅖ": 1666,
      "ㄴㅏㅌㅏㄴ": 1667,
      "ri": 1668,
      "ㅅㅣㄱㅏㄴ": 1669,
      "2013ㄴㅕㄴ</w>": 1670,
      "ㅇㅑ</w>": 1671,
      "ㄱㅜㄱㅁㅣㄴ": 1672,
      "ㅂㅜㄴ</w>": 1673,
      "ㄷㅡㅇㅇㅡㄹ</w>": 1674,
      "ㅇㅣㄹㅂㅏㄴ": 1675,
      "ㄱㅣㅅㅜㄹ": 1676,
      "2016ㄴㅕㄴ</w>": 1677,
      "ㅈㅗㄹㅇㅓㅂ": 1678,
      "ㅈㅣㅇㅝㄴ": 1679,
      "ㅎㅏㅈㅣㅁㅏㄴ</w>": 1680,
      "ㅊㅗㅇ</w>": 1681,
      "ㅌㅣㅁ": 1682,
      "ㅈㅜㄹ": 1683,
      "ㅇㅣㅆㅇㅡㅁㅕ,</w>": 1684,
      "ㅅㅜㅅㅏㅇ": 1685,
      "ㄱㅗㅇ</w>": 1686,
      "ㅅㅜㄱ": 1687,
      "ㄱㅣㅇㅢ</w>": 1688,
      "ㄱㅓㄹ": 1689,
      "ㅇㅕㄱㅅㅣ</w>": 1690,
      "ㅂㅔㄹ": 1691,
      "ㄷㅐㅎㅏㄱ</w>": 1692,
      "ㄷㅡㅇㅈㅏㅇ": 1693,
      "ㄱㅗㅇㅅㅣㄱ</w>": 1694,
      "2017ㄴㅕㄴ</w>": 1695,
      "ㄱㅗㄷㅡㅇㅎㅏㄱㄱㅛ</w>": 1696,
      "ㄹㅣㅂ</w>": 1697,
      "ㅈㅔ1": 1698,
      "ㄷㅙ": 1699,
      "ㅈㅓㄴㅇㅔ</w>": 1700,
      "2007ㄴㅕㄴ</w>": 1701,
      "ㅈㅓ</w>": 1702,
      "ra": 1703,
      "ㅋㅔㅇㅣ": 1704,
      "ㅂㅏ</w>": 1705,
      "ㅌㅣ</w>": 1706,
      "ㅇㅣㅎㅜ": 1707,
      "ㄱㅕㅇㅈㅔ": 1708,
      "ㅍㅕㄴ</w>": 1709,
      "ㄱㅡㄹㅓ": 1710,
      "2019ㄴㅕㄴ</w>": 1711,
      "ㅏㅇㅣ": 1712,
      "in</w>": 1713,
      "ㄱㅐㄱ": 1714,
      "ㄹㅣㅇㅏ</w>": 1715,
      "ㅈㅏㄴㅡㄴ</w>": 1716,
      "ing</w>": 1717,
      "ㅎㅠ": 1718,
      "ㅅㅣㄹ</w>": 1719,
      "KBS": 1720,
      "ㄱㅏㄹㅣ": 1721,
      "50": 1722,
      "op": 1723,
      "ㄸㅏㄹㅡ": 1724,
      "ㅇㅡㄹㅗㄴㅡㄴ</w>": 1725,
      "ㅈㅏㅇㅠ": 1726,
      "ㅎㅚㅇㅢ": 1727,
      "ㅅㅣㅈㅡㄴ</w>": 1728,
      "ㅅㅡㄹㅡㄹ</w>": 1729,
      "ㄹㅗㅇㅜㄴ</w>": 1730,
      "ㅂㅏㄹㄱㅕㄴ": 1731,
      "es</w>": 1732,
      "ㅇㅣㄴㅁㅣㄴ": 1733,
      "ㅇㅐㄴㅣㅁㅔㅇㅣ": 1734,
      "em": 1735,
      "ㅈㅜㅇㅅㅣㅁ": 1736,
      "ㅇㅜㅅㅡㅇ": 1737,
      "ㅅㅓㄹㅊㅣ": 1738,
      "ㅊㅡㅇ": 1739,
      "ㅅㅏㅁㅏㅇ": 1740,
      "ㅈㅣㄴㅎㅐㅇ": 1741,
      "ㄱㅣㅈㅜㄴ": 1742,
      "ㅈㅏㄴ": 1743,
      "ㄷㅐㅎㅐ</w>": 1744,
      "ㄴㅏㅇㅣ": 1745,
      "ㅁㅗㄴ": 1746,
      "ㅅㅏㄱㅓㄴ": 1747,
      "ㄱㅕㅇㅅㅏㅇ": 1748,
      "ㄱㅜㅇ": 1749,
      "ㅍㅛ</w>": 1750,
      "ㅈㅜㅇㅛ</w>": 1751,
      "ㅎㅏ</w>": 1752,
      "ing": 1753,
      "ㅎㅏㅂ</w>": 1754,
      "ㅁㅐㄴ": 1755,
      "190": 1756,
      "ㄱㅗㅇㄱㅕㄱ": 1757,
      "ㄷㅗㄹㅗㄱ</w>": 1758,
      "ㅂㅏㄹㅍㅛ": 1759,
      "ㅅㅏㅁㅏㅇ</w>": 1760,
      "ㅗㄴ</w>": 1761,
      "(198": 1762,
      "ㅇㅐㄹ": 1763,
      "ㄴㅡㄹ": 1764,
      "ㅇㅕ</w>": 1765,
      "ㅈㅓㄴㅈㅐㅇ": 1766,
      "ㅈㅜㅈㅏㅇ": 1767,
      "ㅅㅏㄹㅏㅇ": 1768,
      "ㅇㅣㄹㅓㅎㅏㄴ</w>": 1769,
      "ent": 1770,
      "ㅎㅏㅁㅕ,</w>": 1771,
      "=\"": 1772,
      "(C": 1773,
      "ㅂㅣㄴ": 1774,
      "ㅁㅏㅇㅣ": 1775,
      "ㅈㅜㄹㅗ</w>": 1776,
      "ㅅㅣㅈㅡㄴ": 1777,
      "ㅆㅏㅇ": 1778,
      "ㅂㅗㄹ</w>": 1779,
      "ㅎㅗㄹ": 1780,
      "ㅇㅢㅁㅣ": 1781,
      "ㅊㅗㄷㅡㅇㅎㅏㄱㄱㅛ</w>": 1782,
      "ㅋㅓㅂ</w>": 1783,
      "ㄴㅓㅁ": 1784,
      "km": 1785,
      "ㅅㅓㅁ": 1786,
      "ㄹㅕㄱㅇㅡㄹ</w>": 1787,
      "2006ㄴㅕㄴ</w>": 1788,
      "ㅇㅓㅁ": 1789,
      "ㅈㅗㄱ</w>": 1790,
      "ㄴㅕㄴㅂㅜㅌㅓ</w>": 1791,
      "ㅈㅣㅇㅢ</w>": 1792,
      "ㅈㅗㄴ</w>": 1793,
      "ㅂㅔㄹㅡ": 1794,
      "FA</w>": 1795,
      "ㅅㅏㄱㅏ</w>": 1796,
      "ㅍㅡㄹㅗㄱㅡㄹㅐㅁ</w>": 1797,
      "ㅂㅏㄺ": 1798,
      "ㄱㅜㅇㅢ</w>": 1799,
      "ㅇㅏㄱ</w>": 1800,
      "ec": 1801,
      "ㄹㅕㅇ</w>": 1802,
      "ㅈㅏㄹㅣ": 1803,
      "ㅑㄱ": 1804,
      "ㅅㅏㅇㅢ</w>": 1805,
      "ㅋㅏㅁ": 1806,
      "ㄷㅡㄹㅣ": 1807,
      "ㅊㅓㅇ</w>": 1808,
      "2020ㄴㅕㄴ</w>": 1809,
      "ㅎㅏㅁㅕㄴ</w>": 1810,
      "ㅂㅏㄹㅅㅐㅇ": 1811,
      "ㅈㅓㅇㅇㅡㄹ</w>": 1812,
      "...</w>": 1813,
      "ㄷㅐㅎㅚ": 1814,
      "ㅈㅏㄹㅡㄹ</w>": 1815,
      "ㅂㅏㄹ</w>": 1816,
      "ㄴㅕㅁ": 1817,
      "ㅇㅣㄹ:</w>": 1818,
      "ㅍㅏ</w>": 1819,
      "000": 1820,
      "ㅊㅕ</w>": 1821,
      "ㄱㅣㄴㅡㄴ</w>": 1822,
      "ㄷㅏㄹㄹㅣ": 1823,
      "ㅇㅕㅇㅎㅑㅇ": 1824,
      "ㄴㅏㅁ</w>": 1825,
      "ㅓㄹ</w>": 1826,
      "ad": 1827,
      ").</w>": 1828,
      "ㅇㅓㄹ": 1829,
      "ㅁㅗㄱㄹㅗㄱ</w>": 1830,
      "ㅅㅡㅍㅗ": 1831,
      "ㅇㅣㄹㅂㅜ": 1832,
      "ㅎㅐㅇㅈㅓㅇ": 1833,
      "ㅅㅡㄱㅏ</w>": 1834,
      "ㄱㅏㅇ</w>": 1835,
      "ag": 1836,
      "ㅌㅡㄹㅣ": 1837,
      "ㅅㅓ,</w>": 1838,
      "ㅈㅏ,</w>": 1839,
      "ㅂㅏㅇㅅㅗㅇ</w>": 1840,
      "ㄹㅓㄴ": 1841,
      "ㄲㅣ": 1842,
      "ㅂㅏㄷㅇㅏㅆㄷㅏ.</w>": 1843,
      "ㅊㅏㅁㅇㅕ": 1844,
      "ㄴㅗㄱ": 1845,
      "ㅍㅏㄴ</w>": 1846,
      "ㄷㅡㅇㅎㅏㄱㄱㅛ": 1847,
      "ㅎㅐㅆㄷㅓㄴ</w>": 1848,
      "ㄴㅏㄴ</w>": 1849,
      "ㅉㅗㄱ</w>": 1850,
      "ㄹㅏㅁ": 1851,
      "ㅇㅣㅇㅔ</w>": 1852,
      "ㅅㅟ": 1853,
      "ㄱㅘㅎㅏㄱ": 1854,
      "ㅁㅣㄴ</w>": 1855,
      "ㅈㅔ3": 1856,
      "ㄱㅕㅇㅇㅜ</w>": 1857,
      "ㅈㅕㅆ": 1858,
      "ㅇㅓㅄㄴㅡㄴ</w>": 1859,
      "ㅊㅓㄹㄷㅗㅇ": 1860,
      "ㅇㅝㄹㅇㅔ</w>": 1861,
      "192": 1862,
      "ㅊㅏㅁㄱㅏ</w>": 1863,
      "ㅂㅣㄹ": 1864,
      "ㅈㅐㅇ</w>": 1865,
      "ㅁㅗㄷㅔ": 1866,
      "ㅈㅓㄴㅌㅜ": 1867,
      "ㅈㅜㄴ</w>": 1868,
      "St": 1869,
      "ㄷㅗㅋ": 1870,
      "ㅎㅏㅇㅕㅆㄱㅗ,</w>": 1871,
      "ㅇㅠㄹ": 1872,
      "ㅇㅕㅁ": 1873,
      "ㅇㅟㅊㅣㅎㅏㄴ</w>": 1874,
      "ㅅㅓㄱ</w>": 1875,
      "ㅇㅏㄷㅡㄹ": 1876,
      "ㄴㅕㄴㅇㅔㄴㅡㄴ</w>": 1877,
      "ㄷㅐㄹㅡㄹ</w>": 1878,
      "ㄷㅗㄹㅡㄹ</w>": 1879,
      "ㅇㅐㄱ": 1880,
      "ㅅㅐㄹㅗㅇㅜㄴ</w>": 1881,
      "ㅂㅏㅇㅣ": 1882,
      "ㅇㅓㄷ": 1883,
      "ㄱㅘㅇㅢ</w>": 1884,
      "ㅇㅣㄱㅗ</w>": 1885,
      "(A": 1886,
      "ㄱㅏㅁㄷㅗㄱ</w>": 1887,
      "ㅕㄹ": 1888,
      "ㅎㅐㅆㄱㅗ,</w>": 1889,
      "ㄱㅣㄱㅏ</w>": 1890,
      "ㅁㅐㅇ": 1891,
      "ㅊㅏㅁㄱㅏ": 1892,
      "(M": 1893,
      "ㄱㅏㅌㄷㅏ.</w>": 1894,
      "ㅅㅏㄴㅡㄴ</w>": 1895,
      "ㅅㅣㅅㅡㅌㅔ": 1896,
      "ㄷㅠ": 1897,
      "ㅊㅏㅈ": 1898,
      "ㅅㅓㅇㅇㅣ</w>": 1899,
      "MBC</w>": 1900,
      "ㄷㅏㅇㅑㅇ": 1901,
      "ㅍㅡㄹㄹㅔㅇㅣ": 1902,
      "ㅌㅗㄹ": 1903,
      "ㄹㅣㄱ": 1904,
      "ㅍㅏㄱ": 1905,
      "ㅈㅜㅇㄱㅜㄱ": 1906,
      "ㄴㅏㄹ</w>": 1907,
      "ㅇㅣㄴㅎㅐ</w>": 1908,
      "ㄷㅐㅇㅔ</w>": 1909,
      "ㅇㅗㄴ</w>": 1910,
      "ㅅㅐㅇㄱㅏㄱ": 1911,
      "os": 1912,
      "ㅁㅛ": 1913,
      "ㄷㅚㅈㅣ</w>": 1914,
      "ㅇㅣㄹ)</w>": 1915,
      "ㅇㅣㅁ</w>": 1916,
      "ㅇㅟㅇㅝㄴㅎㅚ</w>": 1917,
      "BS</w>": 1918,
      "ㄸㅓ": 1919,
      "ㄱㅣㄹㅗ</w>": 1920,
      "iv": 1921,
      "ㅇㅣㅇㄱㅡㄹ": 1922,
      "ㄱㅡㄴㅕ": 1923,
      "ㅂㅕㄹ</w>": 1924,
      "ㄷㅔㄴ": 1925,
      "ㅂㅔㄴ": 1926,
      "ㅇㅗㅅㅡㅌㅡㄹ": 1927,
      "ㄱㅣㅇㅝㄴ": 1928,
      "ㄷㅗㄱㄹㅣㅂ": 1929,
      "ㅈㅣㅂ</w>": 1930,
      "ㄹㅗㄹ": 1931,
      "ㄹㅠ</w>": 1932,
      "ㅇㅛㅎㅏㄴ</w>": 1933,
      "ㄱㅘㄴㄹㅣ": 1934,
      "ㄷㅡㄴㅡㄴ</w>": 1935,
      "ㅁㅗ</w>": 1936,
      "ㅊㅓㄴ</w>": 1937,
      "ㅎㅖ": 1938,
      "ㅁㅏㄴㄷㅡㄹ": 1939,
      "ㅅㅜㅅㅏㅇ</w>": 1940,
      "ㄷㅡㄹㄱㅘ</w>": 1941,
      "ㄷㅔㅂ": 1942,
      "ㄲㅜ": 1943,
      "ㅅㅡ,</w>": 1944,
      "oc": 1945,
      "ㅂㅡㄹㅏ": 1946,
      "ㅇㅔㅅㅓㄷㅗ</w>": 1947,
      "|-</w>": 1948,
      "2005ㄴㅕㄴ</w>": 1949,
      "ㅊㅚㅊㅗ": 1950,
      "ㅅㅏㅇㅌㅐ": 1951,
      "ed": 1952,
      "ㄱㅕㄹㅈㅓㅇ": 1953,
      "ㅁㅕㅇㅇㅡㄹ</w>": 1954,
      "ㅇㅣㅇㅑ": 1955,
      "ㅇㅡㅁㅇㅏㄱ</w>": 1956,
      "In": 1957,
      "ㄹㅗㅅ": 1958,
      "TV": 1959,
      "ㅇㅕㄹㄹㅣ": 1960,
      "ㅎㅕㅇㅌㅐ": 1961,
      "ir": 1962,
      "ㅅㅏㅇㅓㅂ": 1963,
      "40": 1964,
      "ㄹㅣㄱㅏ</w>": 1965,
      "ㅂㅜㄹㄹㅣ": 1966,
      "ㅇㅡㅁㅂㅏㄴ": 1967,
      "ㅈㅜㅇㄱㅜㄱ</w>": 1968,
      "ㅅㅓㅇㅇㅢ</w>": 1969,
      "ㅂㅜㅌ": 1970,
      "ㅎㅏㄴㅏ": 1971,
      "ㅁㅕㅇㅇㅣ</w>": 1972,
      "ul": 1973,
      "ㅅㅓㅇㄱㅗㅇ": 1974,
      "ㅇㅣㅇㄱㅡㄹㄹㅐㄴ": 1975,
      "ㅌㅐㅇㅓㄴㅏ": 1976,
      "ㅅㅜㄴㅡㄴ</w>": 1977,
      "ㄱㅏㄴㅇㅢ</w>": 1978,
      "ㅋㅓㄴ": 1979,
      "ㅇㅐ</w>": 1980,
      "ㅇㅜㄴㅇㅕㅇ": 1981,
      "100": 1982,
      "ㅆㅓ</w>": 1983,
      "ㅔㅇㅣㅈㅣ</w>": 1984,
      "ㄱㅜㄹ": 1985,
      "ㅅㅡㅌㅓ": 1986,
      "ㅌㅡㄱㅎㅣ</w>": 1987,
      "ㄹㅣㅇㅔ</w>": 1988,
      "ㅁㅏㄹㅣ": 1989,
      "ㄱㅜㄱㄱㅏㄷㅐㅍㅛ": 1990,
      "ㅂㅐㄴ": 1991,
      "ㄷㅏㅇㅡㅁ</w>": 1992,
      "KBS</w>": 1993,
      "um": 1994,
      "ㄹㅣ,</w>": 1995,
      "ㅊㅓㄹㅓ": 1996,
      "ㅈㅣㄹ</w>": 1997,
      "2004ㄴㅕㄴ</w>": 1998,
      "ㄱㅐㅇ": 1999,
      "ㄲㅡㄹ": 2000,
      "ㅇㅓㄱ": 2001,
      ")ㅇㅡㄹ</w>": 2002,
      "ㅁㅕㄴ,</w>": 2003,
      "ㅂㅜㅅㅏㄴ": 2004,
      "ㅂㅐㄱㅕㅇ": 2005,
      "ㅌㅐㅇ": 2006,
      "ㅇㅣㅆㄷㅓㄴ</w>": 2007,
      "ㄹㅗㄴㅡㄴ</w>": 2008,
      ".1": 2009,
      "ㅅㅏㅅㅣㄹ": 2010,
      "ㄷㅚㅇㅓㅆㄱㅗ,</w>": 2011,
      "ㅈㅏㄱㄱㅗㄱ": 2012,
      "ㄷㅐㅎㅏㄱㄱㅛ": 2013,
      "ㅁㅇㅔ</w>": 2014,
      "ㅊㅜㄹㅇㅕㄴ</w>": 2015,
      "ㅇㅣㄹㅏ</w>": 2016,
      "ㅎㅏㅇㄱㅗㅇ": 2017,
      "ㅅㅣㄱㅇㅡㄹ</w>": 2018,
      "ㅊㅓㅇㅡㅁ": 2019,
      "ㄱㅏㅂ": 2020,
      "ㄱㅣㄱㅘㄴ": 2021,
      "ㄱㅚ": 2022,
      "ㄱㅘㄴㄹㅕㄴ": 2023,
      ")ㄹㅡㄹ</w>": 2024,
      "ㄱㅏㅅㅜ</w>": 2025,
      "ㅈㅣㄴㄷㅏ.</w>": 2026,
      "ㅁㅇㅡㄹㅗ</w>": 2027,
      "ㅍㅗ</w>": 2028,
      "189": 2029,
      "ㅅㅓㄴㅇㅢ</w>": 2030,
      "ㅅㅡㄴ</w>": 2031,
      "ㄴㅜㄴ": 2032,
      "ㅅㅜㅇㅢ</w>": 2033,
      "od": 2034,
      "ed</w>": 2035,
      "ㄷㅗㄴㅡㄴ</w>": 2036,
      "ㅅㅜㄱㅏ</w>": 2037,
      "ㅍㅗㅇ": 2038,
      "ㅂㅜㄱㄷㅗ</w>": 2039,
      "ㅂㅣㅅㅡ": 2040,
      "ㄱㅏㅈㅣ</w>": 2041,
      "ㅈㅜㅇㅎㅏㄱㄱㅛ</w>": 2042,
      "ㅊㅓㄹㄷㅗ</w>": 2043,
      "ㅇㅑㅇ</w>": 2044,
      "ㅇㅐㄴㅣㅁㅔㅇㅣㅅㅕㄴ</w>": 2045,
      "ㄹㅕㄴ</w>": 2046,
      "-1": 2047,
      "ㄷㅡㄹㅇㅔㄱㅔ</w>": 2048,
      "ㅆㅣ</w>": 2049,
      "ㅈㅗㅈㅣㄱ": 2050,
      "(P": 2051,
      "ㅁㅕ,</w>": 2052,
      "ㅋㅡㄹㄹㅓ": 2053,
      "ㄹㅡㄴ": 2054,
      "ㅁㅐㅇㅜ</w>": 2055,
      "ㅅㅏㅁㅜ": 2056,
      "):</w>": 2057,
      "ㄱㅜㄴㅡㄴ</w>": 2058,
      "ㅇㅘㅇ</w>": 2059,
      "||": 2060,
      "ㅁㅍㅣ": 2061,
      "0ㄴㅕㄴㄷㅐ</w>": 2062,
      "ation": 2063,
      "ㅈㅏㄹㅛ</w>": 2064,
      "ㅈㅓㅇㅂㅗ": 2065,
      "Ch": 2066,
      "ㄱㅕㅇㄱㅣ</w>": 2067,
      "ㅂㅓ</w>": 2068,
      "ㄸㅏㄹㅏ": 2069,
      "ㄷㅐㅎㅚ</w>": 2070,
      "ㅈㅏㄹㅗ</w>": 2071,
      "2021ㄴㅕㄴ</w>": 2072,
      "ㄱㅏㅈㅣㄱㅗ</w>": 2073,
      "ㄱㅡㄱ</w>": 2074,
      "ㅅㅡㄴ": 2075,
      "ㅔㄴ": 2076,
      "ers": 2077,
      "ㅇㅣㄹㅜㅇㅓ": 2078,
      "ㅈㅓㅁㅇㅡㄹ</w>": 2079,
      "ㅈㅣㅈㅓㅇ": 2080,
      "ㅇㅟㅇㅔ</w>": 2081,
      "ㅅㅐㅇㅅㅏㄴ": 2082,
      "ㄷㅐㅌㅗㅇㄹㅕㅇ": 2083,
      "ㅇㅣㄴㅇㅣ</w>": 2084,
      "ㅂㅜㅇㅢ</w>": 2085,
      "ㄱㅣㅇㅓㅂ": 2086,
      "ㅇㅔ,</w>": 2087,
      "ㅈㅏㄷㅗㅇ": 2088,
      "ㅎㅐㄱ": 2089,
      "ㅈㅚ": 2090,
      "ㅇㅜㄹ</w>": 2091,
      "ㄹㅏㄴ</w>": 2092,
      "ㅅㅜㄹㅡㄹ</w>": 2093,
      "ㄹㄹㅏㄴ": 2094,
      "ㅋㅐㄴㅏ": 2095,
      "ㅊㅓㄹㅓㅁ</w>": 2096,
      "ㅅㅣㅂ": 2097,
      "ㅎㅕㄱ</w>": 2098,
      "ㄷㅗㄱㅏ</w>": 2099,
      "ㅎㅗㅁㅍ": 2100,
      "ㄱㅡㄹ</w>": 2101,
      "ㅇㅝㄹㄷㅡ": 2102,
      "ㅎㅏㄱㅣㄷㅗ</w>": 2103,
      "ㄹㅠㄹ": 2104,
      "ㄱㅖㅎㅚㄱ": 2105,
      "ㅡㄹㅗ</w>": 2106,
      "ㅁㅏㅈㅣ": 2107,
      "ㅅㅗㅅㅗㄱ": 2108,
      "ㅇㅛㄱ": 2109,
      "ㅂㅕㄴㄱㅕㅇ": 2110,
      "ㄹㅣㅇㅢ</w>": 2111,
      "ㄷㅐㅎㅏㄴㅁㅣㄴㄱㅜㄱ": 2112,
      "ㄱㅣㅌㅏ</w>": 2113,
      "ㅈㅓㄴㅇㅡㄹ</w>": 2114,
      "ㄴㅕㄴㄲㅏㅈㅣ</w>": 2115,
      "ㅂㅡㄹㅣ": 2116,
      "ㅈㅡㄱ": 2117,
      "ㅈㅓㄹ</w>": 2118,
      "ㅎㅏㄱㅈㅏ</w>": 2119,
      "ㅏㄱㅏ</w>": 2120,
      "ㅇㅣㄹㅂㅜ</w>": 2121,
      "ㅈㅏㄹ</w>": 2122,
      "ㅇㅓ,</w>": 2123,
      "ㄱㅗㄹㅕ": 2124,
      "ot": 2125,
      "ㅊㅗ</w>": 2126,
      "ㄹㅗㅂㅜㅌㅓ</w>": 2127,
      "ㄹㄹㅏ": 2128,
      "ㅇㅔㅅㅓㅇㅢ</w>": 2129,
      "ㅍㅡㅌㅡ": 2130,
      "ㅅㅓㅇㅜㄹㅌㅡㄱㅂㅕㄹ": 2131,
      "ㅍㅡㄹㅏㅇㅅㅡ</w>": 2132,
      "BS": 2133,
      "ㅇㅏㅁㅔ": 2134,
      "ㅌㅗㄴ": 2135,
      "ㅈㅔㄱㅗㅇ": 2136,
      "ㅎㅚㅇㅢ</w>": 2137,
      "ㄹㅔㄱ": 2138,
      "20ㅅㅔㄱㅣ</w>": 2139,
      "ㅈㅣㅇㅕㄱ</w>": 2140,
      "ㅅㅗㅈㅐ": 2141,
      "ㅇㅣㄴㅁㅣㄴㄱㅗㅇㅎㅘ": 2142,
      "ㄷㅗㅅㅣ</w>": 2143,
      "ㅊㅜㄹㅅㅣㄴ": 2144,
      "ov": 2145,
      "ㅊㅓㄹ</w>": 2146,
      "FI": 2147,
      "ㅗㄴㅡㄴ</w>": 2148,
      "ㅇㅕㅇㄱㅜㄱ": 2149,
      "ㄱㅘㄴㅎㅏㄴ</w>": 2150,
      "ㅌㅔㄴ": 2151,
      "2002ㄴㅕㄴ</w>": 2152,
      "ㄸㅗ</w>": 2153,
      "ㅅㅡㅇㅘ</w>": 2154,
      "ㅇㅣㅆㅇㅡㅁㅕ</w>": 2155,
      "ㅋㅏㅇㅣ": 2156,
      "ㅁㅗㄱ</w>": 2157,
      "ㅇㅏㅍㅡㄹㅣ": 2158,
      "ㄱㅕㄹㄱㅘ</w>": 2159,
      "ㅘㅇ": 2160,
      "ㅊㅓㄹㄷㅗㅇㅕㄱ</w>": 2161,
      ")ㄱㅏ</w>": 2162,
      "ㄱㅓㅇㅢ</w>": 2163,
      "ㅎㅏㄱㅅㅐㅇ": 2164,
      "ㅁㅓㄱ": 2165,
      "ㅈㅜㅇㅇㅔ</w>": 2166,
      "ㄱㅓㄴㅊㅜㄱ": 2167,
      "ㅊㅏㅈㅣ": 2168,
      "ㅂㅓㅁ</w>": 2169,
      "or</w>": 2170,
      "ㄱㅜㅈㅗ": 2171,
      "ㄷㅟ</w>": 2172,
      "ㅇㅟㄴ": 2173,
      "ㅈㅟ": 2174,
      "ㄷㅐㅂㅜㅂㅜㄴ": 2175,
      "ㄱㅓㅈㅜ": 2176,
      "ㅂㅏㅇㅂㅓㅂ": 2177,
      "ㄷㅐㅈㅓㄴ": 2178,
      "og": 2179,
      "ㅇㅣㄴㅁㅜㄹ</w>": 2180,
      "ㅇㅣㅇㅠ": 2181,
      "2003ㄴㅕㄴ</w>": 2182,
      "ㅈㅏㅇㅇㅣ</w>": 2183,
      "ㄱㅡㄹㅜㅂ</w>": 2184,
      "ㅁㅏㄹㅡ": 2185,
      "ㄸㅓㄹ": 2186,
      "ㅅㅏ,</w>": 2187,
      "ㅅㅜㄹ</w>": 2188,
      "ㅅㅡㅋㅗ": 2189,
      "ㅎㅘㄹㅡㄹ</w>": 2190,
      "ㄴㅐㅇㅛㅇ": 2191,
      "ㅌㅏㅂ": 2192,
      "ㄱㅕㅇㄹㅕㄱ</w>": 2193,
      "ㄱㅣㄴ</w>": 2194,
      "im": 2195,
      "()ㅇㅔ</w>": 2196,
      "2000ㄴㅕㄴ</w>": 2197,
      "ㄸㅏ": 2198,
      "ㅇㅖㅅㅜㄹ": 2199,
      "us</w>": 2200,
      "ㅎㅏㅇㅣ": 2201,
      "ㄱㅕㄹㄱㅘ": 2202,
      "ㄱㅠㄴ": 2203,
      "ㄹㅛ</w>": 2204,
      "ㅅㅐㅇㅎㅘㄹ": 2205,
      "ㅇㅚㄱㅜㄱ": 2206,
      "ㄷㅓㄴ": 2207,
      "ap": 2208,
      "ㅁㅜㄴㅎㅏㄱ": 2209,
      "ㅇㅣㄴㅁㅜㄹ": 2210,
      "(197": 2211,
      "ㅃㅏㄹ": 2212,
      "ㅊㅓㄱ": 2213,
      "FC": 2214,
      "2)</w>": 2215,
      "ㅎㅏㄴㄱㅜㄱ</w>": 2216,
      "ㄴㅗㄹㅐ": 2217,
      "ㅇㅡㅁㅇㅡㄹ</w>": 2218,
      "ㄷㅏㅇㅣ": 2219,
      "ㅈㅏㅊㅣ": 2220,
      "ㅇㅣㄴㄱㅜ</w>": 2221,
      "ㄴㅗㄷㅗㅇ": 2222,
      "ㅇㅜㅅㅡㅇ</w>": 2223,
      "ㅎㅢ</w>": 2224,
      "ㄹㅗㄴ</w>": 2225,
      "1,": 2226,
      "ㅋㅓㅁㅍ": 2227,
      "ㄱㅡㄴ</w>": 2228,
      "ㅈㅓㄴㅈㅐㅇ</w>": 2229,
      "ab": 2230,
      "ㅅㅐㄱ</w>": 2231,
      "()ㅇㅡㄹ</w>": 2232,
      "ㄱㅣㅇㅝㄴㅈㅓㄴ</w>": 2233,
      "ㅁㅗㅅㅡㅂ": 2234,
      "ㅊㅣㄱ": 2235,
      "ㅇㅓㅁㅓㄴ": 2236,
      "ㄹㅗㅅㅓ</w>": 2237,
      "ㅅㅏㄴㅇㅓㅂ": 2238,
      "ㄹㅏㄹ": 2239,
      "ㅅㅡ(": 2240,
      "ㅎㅓㄴ</w>": 2241,
      "ㅈㅜㄴㅡㄴ</w>": 2242,
      "ㅂㅐㄱㅕㅇㅇㅡㄹㅗ</w>": 2243,
      ")ㅇㅣ</w>": 2244,
      "ㅇㅏㅁㅔㄹㅣ": 2245,
      "ㄹㄹㅓ</w>": 2246,
      "ㅅㅡㅌㅓ</w>": 2247,
      "ㅎㅐㅆㅇㅡㅁㅕ,</w>": 2248,
      "60": 2249,
      "FC</w>": 2250,
      "ㅊㅜㅇㅊㅓㅇ": 2251,
      "ㄷㅏ\"": 2252,
      "ㄱㅔㅇㅣㅁ": 2253,
      "ㅊㅜㄴ": 2254,
      "ㅋㅡㄹㅗ": 2255,
      "ㄱㅡㄹㅐ": 2256,
      "ㅂㅗㄴㅐ": 2257,
      "ㅈㅣㄴㅐ": 2258,
      "ㅎㅗㅁㅍㅔㅇㅣㅈㅣ</w>": 2259,
      "ter": 2260,
      "ㄱㅕㅇㅊㅏㄹ": 2261,
      "ㄱㅘㅈㅓㅇ": 2262,
      "ㅁㅏㄶㅇㅣ</w>": 2263,
      "ㅇㅕㅇㄱㅜㄱ</w>": 2264,
      "ㅎㅏㄷㅓㄴ</w>": 2265,
      "ㅇㅣㄹㅂㅜㅌㅓ</w>": 2266,
      "ㅁㅏㄱ</w>": 2267,
      "ㄱㅡㅁ</w>": 2268,
      "ㅍㅣㄴ": 2269,
      "ㄷㅏㅇㅑㅇㅎㅏㄴ</w>": 2270,
      "ㅎㅕㄹ": 2271,
      "ㅎㅔㄴ": 2272,
      "ㅇㅏㄶㅇㅏㅆ": 2273,
      "ㅈㅓㅇㅊㅐㄱ": 2274,
      "ㄱㅜㄴㅇㅡㄴ</w>": 2275,
      "ㅇㅕㅇㄱㅜㄱㅇㅢ</w>": 2276,
      "ㅇㅣㅈㅓㄴ": 2277,
      "ㅂㅓㅅㅡ</w>": 2278,
      "ㄹㅡ</w>": 2279,
      "ㄱㅏ,</w>": 2280,
      "ㅍㅔㅇㅣ": 2281,
      "ㅇㅑㄱㅜ</w>": 2282,
      "ㅈㅏㄱㅇㅡㄴ</w>": 2283,
      "ㄱㅏㅇㅜㄴ": 2284,
      "ㅇㅓㅄㅇㅣ</w>": 2285,
      "ㅂㅕㄱ": 2286,
      "ㅈㅣㄱㅏ</w>": 2287,
      "ㅌㅡㅇㅢ</w>": 2288,
      "ㅘㄹ": 2289,
      "ㅇㅓㄴ</w>": 2290,
      "ㅍㅡㄹㅏㅇㅅㅡㅇㅢ</w>": 2291,
      "ㄹㅐ</w>": 2292,
      "ㅋㅠ": 2293,
      "ㄸㅟ": 2294,
      "ㅊㅜㄹ</w>": 2295,
      "ㅈㅜㅇㅎㅘ": 2296,
      "ㅎㅐㅆㄱㅗ</w>": 2297,
      "ㄱㅘㄴㄹㅕㄴ</w>": 2298,
      "ㄸㅓㄹㅇㅓ": 2299,
      "ㅅㅡㅇㅟ": 2300,
      "ㅇㅕㄱㅎㅏㄹ": 2301,
      "ㅇㅝㄹ,</w>": 2302,
      "li": 2303,
      "ㅈㅗㅅㅓㄴ</w>": 2304,
      "ㅎㅜㅇㅔ</w>": 2305,
      "ㅇㅏㅇㅣㄹ": 2306,
      "ㅉㅣ": 2307,
      "1)</w>": 2308,
      "ㅅㅏㅇㅇㅢ</w>": 2309,
      "ㅔㄱㅔ</w>": 2310,
      "ㄴㅏㅁㄷㅗ</w>": 2311,
      "en</w>": 2312,
      "ㄹㅣㄱㅡ": 2313,
      "ㄱㅜㄱㅈㅔ</w>": 2314,
      "ㅇㅕㄱㄷㅐ</w>": 2315,
      "ㅂㅜㅇㅔ</w>": 2316,
      "ㅍㅐㄴ": 2317,
      "ㅇㅕㄴㅎㅏㅂ": 2318,
      "ㅍㅔㄴ": 2319,
      "ㄹㅣㅇㅏㅇㅢ</w>": 2320,
      "ㄹㅗㅁㅏ</w>": 2321,
      "ㅇㅣㅇㅓ</w>": 2322,
      "ㅎㅘㄴ</w>": 2323,
      "ㅇㅠㄴㅣ": 2324,
      "ㅅㅓㄹㅗ</w>": 2325,
      "ㅇㅘㅇㅢ</w>": 2326,
      "ㅊㅜㄱㄱㅜ": 2327,
      "ㄱㅗㄴ": 2328,
      "ㅌㅜ</w>": 2329,
      "ㅅㅡㅌㅗ": 2330,
      "ㅁㅜ</w>": 2331,
      "ㅍㅓ</w>": 2332,
      "ㅇㅏㄶㅇㅏㅆㄷㅏ.</w>": 2333,
      "ut": 2334,
      "ㅊㅐㅁㅍㅣ": 2335,
      "ㅍㅣㄹㅇㅛ": 2336,
      "ㅂㅏㄹㅡ": 2337,
      "ㄹㅔㄴ": 2338,
      "(B": 2339,
      "ㅇㅕㄴㄱㅕㄹ": 2340,
      "ㅇㅠㄹㅓㅂ": 2341,
      "ㅇㅣㄹㅇㅡㄹ</w>": 2342,
      "ㄱㅕㄹㄱㅜㄱ</w>": 2343,
      "ㄴㅗㅍㅇㅡㄴ</w>": 2344,
      "ㅎㅡㄹ": 2345,
      "ㅈㅏㅇㅇㅡㄴ</w>": 2346,
      "ㅈㅣㅇㅔ</w>": 2347,
      "ㄷㅚㅇㅓㅆㅇㅡㅁㅕ,</w>": 2348,
      "ㅅㅓㅇㅜㄹ</w>": 2349,
      "and": 2350,
      "-0": 2351,
      "le</w>": 2352,
      "ㄱㅐㅇㅛ</w>": 2353,
      "ㅅㅡㄹㅣ": 2354,
      "ㅇㅣㄹㅇㅓㄴㅏ": 2355,
      "ㅇㅕㄱㅅㅏ": 2356,
      "ㅂㅗㅇㅣ": 2357,
      "ㅎㅏㄱㅖ</w>": 2358,
      "ㅇㅡㄹㅗㅅㅓ</w>": 2359,
      "ㄱㅐㅊㅚ": 2360,
      "ㅇㅓㅄㄷㅏ.</w>": 2361,
      "ㄷㅚㄴ": 2362,
      "ㄱㅓㄴㅏ</w>": 2363,
      "ㅁㅣㄴㅈㅗㄱ": 2364,
      "ㅅㅐㅇㅇㅐ</w>": 2365,
      "ㅅㅣㄷㅐ</w>": 2366,
      "ㄱㅜㄱㄱㅏㄷㅐㅍㅛㅌㅣㅁ</w>": 2367,
      "ㅎㅏㅇㅕㅆㅇㅡㅁㅕ,</w>": 2368,
      "ㅇㅔㄱㅔ": 2369,
      "2001ㄴㅕㄴ</w>": 2370,
      "ㅁㅔㄷㅏㄹㄹㅣ": 2371,
      "ㅅㅕ": 2372,
      "ㅁㅏㄴㄷㅡㄹㅇㅓ": 2373,
      "ㅇㅣㄴㅇㅡㄹ</w>": 2374,
      ")ㅇㅔㅅㅓ</w>": 2375,
      "SBS</w>": 2376,
      "ㄱㅣㄴㅡㅇ": 2377,
      "e)</w>": 2378,
      "ㅁㅕㅊ</w>": 2379,
      "ㅍㅛㅎㅕㄴ": 2380,
      "ea": 2381,
      "ㄷㅜㅇ": 2382,
      "1.": 2383,
      "ㅈㅓㄴㅁㅜㄴ": 2384,
      "ㅈㅡㄹ": 2385,
      "ㅅㅣㄱㅏㄴ</w>": 2386,
      "ㅇㅣㄴㅈㅓㅇ": 2387,
      "ㅈㅓㅂ</w>": 2388,
      "ㄷㅗㄱㅇㅣㄹ</w>": 2389,
      "ㅈㅣㄴㅊㅜㄹ": 2390,
      "ㅇㅠㅈㅣ": 2391,
      "ㄹㄹㅗ": 2392,
      "ㅂㅏㄹㅈㅓㄴ": 2393,
      "ㅂㅣㄷㅣㅇㅗ</w>": 2394,
      "ㅈㅓㄱㅇㅡㄴ</w>": 2395,
      "ㅈㅏㄱㅍㅜㅁ": 2396,
      "ㅋㅜ</w>": 2397,
      "ㅇㅠㄹㅓㅂ</w>": 2398,
      "ㅂㄱㅔ</w>": 2399,
      "ㅅㅣㅇㄱㅡㄹ</w>": 2400,
      "ㅇㅠㅁㅕㅇ": 2401,
      "ㄱㅕㅇㄱㅣㄷㅗ</w>": 2402,
      "ㅍㅖㅈㅣ": 2403,
      "ㄷㅐㅅㅏㅇ": 2404,
      "ㅅㅓㅇㅢ</w>": 2405,
      "ㅍㅗㄹㅡ": 2406,
      "ㅇㅏㄴㅣㄹㅏ</w>": 2407,
      "ㅇㅕㅇㅎㅑㅇㅇㅡㄹ</w>": 2408,
      "ㅎㅏㅇㅕ,</w>": 2409,
      "ㄱㅗㅇㄱㅐ": 2410,
      "ow": 2411,
      "ㅁㅕㄹ": 2412,
      "188": 2413,
      "ㄱㅏㄴㅡㄴ</w>": 2414,
      "e,</w>": 2415,
      "ㅃㅜㄴ": 2416,
      "ㅇㅣㄴㄷㅏ.</w>": 2417,
      "ㅅㅏㄹㅗ</w>": 2418,
      "si": 2419,
      "ㅇㅡㄹㅗㅂㅜㅌㅓ</w>": 2420,
      "ㅇㅝㄴㅇㅡㄹ</w>": 2421,
      "ㄱㅗㅇㄷㅗㅇ": 2422,
      "ㅅㅣㄹㅣㅈㅡ</w>": 2423,
      "ㅁㅔㄷㅏㄹㄹㅣㅅㅡㅌㅡ</w>": 2424,
      "ㅇㅔㅇㅣ": 2425,
      "1996ㄴㅕㄴ</w>": 2426,
      "ㅎㅏㅇㅕㅆㄱㅗ</w>": 2427,
      "ㄷㅣㅈㅏ": 2428,
      "ㅂㅏㄷㅇㅡㄴ</w>": 2429,
      "ㅂㅏㄺㅎㅕ": 2430,
      "1999ㄴㅕㄴ</w>": 2431,
      "ㄷㅙㅆㄷㅏ.</w>": 2432,
      "ㅇㅏㄶㅇㅡㄴ</w>": 2433,
      "ㅅㅓㄴㅇㅡㄹ</w>": 2434,
      "ㅎㅐㅇㅑ</w>": 2435,
      "ㅈㅏㅇㅇㅡㄹㅗ</w>": 2436,
      "ㅈㅏㅇㅕㄴ": 2437,
      "Re": 2438,
      "ㅇㅣㄷㅗㅇ": 2439,
      "ㅇㅣㄹㅡㅁㅇㅡㄹ</w>": 2440,
      "1998ㄴㅕㄴ</w>": 2441,
      ",000": 2442,
      "ay": 2443,
      "ㄷㅡㄹㅡㄹ</w>": 2444,
      "ㅈㅓㅇㅇㅢ": 2445,
      "ㅎㅐㄷㅏㅇ": 2446,
      "ph": 2447,
      "ㅈㅔ4": 2448,
      "ㅊㅘㄹ": 2449,
      "ㅇㅣㄹㅗㄴ": 2450,
      "ㅋㅓㅁㅍㅠ": 2451,
      "ㄹㅕ</w>": 2452,
      "ㄱㅗㅅㅗㄱ": 2453,
      "ㅇㅣㅆㅇㅓ</w>": 2454,
      "ㄱㅣㄴㅕㅁ": 2455,
      "ign": 2456,
      "ㄱㅗㅇㅎㅏㅇ</w>": 2457,
      "ㄱㅣㄷㅗㄱ": 2458,
      "ㅍㅡㄹㅔ": 2459,
      "ㅈㅔㄹㅗ</w>": 2460,
      "ㅅㅖ": 2461,
      "ㅈㅜㅇㅕㄴ": 2462,
      "ㅎㅕㄴㅇㅢ</w>": 2463,
      "ㄷㅗㄱㅇㅣㄹㅇㅢ</w>": 2464,
      "ㅈㅏㅇㅇㅢ</w>": 2465,
      "ㄴㅏㄴㅡㄴ</w>": 2466,
      "ht": 2467,
      "ㄱㅝㄴㅇㅡㄹ</w>": 2468,
      "ㄱㅜㄱㅎㅚㅇㅢ": 2469,
      ")ㅇㅘ</w>": 2470,
      "ㅂㅏㄷㅇㅏㅆ": 2471,
      "ㅁㅜㄹㅇㅡㄹ</w>": 2472,
      "ㄱㅓㄹㅣ</w>": 2473,
      "ㅌㅡㄹㅡㄹ</w>": 2474,
      "ㅅㅏㅇㅎㅘㅇ": 2475,
      "(D": 2476,
      "ㅋㅗㅁㅣ": 2477,
      "ㄷㅔㅂㅟ": 2478,
      "ㅇㅡㄹㅗㅆㅓ</w>": 2479,
      "ㄸㅏㅇ": 2480,
      "ㅂㅏㅇㅅㅣㄱ": 2481,
      "ㅇㅓㅅㅓ</w>": 2482,
      "ㄱㅓㄴㅅㅓㄹ": 2483,
      "ㅅㅡㄹㅗ</w>": 2484,
      "FIFA</w>": 2485,
      "ㄱㅜㄴㅇㅔ</w>": 2486,
      "ㄱㅣㅇㅓㅂ</w>": 2487,
      "ㅉㅗㄱㅇㅡㄹㅗ</w>": 2488,
      "2.": 2489,
      "80": 2490,
      "ㅇㅣㄴㅇㅡㄴ</w>": 2491,
      "ㅇㅏㄶㄱㅗ</w>": 2492,
      "70": 2493,
      "ㅁㅏㄹ</w>": 2494,
      "ㅇㅏ,</w>": 2495,
      "ㄷㅏㄹ</w>": 2496,
      "ㄲㅗㅊ": 2497,
      "ㅅㅡㅋㅣ": 2498,
      "ㅍㅜㅁ</w>": 2499,
      "ㅅㅗㅅㅓㄹ": 2500,
      "31": 2501,
      "ㄴㅗㅎ": 2502,
      "ㅊㅣㄴ</w>": 2503,
      "ㄱㅅㅡ</w>": 2504,
      "ㄷㅚㅁㅕㄴㅅㅓ</w>": 2505,
      "ㅇㅕㄹㄹㅣㄴ</w>": 2506,
      "ㅇㅞㅂ": 2507,
      "ㅅㅗㅍㅡㅌㅡ": 2508,
      "ㅅㅓㅇㅇㅜ</w>": 2509,
      "ㅅㅏㄱㅘㄴ": 2510,
      "ㅅㅓㄹㄹㅣㅂ</w>": 2511,
      "ㅅㅜㄹㅗㄱ": 2512,
      "ㅈㅣㅎㅏ": 2513,
      "ㄷㅏㄴㅊㅔ": 2514,
      "ㅇㅓㄹㅡㄹ</w>": 2515,
      "ㅈㅏㅇㅘ</w>": 2516,
      "ㅇㅛㅅㅣ": 2517,
      "ㄴㅣ</w>": 2518,
      "ㅇㅕㅅㅓㅇ": 2519,
      "ㅎㅐ,</w>": 2520,
      "ㅎㄱㅔ</w>": 2521,
      "()ㄹㅡㄹ</w>": 2522,
      "(L": 2523,
      "ㅇㅜㅁ": 2524,
      "ㄹㅓ</w>": 2525,
      "ㄱㅜㄴㅇㅣ</w>": 2526,
      "ㅂㅜㄹㅡㄹ</w>": 2527,
      "ㅂㅜㄴㄹㅠ": 2528,
      "21ㅅㅔㄱㅣ</w>": 2529,
      "ㅁㅏㅇㅡㄹ": 2530,
      "ㅁㅣㅅㅜㄹ": 2531,
      "ㅇㅣㅁㅁㅕㅇ": 2532,
      "7ㄴㅕㄴ)</w>": 2533,
      "ㅅㅏㅇㅔ</w>": 2534,
      "ㅇㅣㄴㅊㅓㄴ": 2535,
      "ㅁㅔㅁ": 2536,
      "ㄱㅛㅎㅚ": 2537,
      "ㅆㅓ": 2538,
      "ㅊㅣㄴㅡㄴ</w>": 2539,
      "ㅊㅗㄴ</w>": 2540,
      "ㄱㅛㅌㅗㅇ</w>": 2541,
      "191": 2542,
      "ㅇㅝㄴㅇㅢ</w>": 2543,
      "8ㄴㅕㄴ)</w>": 2544,
      "-2": 2545,
      "ㅅㅓㄴㄱㅓ</w>": 2546,
      "ㅈㅣㄷㅗ": 2547,
      "ㅇㅣㄹㅇㅡ": 2548,
      "ㅌㅡㄹㅗ": 2549,
      "(E": 2550,
      "ㄱㅡㄱㅏ</w>": 2551,
      "ㄱㅕㄹㅎㅗㄴ": 2552,
      "ㄹㅖ": 2553,
      "ㅗㄱㅏ</w>": 2554,
      "ㄴㅔㅇㅣ": 2555,
      "ㅇㅏㄹ</w>": 2556,
      "ㅅㅣㄷㅐ": 2557,
      "5ㄴㅕㄴ)</w>": 2558,
      "ㅁㅔㄴ": 2559,
      "ㄱㅡㄹㅜㅂ": 2560,
      "ㅇㅗㅂㅡ</w>": 2561,
      "6ㄴㅕㄴ)</w>": 2562,
      "ㅅㅓㅂㅣ": 2563,
      "(196": 2564,
      "ㄷㅜㄱㅗ</w>": 2565,
      "ㅅㅡㅇㅔ</w>": 2566,
      "ㄴㅏㅈ": 2567,
      "ㅆㄱㅗ,</w>": 2568,
      "ㅎㅗㅁ": 2569,
      "ㅋㅟ": 2570,
      "ㅈㅣㄱㅡㅁ": 2571,
      "ㅅㅏㅇㄷㅐ": 2572,
      "ㅇㅏㄶㄴㅡㄴ</w>": 2573,
      "ㅈㅏㅇ,</w>": 2574,
      "ㄱㅏㄹㅣㅋㅣ": 2575,
      "ㅎㅣㄹㅗ": 2576,
      "1997ㄴㅕㄴ</w>": 2577,
      "ㅁㅗㄷㅔㄹ": 2578,
      "ㅂㅏㄷㅇㅏ</w>": 2579,
      "ㅇㅢㅎㅏㄴ</w>": 2580,
      "ㅔㅇㅣㄹ": 2581,
      "ㅎㅏㄱㄱㅘ</w>": 2582,
      "ㄱㅠ</w>": 2583,
      "ㅈㅡㄱ</w>": 2584,
      "ㅇㅕㄴㅎㅕㄱ</w>": 2585,
      "ㅇㅏㄹㅏ": 2586,
      "ㄱㅛㅌㅗㅇ": 2587,
      "ㅇㅓㄸ": 2588,
      "ㅂㅐㅇㅜㅇㅣㄷㅏ.</w>": 2589,
      "ㅅㅔㅇㅢ</w>": 2590,
      "ㅁㅜㄴㅇㅡㄹ</w>": 2591,
      "ㅊㅜㄹㅈㅓㄴ": 2592,
      "ㅎㅕㅇㅅㅓㅇ": 2593,
      "ㅅㅡㅌㅏㄴ": 2594,
      "ㅏㅇㅘ</w>": 2595,
      "15ㅇㅣㄹ</w>": 2596,
      "ㅎㅘㅇ</w>": 2597,
      "ㅈㅔㄹㅡㄹ</w>": 2598,
      "ㄹㅑㄱ": 2599,
      "ㅎㅐㅇㅈㅓㅇ</w>": 2600,
      "ㅈㅓㄴㅎㅣ</w>": 2601,
      "ㅍㅣㄹㄹㅣ": 2602,
      "ㄷㅗㄹㅗ": 2603,
      "ㅈㅣㄴㅣ": 2604,
      "1995ㄴㅕㄴ</w>": 2605,
      "ㅇㅏㅋㅣ": 2606,
      "ㅅㅡㅇㅞ": 2607,
      "ㅎㅘㄹㅇㅑㄱ": 2608,
      "ㅂㅣㄴ</w>": 2609,
      "ㅍㅗㄴ": 2610,
      "ㅁㅜㄴㅎㅓㄴ</w>": 2611,
      "ㄱㅘㅇㅇㅕㄱㅅㅣ</w>": 2612,
      "ㅃㅏ": 2613,
      "ㅇㅜㄴㅎㅐㅇ": 2614,
      "(KBS": 2615,
      "ㄷㅏㅇㅢ</w>": 2616,
      "ㄹㄹㅏ</w>": 2617,
      "1ㄴㅕㄴ)</w>": 2618,
      "ㅌㅓㄴ</w>": 2619,
      "ㅇㅏㅇㅜ": 2620,
      "ㄷㅡㄹㅇㅔ</w>": 2621,
      "ㅇㅕㅇㅎㅘㅇㅣㄷㅏ.</w>": 2622,
      "ㅏㅇㅜㄴ": 2623,
      "ㄴㅗㄹㅐ</w>": 2624,
      "ㅎㅘㄴㄱㅕㅇ": 2625,
      "ㄷㅗ,</w>": 2626,
      "ㄱㅜㅇㅕㄱ</w>": 2627,
      "ㅕㅇ</w>": 2628,
      "35": 2629,
      "ㄹㅓㅅㅣㅇㅏ</w>": 2630,
      "ㅇㅔㄴ</w>": 2631,
      "ㄷㅏㄴㅇㅢ</w>": 2632,
      "ㅁ,</w>": 2633,
      "ㅇㅓㄹㅗ</w>": 2634,
      "ㅇㅠㅇ": 2635,
      "ack": 2636,
      "2014": 2637,
      "ㅅㅡㅇㅔㅅㅓ</w>": 2638,
      "3)</w>": 2639,
      "ㄹㅕㄱㅇㅣ</w>": 2640,
      "ㄴㅡㄴ,</w>": 2641,
      "ㅇㅏㄷㅡㄹ</w>": 2642,
      "ㅈㅔㅇㅚ": 2643,
      "ㅊㅓㅇㅡㅁ</w>": 2644,
      "av": 2645,
      "ㅇㅣㅅㅡㄹ": 2646,
      "ㅈㅓㅇㅎㅏㄴ</w>": 2647,
      "ㄱㅏㅈㅣㄴ</w>": 2648,
      "ㅂㅔㅌㅡ": 2649,
      "ㄴㅏㅁㅜ": 2650,
      "ㅅㅏㅇㅜ": 2651,
      "ㅍㅡㄹㅗ</w>": 2652,
      "ㅅㅏㅇㅣㅌㅡ</w>": 2653,
      "di": 2654,
      "ㅎㅡㄱ": 2655,
      "2ㅇㅣㄹ</w>": 2656,
      "sp": 2657,
      "ㄱㅏㅈㅗㄱ": 2658,
      "ㅈㅜㅇㅇㅛㅎㅏㄴ</w>": 2659,
      "ㅁㅕㅇ)</w>": 2660,
      "ㅅㅏㅇㅣㅇㅔ</w>": 2661,
      "km</w>": 2662,
      "ㅋㅡㅇㅢ</w>": 2663,
      "2ㄴㅕㄴ)</w>": 2664,
      "ㅋㅓㅂ": 2665,
      "ㅂㅐ</w>": 2666,
      "ㅎㅗㅅㅓㄴ</w>": 2667,
      "ㅂㅣㅊ": 2668,
      "ㅇㅓㄸㅓㄴ</w>": 2669,
      "3ㄴㅕㄴ)</w>": 2670,
      "2,</w>": 2671,
      "ㅈㅓㅇㅂㅜ</w>": 2672,
      "ㄷㅐㅌㅗㅇㄹㅕㅇ</w>": 2673,
      "ㅅㅡㅍㅗㅊㅡ</w>": 2674,
      "ㄱㅅㅣ": 2675,
      "ㅊㅣㅇ</w>": 2676,
      "ㅈㅔㄱㅜㄱ": 2677,
      "ㅇㅏㄹㅐ": 2678,
      "ㅇㅕㅈㅏ": 2679,
      "ㄱㅏㄹㅡㄹ</w>": 2680,
      "ㄴㅏㄹㅏ</w>": 2681,
      "ㄸㅏㄹㅏㅅㅓ</w>": 2682,
      "ㅁㅏㄹㅎㅏㄴㄷㅏ.</w>": 2683,
      "ㄷㅗㅇㅅㅣㅇㅔ</w>": 2684,
      "ㅎㅜ,</w>": 2685,
      "ㅇㅣㄱㅏ</w>": 2686,
      "ㅅㅡㅇㄱㅏㅇ": 2687,
      "ㅎㅏㄱㅈㅏ": 2688,
      "ㅅㅓㅇㅜㄹㅌㅡㄱㅂㅕㄹㅅㅣ</w>": 2689,
      "ㄷㅗㅅㅓ": 2690,
      "ㅁㅜㄹㄹㅣ": 2691,
      "ㅈㅔㄱㅏ</w>": 2692,
      "ㅍㅡㄹㅗㄷㅠ": 2693,
      "()ㅇㅣ</w>": 2694,
      "ㅊㅓ</w>": 2695,
      "ㄱㅏㅇㅢ</w>": 2696,
      "ㅂㅏㄹㅗ</w>": 2697,
      "ㅈㅣㅇㅕㄱㅇㅢ</w>": 2698,
      "ㅇㅏㄹㄹㅕㅈㅕ</w>": 2699,
      "ㅈㅣㄹㅗ</w>": 2700,
      "ㅇㅏㄶㄴㅡㄴㄷㅏ.</w>": 2701,
      "ㅏㅆㄷㅏ.</w>": 2702,
      "ㄱㅏㅇㅜㄴㄷㅔ</w>": 2703,
      "10ㅇㅣㄹ</w>": 2704,
      "oo": 2705,
      "ㅇㅠㄱ</w>": 2706,
      "1994ㄴㅕㄴ</w>": 2707,
      "ㅂㅗㅇㅕ": 2708,
      "ㄱㅣㄴ": 2709,
      "ㅇㅣㄱㅗ,</w>": 2710,
      "ㅌㅗㅇㅎㅏㅂ": 2711,
      "ㅅㅗㄹㅡㄹ</w>": 2712,
      "ㅋㅡㄱㅔ</w>": 2713,
      "yle": 2714,
      "ㄷㅐㅈㅓㄴ</w>": 2715,
      "4ㄴㅕㄴ)</w>": 2716,
      "ㅂㅕㅇ</w>": 2717,
      "ㅊㅔㅇㅢ</w>": 2718,
      "ㅅㅣㄹㅣㅈㅡ": 2719,
      "ㅈㅣ,</w>": 2720,
      "Un": 2721,
      "ㄷㅗㅇㅜ": 2722,
      "ㅈㅓㄱㅇㅣ</w>": 2723,
      "ㅈㅓㄴㅇㅔㅅㅓ</w>": 2724,
      "ㅇㅝㄴㅇㅣ</w>": 2725,
      "ㄱㅜㄱㅏ</w>": 2726,
      "ㅇㅏㅇㅣㄹㄹㅐㄴ": 2727,
      "ㅎㅏㄴㄷㅏㄴㅡㄴ</w>": 2728,
      "'s</w>": 2729,
      "ㄱㅖㅇㅑㄱ": 2730,
      "ㅎㅕㄴㄷㅐ": 2731,
      "ㅇㅣㄴㅌㅓㄴ": 2732,
      "2ㄴㅕㄴ": 2733,
      "(N": 2734,
      "ㅅㅓㄹㄹㅣㅂㄷㅚㄴ</w>": 2735,
      "ㅂㅣㄹㅗㅅ": 2736,
      "ㅇㅕㄱㅐㄱ": 2737,
      "ㅅㅜㅎㅐㅇ": 2738,
      "ak": 2739,
      "ㄷㅗㅇㅁㅜㄹ": 2740,
      "ㅍㅜㄹ": 2741,
      "ㅊㅘㄹㅇㅕㅇ": 2742,
      "ㄱㅕㄱ</w>": 2743,
      "ㅎㅗㄱㅇㅡㄴ</w>": 2744,
      "(T": 2745,
      "ㄱㅐㄱㅛ</w>": 2746,
      "ㄹㅔㅋㅗ": 2747,
      "7)</w>": 2748,
      "ㅈㅓㄱㅇㅡㄹ</w>": 2749,
      "6)</w>": 2750,
      "ㄱㅛㅅㅜ</w>": 2751,
      "ㅇㅣㅇㅢ</w>": 2752,
      "8)</w>": 2753,
      "ㅊㅐㄴ": 2754,
      "(G": 2755,
      "ㄷㅏㅇㅇㅢ</w>": 2756,
      "ㅊㅣㄹㅡㄹ</w>": 2757,
      "ㅂㅐㅇㅜ,</w>": 2758,
      "ㄱㅜㄴㅇㅡㄹ</w>": 2759,
      "5)</w>": 2760,
      "ㅅㅜㄷㅗ</w>": 2761,
      "ㅎㅜㅋㅜ": 2762,
      "align": 2763,
      "ㅈㅔㅇㅢ</w>": 2764,
      "ㅊㅗㄷㅡㅇㅎㅏㄱㄱㅛ": 2765,
      "ㅊㅔㄹㅡㄹ</w>": 2766,
      "ㅁㅏㅈㅣㅁㅏㄱ</w>": 2767,
      "ㅎㅏㄹㅕ": 2768,
      "ㅂㅣㅇㅏ</w>": 2769,
      "MBC": 2770,
      "ㅇㅣㄹㅡㅁ": 2771,
      "ㅅㅏㄱㅓㄴ</w>": 2772,
      "ㅂㅜㄱ</w>": 2773,
      "ㅊㅐㅁㅍㅣㅇㅓㄴ": 2774,
      "ㄷㅏㄹㅡ": 2775,
      "ㅅㅓㅂ": 2776,
      "ㅇㅔㄹ": 2777,
      "ㅇㅕㄱㅣ": 2778,
      "ㅇㅣㅅㅏㅇ</w>": 2779,
      "ㄱㅕㅇㄱㅣㅇㅔㅅㅓ</w>": 2780,
      "2022ㄴㅕㄴ</w>": 2781,
      "ㅊㅚㅊㅗㅇㅢ</w>": 2782,
      "ㅊㅜㄹㅍㅏㄴ": 2783,
      "ㄱㅏㄱㄱㅏㄱ</w>": 2784,
      "ㅛㅇ</w>": 2785,
      "ㄷㅗㅇㅔ</w>": 2786,
      "ㅈㅓㄴㄱㅜㄱ": 2787,
      "ㅊㅕ": 2788,
      "ㅇㅗㄹㅡ": 2789,
      "ㅗㄷㅗ</w>": 2790,
      "ㄱㅗㅇㅇㅕㄴ": 2791,
      ")ㄹㅗ</w>": 2792,
      "4)</w>": 2793,
      "ㅈㅔ5": 2794,
      "et</w>": 2795,
      "ㅜㄹ": 2796,
      "s,</w>": 2797,
      "ㅁㅐ</w>": 2798,
      "ㅂㅏㄷㅏ": 2799,
      "ㅇㅣㄹㄲㅏㅈㅣ</w>": 2800,
      "ㄴㅔㄷㅓ": 2801,
      "ㅇㅣㄴㄱㅜㄴㅡㄴ</w>": 2802,
      "ㄷㅐㄱㅏ</w>": 2803,
      "ㅎㅘㄱㅏ</w>": 2804,
      "ㅈㅣㄱㅗ</w>": 2805,
      "ㅇㅟㅇㅝㄴ</w>": 2806,
      "ㅍㅔㄹㅡ": 2807,
      "is</w>": 2808,
      "1992ㄴㅕㄴ</w>": 2809,
      "ㅈㅏㄱㅇㅛㅇ": 2810,
      "ㄴㅔㄷㅓㄹㄹㅏㄴ": 2811,
      "ㄷㅐㅍㅛ</w>": 2812,
      "ㅏㄹㅣ": 2813,
      "ㅅㅡㅋㅡ": 2814,
      "ㅈㅏㅇㅇㅔ</w>": 2815,
      ")ㄱㅘ</w>": 2816,
      "ㅎㅐㅇㄷㅗㅇ": 2817,
      "ㄴㅔ</w>": 2818,
      "ㄴㅡㅇ</w>": 2819,
      "20ㅇㅣㄹ</w>": 2820,
      "ㅇㅢㅇㅝㄴ</w>": 2821,
      "ㅅㅡ)</w>": 2822,
      "ㅈㅔㄱ": 2823,
      "ㅌㅡㄴㅡㄴ</w>": 2824,
      "style": 2825,
      "ㅇㅣㅁㅇㅡㄹ</w>": 2826,
      "(H": 2827,
      "ㅇㅐㄹㅂㅓㅁ</w>": 2828,
      "ㅅㅜㄹㅗ</w>": 2829,
      "ㅁㅏㅁ": 2830,
      "ㄱㅣㄹ</w>": 2831,
      "ㅍㅏㄴㅁㅐ": 2832,
      "ㄷㅗㅋㅛ": 2833,
      "ㅅㅣㄹㅅㅣ": 2834,
      "ㄱㅕㄹㅅㅡㅇ": 2835,
      "ㅇㅕㄱㅎㅏㄹㅇㅡㄹ</w>": 2836,
      "ㅇㅗㅍㅡ": 2837,
      "9ㄴㅕㄴ)</w>": 2838,
      "3.": 2839,
      "uc": 2840,
      "ㅇㅟㅇㅝㄴㅎㅚ": 2841,
      "ㅎㅐㅆㅇㅡㅁㅕ</w>": 2842,
      "ㅅㅓㅇㅇㅜ": 2843,
      "ㅅㅏㅇㅘ</w>": 2844,
      "ㅅㅏㄹㅕㅇ": 2845,
      "ㄱㅘㅇㅈㅜ": 2846,
      "ㅇㅚ</w>": 2847,
      "1ㄴㅕㄴ": 2848,
      "ㅏㄹㅗ</w>": 2849,
      "ㄷㅣㅈㅣ": 2850,
      "ㄹㅏㄷㅣㅇㅗ</w>": 2851,
      "ㅇㅛㄱㅜ": 2852,
      "ㅇㅣㄴ,</w>": 2853,
      "ㅁㅣㅇㅑ": 2854,
      "187": 2855,
      "ub": 2856,
      "ㄷㅐㄴㅡㄴ</w>": 2857,
      "ㅇㅣㅆㄷㅏㄱㅗ</w>": 2858,
      "ㄱㅘㄴㅡㄴ</w>": 2859,
      "ㅎㅡㄴ": 2860,
      "ㅁㅣㄴㅈㅜㅈㅜㅇㅢ": 2861,
      "ㄷㅚㅇㅓ": 2862,
      "ㅂㅜㅌㅓ": 2863,
      "ㅅㅔㄴㅌㅓ</w>": 2864,
      "ㅋㅐㅁ": 2865,
      "ㅈㅣㅎㅟ": 2866,
      "ㄱㅣㅈㅜㄴㅇㅡㄹㅗ</w>": 2867,
      "ㅂㅏㄷㄱㅗ</w>": 2868,
      "ㅅㅣㅅㅓㄹ": 2869,
      "ㅁㅕㅇㅇㅡㄴ</w>": 2870,
      "ㅇㅟㅇㅢ</w>": 2871,
      "5ㅇㅣㄹ</w>": 2872,
      "ㅇㅔㄴㅓ": 2873,
      "ㄹㅠㄱ": 2874,
      "ㅅㅣㅈㅓㄹ</w>": 2875,
      "at</w>": 2876,
      "ㅍㅗㄹㄹㅏㄴ": 2877,
      "ㅅㅓㅇㅇㅡㄴ</w>": 2878,
      "ㄴㅓㄼ": 2879,
      "ㄹㅣㄱㅡㅇㅢ</w>": 2880,
      "ㅇㅣㄴㄱㅏㄴ": 2881,
      "ㅇㅣㄴㅌㅓ": 2882,
      "ㅊㅜㄹㅅㅣ": 2883,
      "ㅎㅕㄴㅈㅐㅇㅢ</w>": 2884,
      "ㅇㅕㄱㅇㅡㄹ</w>": 2885,
      "30ㅇㅣㄹ</w>": 2886,
      "ㅇㅗㅅㅡㅌㅡㄹㅔㅇㅣㄹ": 2887,
      "art": 2888,
      "ell": 2889,
      "ran": 2890,
      "ㅂㅓㄴㅉㅐ": 2891,
      "ㄱㅡㄹㅡㄹ</w>": 2892,
      "ㄲㅐ": 2893,
      "ㅂㅜㄴㅡㄴ</w>": 2894,
      "ㅇㅕㄴㅈㅜ": 2895,
      "ㅅㅣㅈㅏㄱㅎㅐㅆㄷㅏ.</w>": 2896,
      "ㅏㄹㅡㄹ</w>": 2897,
      "ㅉㅏ": 2898,
      "ㅇㅣㅇㅓㅆㄷㅓㄴ</w>": 2899,
      "ㅊㅓㅇㅡㅁㅇㅡㄹㅗ</w>": 2900,
      "An": 2901,
      "ㅎㅗㄹㅡㄹ</w>": 2902,
      "ㅈㅣㄱㅜ": 2903,
      "36": 2904,
      "ㅈㅜㅇㄱㅜㄱㅇㅢ</w>": 2905,
      "ㄱㅗㅇㅅㅏㄴ": 2906,
      "ㅇㅝㄹㄷㅡㅋㅓㅂ</w>": 2907,
      "ㄹㅏㅇㅜㄴ": 2908,
      "ㅇㅗㄹㅐ": 2909,
      "ㅁㅏㄴㅇㅔ</w>": 2910,
      "ㄷㅗㅇㅣㅂ": 2911,
      "to</w>": 2912,
      "ㅇㅏㄴㅇㅔ</w>": 2913,
      "ㅂㅣㅍㅏㄴ": 2914,
      "ㄸㅡㅅㅇㅡㄴ</w>": 2915,
      "ㅈㅓㄴㄹㅏㄴ": 2916,
      "ㅌㅡㄱㅈㅣㅇ": 2917,
      "ㅇㅏㅋㅏ": 2918,
      "ㅇㅓㄴㅡㄴ</w>": 2919,
      "ㅁㅕㅇㅊㅣㅇ": 2920,
      "style=\"": 2921,
      "ㅅㅇㅡㄹ</w>": 2922,
      "186": 2923,
      "ㅇㅕㄹ</w>": 2924,
      "ㅇㅠㅇㅣㄹ": 2925,
      "ㅅㅔㄴㅌㅓ": 2926,
      "ㅂㅏㅇㅎㅑㅇ": 2927,
      "ㅇㅗㄻ": 2928,
      "ㅍㅕㅇㄱㅏ": 2929,
      "ㅇㅜㅇ": 2930,
      "und": 2931,
      "3ㄴㅕㄴ": 2932,
      "ㅅㅔㅇㅝ": 2933,
      "ㅈㅏㅇㅇㅔㅅㅓ</w>": 2934,
      "ㅅㅣㅁㅣㄴ": 2935,
      "ob": 2936,
      "ㅏㅇㅔ": 2937,
      "ㅎㅗㄴㅡㄴ</w>": 2938,
      "ㄴㅚ": 2939,
      "ㅇㅜㄱ</w>": 2940,
      "ㅇㅏㅂㅓㅈㅣ</w>": 2941,
      "ㅇㅏㄴㅣㄴ</w>": 2942,
      "ㅈㅣㄱㅈㅓㅂ</w>": 2943,
      "ㅇㅝㄴㅇㅡㄹㅗ</w>": 2944,
      "ㅋㅔㄴ": 2945,
      "ㅇㅣㅁㅣ</w>": 2946,
      "ㅂㅏㅁ": 2947,
      "ㅊㅚㄱㅗ": 2948,
      "ㄱㅜㄱㅏㄴ": 2949,
      "ㄷㅡㄴ": 2950,
      "ation</w>": 2951,
      "1993ㄴㅕㄴ</w>": 2952,
      "ㅅㅡㅍㅣ": 2953,
      "0e": 2954,
      "ㅁㅣㄴㅣ": 2955,
      "ㅈㅜㅇㅣㄴ": 2956,
      "ㅂㅣㅅㅡㅅ": 2957,
      "UE": 2958,
      "ev": 2959,
      "ㄷㅚㅇㅓㅆㄱㅗ</w>": 2960,
      "ㅈㅏㄹㅛ": 2961,
      "ㅋㅡㄹㅏ": 2962,
      "ㅈㅗㅇㅇㅢ</w>": 2963,
      "ff": 2964,
      "ㅁㅏㄷㅏ</w>": 2965,
      "45": 2966,
      "ㅋㅏㄴ</w>": 2967,
      "res": 2968,
      "ㅈㅓㅇㅂㅗ</w>": 2969,
      "ㅎㅓㅁ</w>": 2970,
      "(J": 2971,
      "(R": 2972,
      "(1": 2973,
      "ㅇㅚㄱㅜㄱㅇㅣㄴ</w>": 2974,
      "ㅁㅗㅇㅑㅇ": 2975,
      "ㅅㅜ,</w>": 2976,
      "ㅈㅓㄴㄹㅏㄴㅏㅁ": 2977,
      "ist": 2978,
      "ㄷㅏㅁㄷㅏㅇ": 2979,
      "(195": 2980,
      "28ㅇㅣㄹ</w>": 2981,
      "3ㅇㅣㄹ</w>": 2982,
      "()ㄱㅏ</w>": 2983,
      "ex": 2984,
      "ㅂㅕㄴ</w>": 2985,
      "1991ㄴㅕㄴ</w>": 2986,
      "ㅎㅏㅁ</w>": 2987,
      "ㅇㅣㄱㅣㄷㅗ</w>": 2988,
      "ㅍㅗㄴ</w>": 2989,
      "ㅍㅣ</w>": 2990,
      "2009": 2991,
      "ㅏㄴㄷㅏ.</w>": 2992,
      "ㅊㅣㄹ": 2993,
      "ㅇㅣㅆㅇㅡㄹ</w>": 2994,
      "ㅇㅙ": 2995,
      "25ㅇㅣㄹ</w>": 2996,
      "IS": 2997,
      "ㄹㅗㅂㅓ": 2998,
      "ㅇㅕㄴㄱㅣ": 2999,
      "ㅎㅘㄹㄷㅗㅇㅇㅡㄹ</w>": 3000,
      "ㅁㅕㅇ,</w>": 3001,
      "ㅇㅣㅆㄱㅗ,</w>": 3002,
      "ㄷㅏㄴㅣ": 3003,
      "4ㅇㅣㄹ</w>": 3004,
      "ㄷㅗㄹㅇㅏㅇ": 3005,
      "ㅇㅣㅌㅏㄹㄹㅣㅇㅏ</w>": 3006,
      "ㄱㅗㅇㅅㅣㄱ": 3007,
      "1990ㄴㅕㄴ</w>": 3008,
      "ㅅㅓㄹㅡㄹ</w>": 3009,
      "ㅁㄱㅘ</w>": 3010,
      "ㅋㅓㄹ</w>": 3011,
      "ㅌㅐㅇㅓㄴㅏㅆㄷㅏ.</w>": 3012,
      "ㅅㅣㄷㅐㅇㅢ</w>": 3013,
      "ㅈㅔㄴ": 3014,
      "ㅅㅣ,</w>": 3015,
      "ㅇㅣㄴㅣ": 3016,
      "ㄹㅣㄱ</w>": 3017,
      "ㅇㅏㄴㅐ": 3018,
      "ㅅㅗㅍㅡㅌㅡㅇㅞ": 3019,
      "ㅇㅟㄹㅗ</w>": 3020,
      "ㅎㅛㄱㅘ": 3021,
      "(F": 3022,
      "ㅋㅐㄹㅣㄱ": 3023,
      "ㅇㅗㅅㅏ": 3024,
      "ㄷㅗㅋㅛ</w>": 3025,
      "ㄷㅏㅂ": 3026,
      "ㅇㅜㄹㅣ": 3027,
      "ㅇㅖㅈㅓㅇ": 3028,
      "ㅋㅏㅇㅘ</w>": 3029,
      "ㅍㅡㄹㅗㅈㅔㄱ": 3030,
      "ㅁㅕㅇㅇㅣㄷㅏ.</w>": 3031,
      "ㄱㅗㄷㅡㅇㅎㅏㄱㄱㅛ": 3032,
      "ㅈㅗㄹㅇㅓㅂ</w>": 3033,
      "ㅈㅜㅁㅣㄴ": 3034,
      "ㅅㅗㄹㅕㄴ": 3035,
      "ㅇㅡㅂ": 3036,
      "eb": 3037,
      "ㄱㅏㅇㅇㅝㄴ": 3038,
      "ㄱㅜㄱㄱㅏ</w>": 3039,
      "ㅂㅜㅇ": 3040,
      "ㅇㅗㄴㅡㄹ": 3041,
      "ㅇㅝㄴㅇㅡㄴ</w>": 3042,
      "ㅈㅏㄱㅇㅓㅂ": 3043,
      "ㅏ,</w>": 3044,
      "ㅋㅣㅇ": 3045,
      "ㄱㅣㅂㅏㄴ": 3046,
      "1988ㄴㅕㄴ</w>": 3047,
      "ㄴㅗㄹㅡ": 3048,
      "ㄲㅏㅇ": 3049,
      "ㄱㅘㅇㅇㅕㄱ": 3050,
      "ㄷㅡㅇㅔ</w>": 3051,
      "ㅅㅗㅈㅐㄹㅗ</w>": 3052,
      "ㅎㅏㅈㅏ</w>": 3053,
      "ㅎㅐㅆㄷㅏㄱㅗ</w>": 3054,
      "ㅊㅡㅇ</w>": 3055,
      "90": 3056,
      "ㅈㅣㅇ</w>": 3057,
      "ㅋㅔ</w>": 3058,
      "ㄱㅗㅇㄱㅏㄴ": 3059,
      "ㅅㅓㄷㅗ</w>": 3060,
      "ㄱㅖㅅㅗㄱ": 3061,
      "ㅈㅓㄱㅇㅛㅇ": 3062,
      "ㅇㅗㄹㅣ": 3063,
      "ㅎㅏㄴㄷㅏㄱㅗ</w>": 3064,
      "ㄱㅓㅅ</w>": 3065,
      "ㄷㅣㅇㅗ": 3066,
      "ㅅㅣㅁ</w>": 3067,
      "ㅇㅏㄴㅡㄴ</w>": 3068,
      "ㅎㅏㅁㅕㄴ": 3069,
      "2008": 3070,
      "ㅂㅜㅂㅜㄴ</w>": 3071,
      "ㅇㅟㅎㅏㅇㅕ</w>": 3072,
      "1987ㄴㅕㄴ</w>": 3073,
      "ㅈㅏㄱㅣ": 3074,
      "ㅎㅜㅂㅗ": 3075,
      "ㅇㅓㅁㅓㄴㅣ": 3076,
      "ㅅㅐ</w>": 3077,
      "2015": 3078,
      "ㄱㅣㅎㅚㄱ": 3079,
      "ㅅㅜㅇ": 3080,
      "ㅇㅓㄱ</w>": 3081,
      "ㅇㅓㅇㅢ</w>": 3082,
      "ㅇㅕㄱㅇㅣㅁ": 3083,
      "ㅇㅖㄹㅡㄹ</w>": 3084,
      "ㄱㅕㅇㅇㅕㅇ": 3085,
      "ㄷㅜㄹ": 3086,
      "ㅈㅗㅇㄱㅛ": 3087,
      "ㅇㅏㄹㅣ": 3088,
      "ㅇㅣㄹㅏㄴ</w>": 3089,
      "ㅂㅏㄴㄷㅐ": 3090,
      ".2": 3091,
      "ㅈㅣㄹㄹ": 3092,
      "ic</w>": 3093,
      "ㄱㅓㄴㅁㅜㄹ": 3094,
      "ㄱㅖㄹㅡㄹ</w>": 3095,
      "ㅎㅘㄹㄷㅗㅇ</w>": 3096,
      "ㅈㅓㅇㅅㅣㄴ": 3097,
      "ㅎㅡㅂ": 3098,
      "ㄹㅑㅇ</w>": 3099,
      ")ㅇㅣㄷㅏ.</w>": 3100,
      "ㅇㅡㅂ</w>": 3101,
      "ㅈㅓㄴㅌㅗㅇ": 3102,
      "ㅊㅣㄴㄱㅜ": 3103,
      "ㅎㅜㄴ</w>": 3104,
      "ㄱㅛㅈㅏㅇ</w>": 3105,
      "48": 3106,
      "ㅅㅐㅇㅁㅜㄹ": 3107,
      "ㅎㅐㅅㅓㄴㅡㄴ</w>": 3108,
      "qu": 3109,
      "ㅍㅏㅇㅣ": 3110,
      "ㄷㅏ(": 3111,
      "ㄷㅐㅅㅏㅇ</w>": 3112,
      "ㅈㅓㅇㅇㅢ</w>": 3113,
      "7ㅇㅣㄹ</w>": 3114,
      "ㅇㅣㅆㄷㅏㄴㅡㄴ</w>": 3115,
      "ㅅㅣㅁㅏ": 3116,
      "ia</w>": 3117,
      "ㅆㅇㅡㅁㅕ,</w>": 3118,
      "enc": 3119,
      "ㄱㅜㄱㄷㅗ</w>": 3120,
      "ㅇㅢㅎㅚ": 3121,
      "ㄱㅏㅌㅗㄹ": 3122,
      "ㅅㅠㅍㅓ": 3123,
      "tion": 3124,
      "ㅅㅓㄴㅇㅣ</w>": 3125,
      "ㅇㅢㅎㅚ</w>": 3126,
      "ㅈㅗㅇㅎㅏㅂ": 3127,
      "ㅎㅘㄱㅇㅣㄴ": 3128,
      "ㅎㅏㄴㄱㅜㄱㅇㅢ</w>": 3129,
      "8ㅇㅣㄹ</w>": 3130,
      "ㄷㅡㅇㅇㅔ</w>": 3131,
      "ㄱㅠㄴ</w>": 3132,
      "ㅇㅣㅇㄱㅡㄹㄹㅐㄴㄷㅡㅇㅢ</w>": 3133,
      "ㅅㅏㅇㄷㅏㅇ": 3134,
      "oun": 3135,
      "ㄱㅗㅇㅎㅏㅇ": 3136,
      "ㅇㅓㄹㅣㄴ": 3137,
      "ㅇㅣㅅㅏㅇㅇㅢ</w>": 3138,
      "Al": 3139,
      "ㄷㅗㅇ,</w>": 3140,
      "ㅇㅜㅅㅡ</w>": 3141,
      "ㅇㅣㄴㅌㅓㄴㅔ": 3142,
      "ㅊㅏㄹㅑㅇ": 3143,
      "ㅎㅣㅁ": 3144,
      "ㅌㅣㅇ</w>": 3145,
      "ㅅㅓㄴㅌㅐㄱ": 3146,
      "ㅁㅏㄴㄷㅡㄴ</w>": 3147,
      "ㅁㅏㅇㅡㅁ": 3148,
      "ㅎㅏㄱㄱㅡㅂ</w>": 3149,
      "ㄷㅐㅅㅣㄴ</w>": 3150,
      "ㄷㅣㅈㅣㅌㅓ": 3151,
      "ㅅㅓㄹㅁㅕㅇ": 3152,
      "ㅅㅣㅁㅏ</w>": 3153,
      "ㅆㄷㅏㄱㅗ</w>": 3154,
      "ㅊㅓㄹㄷㅗㅇㅢ</w>": 3155,
      "26ㅇㅣㄹ</w>": 3156,
      "0ㄴㅕㄴ)</w>": 3157,
      "1989ㄴㅕㄴ</w>": 3158,
      "ㅇㅣㅇㅘ</w>": 3159,
      "ㄱㅜㅇㅕㄱ": 3160,
      "de</w>": 3161,
      "ㄴㅏㅇㅢ</w>": 3162,
      "ㅇㅣㄱㅓㅅㅇㅡㄴ</w>": 3163,
      "ㅊㅔㄱㅏ</w>": 3164,
      "ㅅㅓㄴㅈㅓㅇ": 3165,
      "14ㅇㅣㄹ</w>": 3166,
      "ㅂㅏㄱㅁㅜㄹ": 3167,
      "ㅍㅡㄹㅏㅇㅅㅡ": 3168,
      "ㅁㅣㄷㅣ": 3169,
      "ㅇㅜㅈㅜ": 3170,
      "ㅂㅣㅎㅐㅇ": 3171,
      "ㅇㅣㄹㅂㅏㄴㅈㅓㄱㅇㅡㄹㅗ</w>": 3172,
      "ㅌㅐ</w>": 3173,
      "11ㅇㅣㄹ</w>": 3174,
      "27ㅇㅣㄹ</w>": 3175,
      "ㅇㅣㄴㅇㅣㄷㅏ.</w>": 3176,
      "ㅂㅗㄱ</w>": 3177,
      "ㅎㅐㄹㅡㄹ</w>": 3178,
      "ㄱㅛㅇㅠㄱ</w>": 3179,
      "ㅇㅕㅇㅇㅓ</w>": 3180,
      "ㅇㅕㄴㅅㅗㄱ": 3181,
      "38": 3182,
      "OS": 3183,
      "ㄹㅛㅇ": 3184,
      "ㅊㅔㅇㅠㄱ": 3185,
      "ㅂㅜㄴㅇㅑ": 3186,
      "ㅎㅑㅇ</w>": 3187,
      "ㅂㅏㅇㅇㅕㅇ": 3188,
      "ㄱㅓㅈㅜㅎㅏㄴ</w>": 3189,
      "ㅌㅠ": 3190,
      "12ㅇㅣㄹ</w>": 3191,
      "34": 3192,
      "ㅇㅔㄹㄹㅣ": 3193,
      "ㅈㅡㅇ</w>": 3194,
      "ㅈㅏㅅㅣㄴㅇㅣ</w>": 3195,
      "ㄴㅣㄷㅏ.</w>": 3196,
      "ㅊㅐㄱ</w>": 3197,
      "16ㅇㅣㄹ</w>": 3198,
      "ㅊㅗㄱㅣ</w>": 3199,
      "ㄸㅐ,</w>": 3200,
      "9ㅇㅣㄹ</w>": 3201,
      "ㅂㅣㅇ": 3202,
      "ㄱㅓㅊㅕ</w>": 3203,
      "ㅅㅣㄱㅁㅜㄹ": 3204,
      "ft": 3205,
      "ㅈㅓㅇㅇㅔ</w>": 3206,
      "(KBS)</w>": 3207,
      "ㅁㅔㄱㅅㅣ": 3208,
      "ㅌㅗㅇㅅㅣㄴ": 3209,
      "ㅊㅜㄱ</w>": 3210,
      "ㅅㅗㅇㅠ": 3211,
      "ㅌㅣㄴ": 3212,
      "ㅎㅐㅆㅈㅣㅁㅏㄴ</w>": 3213,
      "ㅁㅣㄱㅜㄱㅇㅣㄴ</w>": 3214,
      "21ㅇㅣㄹ</w>": 3215,
      "ㄷㅡㄹㅇㅓ</w>": 3216,
      "BS)</w>": 3217,
      "17ㅇㅣㄹ</w>": 3218,
      "ㅇㅣㅅㅏ": 3219,
      "ㅎㅐㄷㅏㅇ</w>": 3220,
      "18ㅇㅣㄹ</w>": 3221,
      "ㅈㅗㅇㅢ</w>": 3222,
      "ㅇㅣㄲㅡㄹ": 3223,
      "ㅈㅔ2ㅊㅏ</w>": 3224,
      "ㅍㅕㄴㅅㅓㅇ": 3225,
      "col": 3226,
      "ㅊㅜㄱㅏ": 3227,
      "ㄷㅏㄹㄹ": 3228,
      "ㄱㅣㅂㅗㄴ": 3229,
      "ㅇㅏㅅㅣㅇㅏ</w>": 3230,
      "ㄹㅕㅆㄷㅏ.</w>": 3231,
      "ㅁㅠㅈㅣ": 3232,
      "ㅎㅏㄱㅓㄴㅏ</w>": 3233,
      "ㄴㅏㅂ": 3234,
      "ㅈㅜㅅㅣ</w>": 3235,
      "FCㅇㅢ</w>": 3236,
      "ㅆㅡㄹ": 3237,
      "6ㅇㅣㄹ</w>": 3238,
      "ㅇㅗㅅㅡㅌㅡㄹㅣ": 3239,
      "ㅁㅗㄹㅣ": 3240,
      "ㅂㅣㄱㅛ": 3241,
      "32": 3242,
      "ㄹㅡㅇ": 3243,
      "ㅅㅡㅌㅏ</w>": 3244,
      "ㅅㅣㅇㅏ</w>": 3245,
      "ㄹㅏㅇㅣㄴ": 3246,
      "II": 3247,
      "ㅅㅔㅇㅣ": 3248,
      "2007": 3249,
      "ㅇㅏㄹㄹㅔㄱ": 3250,
      "ㅈㅣㅅ": 3251,
      "ㄷㅡㄱㅏ</w>": 3252,
      "ㅊㅜㅈㅓㅇ": 3253,
      "ㅈㅔ6": 3254,
      "37": 3255,
      "ㄹㅣㅇ</w>": 3256,
      "ㅐㄴㄷㅡ</w>": 3257,
      "(K": 3258,
      "ㅍㅡㅌㅡ</w>": 3259,
      "ㄴㅗㅅㅓㄴ</w>": 3260,
      "ㅅㅡㅌㅠ": 3261,
      "ㅅㅙ": 3262,
      "ㅈㅗㄱㅓㄴ": 3263,
      "row": 3264,
      "()ㅇㅡㄹㅗ</w>": 3265,
      "23ㅇㅣㄹ</w>": 3266,
      "ㄱㅘㄴㄱㅖ</w>": 3267,
      "ㅌㅐㅇㅑㅇ": 3268,
      "ㅈㅓㄴㅊㅔ</w>": 3269,
      "ㅋㅣㄴ": 3270,
      "ㅝㄹ": 3271,
      "ㅇㅐㄹㅂㅓㅁ": 3272,
      "13ㅇㅣㄹ</w>": 3273,
      "ㅍㅗㄴㅣ": 3274,
      "ㅂㅏㅌㅏㅇ": 3275,
      "ㅈㅗㅅㅓㄴㅇㅢ</w>": 3276,
      "ㅁㅐㄴ</w>": 3277,
      "ㅋㅡㄹㄹㅓㅂ</w>": 3278,
      "24ㅇㅣㄹ</w>": 3279,
      "ㄱㅣ,</w>": 3280,
      "ㄱㅕㅁ</w>": 3281,
      "ㅅㅗㅅㅗㄱ</w>": 3282,
      "ㅍㅡㄹㄹㅐ": 3283,
      "ㅈㅗㅎㅇㅡㄴ</w>": 3284,
      "ㅉㅗㄱㅇㅔ</w>": 3285,
      "ㅌㅡㅇㅝ": 3286,
      "ㅌㅔㄱ": 3287,
      "ㅈㅐㅍㅏㄴ": 3288,
      "ㅑㄱ</w>": 3289,
      "ㄱㅓㄴ</w>": 3290,
      "ㄱㅜㄱㄹㅣㅂ": 3291,
      "ㅇㅣㅆㄱㅗ</w>": 3292,
      "29ㅇㅣㄹ</w>": 3293,
      "ㅇㅝㄴ,</w>": 3294,
      "ㄹㄹㅗㄴ": 3295,
      "ㅅㅐㄴ": 3296,
      "el</w>": 3297,
      "ㅂㅗㄱㅗ": 3298,
      "ㅈㅓㄴㅇㅢ</w>": 3299,
      "ㅘㅇㅢ</w>": 3300,
      "ㅁㅣㄴㅈㅜㄷㅏㅇ</w>": 3301,
      "ㅅㅗㄴㅕㄴ": 3302,
      "ㅎㅏㄴ,</w>": 3303,
      "for": 3304,
      "2006": 3305,
      "ㅋㅡㄹ</w>": 3306,
      "ㅍㅕㅇㄱㅏ</w>": 3307,
      "ㅇㅗㄹㄹㅏ": 3308,
      "(194": 3309,
      "ㅈㅜ,</w>": 3310,
      "ㅇㅣㅊㅣ": 3311,
      "ㄷㅐㅅㅣㄴ": 3312,
      "ㅈㅏㅇㄱㅘㄴ": 3313,
      "9)</w>": 3314,
      "ㅇㅗㄹㄹㅣㅁㅍㅣㄱ": 3315,
      "4ㄴㅕㄴ": 3316,
      "ㅅㅣㅋㅕㅆㄷㅏ.</w>": 3317,
      "ㅈㅔㄱㅜㄱㅇㅢ</w>": 3318,
      "Ar": 3319,
      "ㅇㅓㅁ</w>": 3320,
      "ㄷㅏㄴㅇㅡㄹ</w>": 3321,
      "22ㅇㅣㄹ</w>": 3322,
      "ㅌㅟ": 3323,
      "ㅋㅓ</w>": 3324,
      "ㅈㅣㅂㅐ": 3325,
      "ㄷㅐㅂㅜㅂㅜㄴㅇㅢ</w>": 3326,
      "ㅂㅜㅁㅜㄴ": 3327,
      "ㄷㅣㅇ": 3328,
      "ㅈㅐㄱ": 3329,
      "ㄹㅕㄹ": 3330,
      "ㅅㅡㅋㅔ": 3331,
      "ㅅㅣㅈㅓㄹ": 3332,
      "ㅎㅐㅆㅇㅡㄴㅏ</w>": 3333,
      "ㅅㅓㄴㅇㅓㄴ": 3334,
      "ㄱㅐㅌㅗㅇ": 3335,
      "ㅅㅓㅇㄱㅘ</w>": 3336,
      "ㅈㅣㄷㅗ</w>": 3337,
      "ㄷㅔㅇㅣㅌㅓ": 3338,
      "ㅈㅓㅇㅇㅣ</w>": 3339,
      "ㅇㅣㄷㅡ": 3340,
      "ㅈㅓㄴㄹㅏ": 3341,
      "ㅈㅜㅇㅅㅣㅁㅇㅡㄹㅗ</w>": 3342,
      "ㅅㅏㄹ</w>": 3343,
      "ㄷㅡㄹㅓ": 3344,
      "ㅇㅖㅅ</w>": 3345,
      "5ㄴㅕㄴ": 3346,
      "ㅇㅡㅁㅕㄴ</w>": 3347,
      "ㅅㅏㅅㅏㅇ": 3348,
      "ㅎㅏㄹㅜ": 3349,
      "ㅌㅔㅇㅣㄴ": 3350,
      "ㄴㅏㄹㅏ": 3351,
      "ㅏㅇㅔ</w>": 3352,
      "UEFA</w>": 3353,
      "ㅅㅗㅂㅣ": 3354,
      "ㅂㅗㅎㅗ": 3355,
      "ㄱㅏㄹㅡ": 3356,
      "ㅇㅓㅈㅣㄴ</w>": 3357,
      "ㅇㅓㄴㄱㅡㅂ": 3358,
      "ㄱㅣㄹㅗㄱ</w>": 3359,
      "ㅎㅏㅈㅣㅁㅏㄴ,</w>": 3360,
      "ㅂㅏㄴㅇㅡㅇ": 3361,
      "ㄹㅡㅁ": 3362,
      "ㅅㅗㄱㅎㅏㄴㅡㄴ</w>": 3363,
      "2016": 3364,
      "ㅍㅡㄹㅗㄱㅡㄹㅐㅁ": 3365,
      "ㅇㅣㅌㅏㄹㄹㅣㅇㅏㅇㅢ</w>": 3366,
      "Sp": 3367,
      "ㅁㅣㅅㅏ": 3368,
      "ㅇㅑㅁㅏ": 3369,
      "ㅇㅏㅍㅡㄹㅣㅋㅏ</w>": 3370,
      "a,</w>": 3371,
      "ang": 3372,
      "2013": 3373,
      "ㅅㅣㄹㅍㅐ": 3374,
      "ㅇㅏㅅㅣㅇㅏㄴ</w>": 3375,
      "ㄱㅐㅇㅣㄴ": 3376,
      "ㅎㅏㄱㅈㅓㄱ</w>": 3377,
      "ㅈㅜㄹㅡㄹ</w>": 3378,
      "ㄹㅜ</w>": 3379,
      "ㅋㅏㅇㅢ</w>": 3380,
      "ㄷㅏㄹㅜ": 3381,
      "ㅘㅆㄷㅏ.</w>": 3382,
      "ㅁㅗㅁ": 3383,
      "ㄸㅏㄹㅡㅁㅕㄴ</w>": 3384,
      "ㅈㅓㅁㅇㅣ</w>": 3385,
      "ㅎㅕ</w>": 3386,
      "ㅇㅣㅂ</w>": 3387,
      "ㅅㅓㅇㅇㅔ</w>": 3388,
      "ㅅㅗㅅㅓㄹ</w>": 3389,
      "ㄹㅡㅁ</w>": 3390,
      "ㅅㅜㅅㅏㅇㅈㅏ</w>": 3391,
      "ㅅㅡㅇㄹㅣ": 3392,
      "Sh": 3393,
      "ㄸㅜ": 3394,
      "ent</w>": 3395,
      "ㅇㅣㅀ": 3396,
      "1986ㄴㅕㄴ</w>": 3397,
      "ㅎㅚㅅㅏ</w>": 3398,
      "ㅌㅣㄴ</w>": 3399,
      "()ㄹㅗ</w>": 3400,
      "ㄱㅖㅅㅗㄱ</w>": 3401,
      "ㅌㅡㄹ</w>": 3402,
      "ㅍㅣㄱ": 3403,
      "ㅈㅣㅈㅣ": 3404,
      "ㅋㅏㄹㅡ": 3405,
      "ity</w>": 3406,
      "19ㅇㅣㄹ</w>": 3407,
      "ㅊㅗㄱㅣ": 3408,
      "ㄷㅐㅎㅏㄱㅇㅝㄴ</w>": 3409,
      "ㅈㅗㅅㅓㄴㅁㅣㄴㅈㅜㅈㅜㅇㅢ": 3410,
      "ep": 3411,
      "ㅇㅓㄴㄹㅗㄴ": 3412,
      "ㄷㅚㅇㅓㅆㅇㅡㅁㅕ</w>": 3413,
      "ㅇㅣㄹㅓㄴ</w>": 3414,
      "ㄷㅡㅇㅇㅡㄹㅗ</w>": 3415,
      "ㅅㅡㅁㅏ": 3416,
      "ㅈㅗㅅㅓㄴㅁㅣㄴㅈㅜㅈㅜㅇㅢㅇㅣㄴㅁㅣㄴㄱㅗㅇㅎㅘ": 3417,
      "ㄱㅞ": 3418,
      "500": 3419,
      "ㅈㅏㄱㅡ": 3420,
      "ㄴㅏㄱㅏ": 3421,
      "ㅇㅕㅆㄷㅓㄴ</w>": 3422,
      "ㅂㅐㅇ": 3423,
      "ㄸㅐㅁㅜㄴㅇㅣㄷㅏ.</w>": 3424,
      "ㄱㅜㅇㅔ</w>": 3425,
      "ㅇㅓㄴㅇㅓ": 3426,
      "2012": 3427,
      "ㄷㅏㅁㅕㄴ</w>": 3428,
      "ㄷㅚㄱㅣ</w>": 3429,
      "ㅁㅜㄴㅎㅘㅈㅐ</w>": 3430,
      "ㅎㅐㅆㅇㅡㄹ</w>": 3431,
      "ㅇㅓㄴㅡ</w>": 3432,
      "ㅇㅟㄹㄹㅣ": 3433,
      ".5": 3434,
      "ㅁㅔㅁㅂㅓ": 3435,
      "ㅈㅗㅇㄹㅠ": 3436,
      "ㄱㅜㄹㅡㄹ</w>": 3437,
      "ㄷㅡ,</w>": 3438,
      "ㄴㅓㅎ": 3439,
      "ㅂㅓㅂㅇㅡㄹ</w>": 3440,
      "ㅈㅓㅇㅊㅣㅇㅣㄴ</w>": 3441,
      "ㅎㅏㄴㅍㅕㄴ</w>": 3442,
      "ㅇㅣㅈㅓㄴ</w>": 3443,
      "ㅈㅓㅇㄷㅏㅇ": 3444,
      "gro": 3445,
      "ㅆㅏ": 3446,
      "ㄷㅚㅇㅓㅆㄷㅓㄴ</w>": 3447,
      "ㅇㅝㄴㄹㅐ</w>": 3448,
      "ㅎㅗㄹㅗ</w>": 3449,
      "ㅇㅣㄹㅇㅣ</w>": 3450,
      "AT": 3451,
      "ㅌㅡㄹㄹㅐㄴ": 3452,
      "ㅇㅣㄹ)ㄴㅡㄴ</w>": 3453,
      "ㅈㅗㅎㅇㅏ": 3454,
      "ㅂㅜㄴㅅㅓㄱ": 3455,
      "ㅎㅕㅇㅅㅣㄱ": 3456,
      "ㄱㅣㄱㅏㄴ": 3457,
      "ㅂㅣㄱ": 3458,
      "ㅋㅐㄹㄹㅣ": 3459,
      "ㅁㅕㅇㄹㅕㅇ": 3460,
      "ㄷㅚㄱㅗ,</w>": 3461,
      "ㅈㅜㅇㅔ</w>": 3462,
      "ㅋㅏㄱ": 3463,
      "ㅅㅔㄱㅏ</w>": 3464,
      "ㅇㅣㄹㅡㅁㅇㅡㄴ</w>": 3465,
      "ㄱㅕㅇㅈㅔ</w>": 3466,
      "ㅅㅏㅈㅣㄴ": 3467,
      "ㄱㅣㅍ": 3468,
      "ㄷㅐㅊㅔ": 3469,
      "ㅈㅓㅇㅊㅣ</w>": 3470,
      "ㅎㅏㄷㅗㄹㅗㄱ</w>": 3471,
      "um</w>": 3472,
      "ㅍㅗㄹㄹㅣ": 3473,
      "ㅇㅕㄴㄱㅡㄱ</w>": 3474,
      "ㅂㅏㄲㅇㅔ</w>": 3475,
      "ㅁㅕㅇㅇㅡㄹㅗ</w>": 3476,
      "ㅋㅡㄹㄹㅐ": 3477,
      "ㅋㅓㄹ": 3478,
      "ㄱㅏㅅㅜ": 3479,
      "ㅈㅏㄱㅣ</w>": 3480,
      "ㄱㅣㅎㅚ": 3481,
      "(ㄷㅐ": 3482,
      "ㅅㅏㅇㅣㅇㅢ</w>": 3483,
      "ㅈㅡㅇㄱㅏ": 3484,
      "ㄱㅘㄴㄱㅘㅇ": 3485,
      "ㅌㅏㄴ</w>": 3486,
      "ㅊㅚㅊㅗㄹㅗ</w>": 3487,
      "AR": 3488,
      "ㄷㅗㅇㅇㅣㄹ": 3489,
      "ㅅㅣㅋㅣㄴㅡㄴ</w>": 3490,
      "ㅎㅐㅇㅢ</w>": 3491,
      "1984ㄴㅕㄴ</w>": 3492,
      "ㅅㅣㅁㅇㅡㄹ</w>": 3493,
      "39": 3494,
      "ㄱㅏㅄ": 3495,
      "ㄱㅓㅅㅇㅔ</w>": 3496,
      "ㄹㅏㅇㅣㅂ": 3497,
      "ㅂㅏㄲㅟ": 3498,
      "ㅊㅕㅆㄷㅏ.</w>": 3499,
      "ㅈㅜㅇㅎㅘㅇㅣㄴㅁㅣㄴㄱㅗㅇㅎㅘ": 3500,
      "ㅇㅔㄴㅌㅓ": 3501,
      "ㅁㅜㄹㅡㄹ</w>": 3502,
      "ㅅㅔㄹㅡ": 3503,
      "ㅂㅡㄹ</w>": 3504,
      "ㅈㅏㄱㄱㅏ</w>": 3505,
      "ㅇㅣㅆㄱㅔ</w>": 3506,
      "ㅈㅔㄴㅡㄴ</w>": 3507,
      "a)</w>": 3508,
      "ㄹㅗㅁㅏ": 3509,
      "ㅈㅔㅈㅜ": 3510,
      "ㄷㅏㅁ</w>": 3511,
      ")ㅇㅡㄹㅗ</w>": 3512,
      "ㄹㅣㅇㅏ": 3513,
      "ㅅㅡㅌㅔㅇㅣ": 3514,
      "ㅇㅕㄱㅇㅡㄹㅗ</w>": 3515,
      "ㅇㅓㅄㅇㅓㅆ": 3516,
      "ㄱㅜㄱㅏㄴ</w>": 3517,
      "1985ㄴㅕㄴ</w>": 3518,
      "ㄷㅡㄹㅏㅁㅏ": 3519,
      "ㄱㅓㄷㅜ": 3520,
      "ㄱㅗㄹㅇㅡㄹ</w>": 3521,
      "ㅎㅚㄱㄷㅡㄱ": 3522,
      "ㅅㅡㅌㅡㄹㅣ": 3523,
      "ㄱㅏㅁㄷㅗㄱㅇㅢ</w>": 3524,
      "ㅁㅜㄴㅎㅘ</w>": 3525,
      "ㅈㅜㅇㅕㄴ</w>": 3526,
      "ㅘㄴ</w>": 3527,
      "ㅅㅣㄴㅡㄴ</w>": 3528,
      "ㄴㅔㅌㅡㅇㅝ": 3529,
      "ㅌㅣㅇ": 3530,
      "ㅈㅣㅇㅕㄱㅇㅔ</w>": 3531,
      "ㅂㅜㅈㅗㄱ": 3532,
      "m,</w>": 3533,
      "ㅇㅣㄴㅎㅏㄴ</w>": 3534,
      "ㅅㅓㄴㅊㅜㄹ": 3535,
      "ㄱㅡㄴㅕㄴㅡㄴ</w>": 3536,
      "ㄱㅕㅇㅅㅏㅇㅂㅜㄱㄷㅗ</w>": 3537,
      "ㄴㅣㄴ": 3538,
      "ㅂㅜㄱㅏ</w>": 3539,
      "ㅊㅣㄹㅛ": 3540,
      "ㅎㅕㅂㅎㅚ": 3541,
      "ㄷㅐㅈㅜㅇ": 3542,
      "ㅋㅗㅇㅢ</w>": 3543,
      "ㄱㅏㄲㅏㅇ": 3544,
      "ㅂㅕㄴㅎㅘ": 3545,
      "ㅁㅓㄴ</w>": 3546,
      "ㅈㅔ7": 3547,
      "ㅁㅕㅊ": 3548,
      "sc": 3549,
      "ㄴㅏㄹㅏㅇㅢ</w>": 3550,
      "ㅇㅕㅅㅓㅇ</w>": 3551,
      "ㄱㅡㄹㅣㅅㅡ": 3552,
      "ㅆㄷㅓㄴ</w>": 3553,
      "ㅅㅔㄴㅡㄴ</w>": 3554,
      "ㅂㅕㄴㄱㅕㅇ</w>": 3555,
      "as</w>": 3556,
      "ㅁㅜㄹㅈㅣㄹ": 3557,
      "ㅈㅕ": 3558,
      "ㅎㅔㅇㅣ": 3559,
      "ㄱㅐㅇㅓㅂ": 3560,
      "ㅅㅏㅇㅇㅣ</w>": 3561,
      "ㄹㅣㅇㅘ</w>": 3562,
      "ㅅㅓㅇㄱㅕㄱ": 3563,
      "ㅂㅔㄹ</w>": 3564,
      "ㄱㅜㄱㅎㅚㅇㅢㅇㅝㄴ</w>": 3565,
      "ㄱㅏㅇㅘ</w>": 3566,
      "ㅈㅓㅁㅇㅔㅅㅓ</w>": 3567,
      "ㅈㅏㄷㅡㄹㅇㅡㄴ</w>": 3568,
      "ㅌㅡㄱㅅㅜ": 3569,
      "ㄹㅣㄱㅗ</w>": 3570,
      "ㅕㄱㅇㅡㄹ</w>": 3571,
      "ㅋㅐㄴ": 3572,
      "ㅈㅔㄱㅜㄱ</w>": 3573,
      "ㄷㅓㅂㅜㄹ": 3574,
      "ㄱㅏㅈㅊㅜ": 3575,
      "all": 3576,
      "ㅅㅣㅊㅓㅇ": 3577,
      "ㅍㅡㄹㅏㄴ": 3578,
      "ㅁㅕㄴㅇㅔ</w>": 3579,
      "ㅊㅐ</w>": 3580,
      "y,</w>": 3581,
      "Ne": 3582,
      "ㅎㅏㄴㅡㄴㄷㅔ</w>": 3583,
      "ㅇㅣㅈㅓㄱ": 3584,
      "ㅁㅣㄷ": 3585,
      "ㅅㅏㄷㅏㄴ": 3586,
      "ㄷㅡㄹㅗ": 3587,
      "ㅇㅏㄴㅈㅓㄴ": 3588,
      "ㄱㅣㅇㅘ</w>": 3589,
      "ㅇㅣㄹㅏ": 3590,
      "ㅍㅗㄹㅡㅌㅜ": 3591,
      "ㄹㅓㅅㅣㅇㅏㅇㅢ</w>": 3592,
      "2010": 3593,
      "ㄱㅘㄴㅎㅏㄹ": 3594,
      "ㅅㅓㄴㅇㅡㄴ</w>": 3595,
      "ㅇㅣㅂㅎㅏㄱ": 3596,
      "ㄱㅗㄷㅐ</w>": 3597,
      "ㅂㅏㄹㅁㅐㄷㅚㄴ</w>": 3598,
      "ㅌㅣㅁㅇㅢ</w>": 3599,
      "ㅍㅏㄹㅣ": 3600,
      "(2": 3601,
      "ㄷㅚㅁ": 3602,
      "ㅈㅣㅂㅏㅇ</w>": 3603,
      "ㅁㅗㅅㅡㅂㅇㅡㄹ</w>": 3604,
      "ㄲㅓ": 3605,
      "ST": 3606,
      "ㅂㅜㅁㅜㄴ</w>": 3607,
      "ㅅㅏㅇㅛㅇㅎㅏㄴㅡㄴ</w>": 3608,
      "ㅈㅣㅇㅘ</w>": 3609,
      "ㄷㅡㅇㅔㅅㅓ</w>": 3610,
      "ㄴㅏㅌㅏㄴㅐ": 3611,
      "Pro": 3612,
      "ㅃㅏㄹㅡ": 3613,
      "ㅇㅣ,</w>": 3614,
      "ar</w>": 3615,
      "ㅇㅕㄴㅂㅏㅇ": 3616,
      "ㅋㅔㅅ": 3617,
      "ㄱㅣㄱㅏㄴ</w>": 3618,
      "ㅊㅓㅅ": 3619,
      "ㅅㅗㅅㅜ": 3620,
      "ㅅㅓㅁ</w>": 3621,
      "ㅊㅚㄱㅗ</w>": 3622,
      "ㅎㅏㄴㅏㅇㅣㄷㅏ.</w>": 3623,
      "2011": 3624,
      "ㅇㅣㅆㅇㅓㅆㄷㅓㄴ</w>": 3625,
      "ㅅㅣㄹㅡㄹ</w>": 3626,
      "ㅊㅚㄷㅐ</w>": 3627,
      "ㅂㅗㅇㅣㄴㄷㅏ.</w>": 3628,
      "ㄱㅜㄱㅈㅔㄱㅗㅇㅎㅏㅇ</w>": 3629,
      "ㄸㅏㄹ</w>": 3630,
      "31ㅇㅣㄹ</w>": 3631,
      "ㅌㅐㅍㅕㅇ": 3632,
      "ㅇㅜㄹㅣ</w>": 3633,
      "(W": 3634,
      "ㄷㅔㄹ": 3635,
      "ㄴㅠㅇㅛㄱ": 3636,
      "tic": 3637,
      "ㅇㅠ</w>": 3638,
      "ㅅㅗㅇㅢ</w>": 3639,
      "ㅈㅔㅇㅣㅁ": 3640,
      "ㅈㅣㅅㅗㄱ": 3641,
      "ㅅㅓㄴㅅㅜㅇㅣㄷㅏ.</w>": 3642,
      "ㅇㅣㄹㅇㅔㄴㅡㄴ</w>": 3643,
      "ㅎㅕㄴㄷㅐ</w>": 3644,
      "33": 3645,
      "ㅇㅔㅍㅣ": 3646,
      "ㅂㅗㅌㅗㅇ</w>": 3647,
      "1983ㄴㅕㄴ</w>": 3648,
      "ㅁㅗㄱㅍㅛ": 3649,
      "ㅂㅜㄹㄱㅜ": 3650,
      "185": 3651,
      "ㅇㅣㅆㄴㅡㄴㄷㅔ,</w>": 3652,
      "ㅁㅐㅈ": 3653,
      "ㄷㅡㄹㅗ</w>": 3654,
      "ㅊㅣㄱㅏ</w>": 3655,
      "ㄱㅖㅇㅢ</w>": 3656,
      "ㅇㅠㅅㅏ": 3657,
      "ㅌㅡㄱㅏ</w>": 3658,
      "ㅆㄱㅗ</w>": 3659,
      "ㅍㅣㅇ": 3660,
      "ㅇㅏㅈㅜ</w>": 3661,
      "ㅁㅣㄹㅐ": 3662,
      "ㅓㅂ</w>": 3663,
      "ㅂㅕㄴㅎㅗ": 3664,
      "ㄱㅗㅅㅇㅔ</w>": 3665,
      "ㅅㅣㅇㄱㅡㄹ": 3666,
      "ㅅㅣㄹㄹ": 3667,
      "ㄱㅗㅇㅑㅇ": 3668,
      "ㅅㅓㄴㅇㅔ</w>": 3669,
      "ㅅㅔㄹㅡㄹ</w>": 3670,
      "up": 3671,
      "ㅇㅝㄴㅇㅔ</w>": 3672,
      "ㅈㅔㅎㅏㄴ": 3673,
      "ㅎㅏㅇㅕㅆㅇㅡㅁㅕ</w>": 3674,
      "ㅎㅏㄱㄹㅕㄱ</w>": 3675,
      "ㅅㅗㄱㅏ</w>": 3676,
      "ㄱㅗㄹ</w>": 3677,
      "ㄱㅐㅂㅗㅇ": 3678,
      "ㄷㅏㄹㄹㅣ</w>": 3679,
      "ㄱㅡㄷㅡㄹㅇㅢ</w>": 3680,
      "ㅋㅐㄹㄹㅣㅍㅗㄴㅣ": 3681,
      "ㅈㅏㄹㅣ</w>": 3682,
      "ㅈㅏㅇㅣㄴ</w>": 3683,
      "ㅌㅗㅇㄱㅘ": 3684,
      "2017": 3685,
      "1980ㄴㅕㄴ</w>": 3686,
      "ㅇㅢㄹㅡㄹ</w>": 3687,
      "ㄱㅏㄱㅏ</w>": 3688,
      "ㅅㅣㅍ": 3689,
      "ㅎㅏㅁㅇㅡㄹㅗㅆㅓ</w>": 3690,
      "ㅅㅛ</w>": 3691,
      "ㄷㅐㄱㅜ": 3692,
      "ㄱㅔㄴ": 3693,
      "ㅁㅏㄴㅇㅡㄹ</w>": 3694,
      "ㅈㅣㅈㅣ</w>": 3695,
      "ㅂㅡㄹㅏㅈㅣㄹ": 3696,
      "ㅋㅡㄹㄹㅓㅂ": 3697,
      "tion</w>": 3698,
      "ㅔㄴㅡㄴ</w>": 3699,
      "ㅈㅔㅈㅏㄱㄷㅚㄴ</w>": 3700,
      "ort": 3701,
      "ㅇㅓㄸㅓ": 3702,
      "ㅅㅓㅇ,</w>": 3703,
      "ㅊㅏㅇ</w>": 3704,
      "1981ㄴㅕㄴ</w>": 3705,
      "back": 3706,
      "ㅇㅔㅅㅓ,</w>": 3707,
      "1982ㄴㅕㄴ</w>": 3708,
      "ㅂㅜㄴㄹㅣ": 3709,
      "ㅌㅔ</w>": 3710,
      "ㅈㅓㅇㅎㅘㄱ": 3711,
      "ㅇㅠㅎㅕㅇ": 3712,
      "ㄴㅡㄲㅣ": 3713,
      "ㅂㅣㄹㅡㄹ</w>": 3714,
      "ㄷㅗㅇㅘ</w>": 3715,
      "ㅎㅏㄴㄱㅜㄱㅇㅓ</w>": 3716,
      "ㅇㅣㅅ": 3717,
      "ㅅㅏㄹㅣ": 3718,
      "ㅂㅗㄱㅗ</w>": 3719,
      "ㄴㅐㄱ": 3720,
      "ㅎㅔㄹ": 3721,
      "Com": 3722,
      "ㅆㅏㅇㅜ": 3723,
      "ㄱㅗㄷㅡㅇ": 3724,
      "ㄷㅔㅇㅣㅂㅣ": 3725,
      ".c": 3726,
      "ㄱㅓㄴㅊㅜㄱㅁㅜㄹ</w>": 3727,
      "ㅍㅗㅎㅏㅁㅎㅏㄴ</w>": 3728,
      "ㅎㅏㄹㅏ</w>": 3729,
      "ㅅㅇㅣ</w>": 3730,
      "ㄱㅐㅂㅏㄹ</w>": 3731,
      "ㅈㅜㅇㅓㅆㄷㅏ.</w>": 3732,
      "ㅎㅜㅇㅢ</w>": 3733,
      "ㅇㅣㄹㅇㅡㄴ</w>": 3734,
      "ㄹㅗㅇㅢ</w>": 3735,
      "ㅂㅡㄹㄹㅜ": 3736,
      "ㅈㅏㅇㅇㅐ": 3737,
      "ㅈㅜㄴㄷㅏ.</w>": 3738,
      "ㄱㅐㅎㅕㄱ": 3739,
      "ㅇㅣㄴㄱㅘ</w>": 3740,
      "ㄱㅕㅇㅅㅏㅇㄴㅏㅁㄷㅗ</w>": 3741,
      "ㅇㅠㅈㅓㄴ": 3742,
      "2018": 3743,
      "ㅇㅣㄷㅡㄹㅇㅡㄴ</w>": 3744,
      "ㄱㅓㅅㅇㅣㄹㅏㄱㅗ</w>": 3745,
      "ㅎㅓㅇ": 3746,
      "ㅋㅐㄴㅏㄷㅏㅇㅢ</w>": 3747,
      "ㅇㅠㄷㅐ": 3748,
      "ㅌㅔㅇㅣㄴㅁㅓㄴ": 3749,
      "ㅇㅡㄴㅎㅐㅇ": 3750,
      "ㅅㅜㅇㅛㅇ": 3751,
      "ㅇㅝㄹㄷㅡ</w>": 3752,
      "ㅊㅟㅇㅣㅁ</w>": 3753,
      "ㄱㅘㄴㅇㅡㄴ</w>": 3754,
      "ㅅㅣㅅㅡㅌㅔㅁ</w>": 3755,
      "ㅇㅣㄴㅇㅡㄹㅗ</w>": 3756,
      "ㄱㅏㄹㅣㅋㅣㄴㄷㅏ.</w>": 3757,
      "CA": 3758,
      "ㅅㅓㅇㅈㅏㅇ": 3759,
      "ㅎㅏㄴㅏㅇㅢ</w>": 3760,
      "ㅎㅏㅇㅢ</w>": 3761,
      "ㅈㅓㄴㄱㅣ": 3762,
      "ㅂㅐㄱ</w>": 3763,
      "ㄱㅕㅆㄷㅏ.</w>": 3764,
      "ㄱㅏㅇㅎㅘ": 3765,
      "ㄹㅔㅇㅣ</w>": 3766,
      "ㅎㅜㅂㅏㄴ": 3767,
      "ㄷㅏㄹㄹㅓ": 3768,
      "MBC)</w>": 3769,
      "for</w>": 3770,
      "ㅎㅕㄴㅈㅐㄴㅡㄴ</w>": 3771,
      "eg": 3772,
      "ㅂㅠ": 3773,
      "ㄷㅚㅁㅕ,</w>": 3774,
      "ㅈㅜㅂㅕㄴ</w>": 3775,
      "ㅇㅓㄹ</w>": 3776,
      "ㅇㅣㅁㅣ": 3777,
      "ㅅㅏㅇㅔㅅㅓ</w>": 3778,
      "ㄱㅕㄹ</w>": 3779,
      "47": 3780,
      "ㅁㅣㅅㅏㅇ</w>": 3781,
      "ㅅㅗㄴㅕㄴ</w>": 3782,
      "ㄴㅏㄴㅜ": 3783,
      "ㅅㅔㅍㅗ": 3784,
      "NA": 3785,
      "ㅗㅅㅓ</w>": 3786,
      "ㅇㅣㄹㅇㅢ</w>": 3787,
      "ㅂㅜㅇㅕ": 3788,
      "ㅗㅇㅢ</w>": 3789,
      "ㅈㅓㄴㄹㅏㄴㅏㅁㄷㅗ</w>": 3790,
      "ㅂㅏㄲㅜ": 3791,
      "ㅂㅏㄺㅎㅕㅆㄷㅏ.</w>": 3792,
      "ㅂㅏㄹㅏ": 3793,
      "est": 3794,
      "ㄷㅗㅇㅅㅐㅇ": 3795,
      "ㅇㅏㅋㅏㄷㅔ": 3796,
      "55": 3797,
      "En": 3798,
      "ㄱㅓㄹㅊㅕ</w>": 3799,
      "ㅁㅏㄴㅇㅣ</w>": 3800,
      "ㅇㅣㅇㅠㄹㅗ</w>": 3801,
      "ard": 3802,
      "ㅅㅜㅈㅜㄴ": 3803,
      "ㅅㅏㅎㅚ</w>": 3804,
      "ㅈㅏㄷㅡㄹㅇㅣ</w>": 3805,
      "ground": 3806,
      "ㅈㅡㄱ,</w>": 3807,
      "2005": 3808,
      "ㅈㅣㅅㅏㅇ": 3809,
      "anc": 3810,
      "ㅂㅗㄴㅡㄴ</w>": 3811,
      "ㅇㅑㄱㅜ": 3812,
      "ㅇㅏㄹㄹㅕㅈㅣㄴ</w>": 3813,
      "ㅅㅣㅅㅓㄹ</w>": 3814,
      "ㄴㅏㅁㅓ": 3815,
      "ㅇㅜㅁㅈㅣㄱ": 3816,
      "ㅌㅡㄹㅓ": 3817,
      "ㅇㅔㄱ": 3818,
      "ㅈㅣㅇㅔㅅㅓ</w>": 3819,
      "ㅅㅣㅎㅐㅇ": 3820,
      "ㄱㅏㅇㅈㅓㅁ": 3821,
      "ㄱㅏㄹㅗ</w>": 3822,
      "ㅈㅜㅂㅕㄴ": 3823,
      "ㅁㅏㄹㅎㅐㅆㄷㅏ.</w>": 3824,
      "ㅅㅣㄴㄱㅕㅇ": 3825,
      "2,": 3826,
      "ㅂㅜㄹㄱㅛ": 3827,
      "ㄹㅏㅇㅣㄴ</w>": 3828,
      "ㅍㅛㅈㅜㄴ": 3829,
      "ㅅㅣㄴㅁㅜㄴ": 3830,
      "ont": 3831,
      "ㅎㅏㄱㄱㅡㅂ": 3832,
      "ㅎㅐㅆㅈㅣㅁㅏㄴ,</w>": 3833,
      "ㅈㅓㅇㄱㅠ</w>": 3834,
      "ㅂㅏㄹㅁㅐㄷㅚㅇㅓㅆㄷㅏ.</w>": 3835,
      "ㅎㅜㄴㄹㅕㄴ": 3836,
      "99": 3837,
      "ㅎㅐㅅㅓㄱ": 3838,
      "ㅋㅣㅇ</w>": 3839,
      "ㄱㅏㄴㅡㅇㅎㅏㄴ</w>": 3840,
      "ㄷㅚㄱㅣㄷㅗ</w>": 3841,
      "ㅇㅔㄴㅌㅓㅌㅔㅇㅣㄴㅁㅓㄴ": 3842,
      "ㄷㅏㅇㅡㅁㅇㅡㄹ</w>": 3843,
      "ㅇㅘㅇㅇㅢ</w>": 3844,
      "ㅆㅇㅡㅁㅕ</w>": 3845,
      "ㅌㅗㅇㅇㅣㄹ": 3846,
      "ㄷㅗㄹ</w>": 3847,
      "ㅂㅜㄹㄹㅓ": 3848,
      "ㄹㅇㅢ</w>": 3849,
      "ay</w>": 3850,
      "ㅇㅣㄹㅈㅔ": 3851,
      "ith</w>": 3852,
      "background": 3853,
      "ㅇㅛㄱ</w>": 3854,
      "ㅇㅝㄷㅡ</w>": 3855,
      "()ㅇㅣㄷㅏ.</w>": 3856,
      "ㅇㅣㄹㅗ</w>": 3857,
      "ㅁㅗㄷㅔㄹ</w>": 3858,
      "ㅎㅏㄱㅔ": 3859,
      "ㅡㅁ": 3860,
      "1,</w>": 3861,
      "ㅇㅣㄹㅇㅡㅋㅣ": 3862,
      "ㅎㅏㅇㅕㅆㅇㅡㄴㅏ</w>": 3863,
      "ㄱㅣㄷㅗㄱㄱㅛ": 3864,
      "ㄷㅐㅎㅏㅇㅕ</w>": 3865,
      "ㅇㅓㄹㅣㄴ</w>": 3866,
      "ㅇㅜㅋㅡㄹㅏ": 3867,
      "ㄷㅗㄹㅇㅏㄱ": 3868,
      "ㅇㅣㄸㅐ</w>": 3869,
      "ㅡㅂ": 3870,
      "ㅇㅜㅅㅡㅇㅇㅡㄹ</w>": 3871,
      "ㅇㅘㅆㄷㅏ.</w>": 3872,
      "ㄹㅏㅇㅜ": 3873,
      "ill": 3874,
      "ㄱㅕㄹㅎㅏㅂ": 3875,
      "ㅅㅏㄴㅇㅡㄹ</w>": 3876,
      "ㅈㅜㅇㅎㅏㄱㄱㅛ": 3877,
      "ㅎㅜㅈㅣ": 3878,
      "ㅇㅢㅎㅏㅇㅕ</w>": 3879,
      "ㄹㅠㄹ</w>": 3880,
      "ㅊㅗㄷㅐ</w>": 3881,
      "ON": 3882,
      "ㄷㅡㅇㅘ</w>": 3883,
      "ㄹㅚ": 3884,
      "ㄱㅏㅁㅜㄴ": 3885,
      "ㅃㅜㄴㅁㅏㄴ</w>": 3886,
      "ㄱㅗㅇㅎㅘㄱㅜㄱ": 3887,
      "ㅅㅓㄹㄱㅖ": 3888,
      "ㅇㅘㄴㅈㅓㄴㅎㅣ</w>": 3889,
      "ㅌㅡㄹㅐ": 3890,
      "ㅉㅗㄱㅇㅡㄹㅗㄴㅡㄴ</w>": 3891,
      "ㅍㅕㅇㄱㅠㄴ</w>": 3892,
      "ㅋㅓㅁㅍㅠㅌㅓ</w>": 3893,
      "ㅊㅜㅈㅣㄴ": 3894,
      "ㅎㅕㅇㅇㅡㄹ</w>": 3895,
      "ㅇㅔㄹ</w>": 3896,
      "46": 3897,
      "ㄹㅜㅇㅣ": 3898,
      "ㅂㅡㄹㅜ": 3899,
      "ㄷㅣㅈㅣㅌㅓㄹ</w>": 3900,
      "ㄹㄹㅜ": 3901,
      "ud": 3902,
      "ㅂㅓㅂㄹㅠㄹ": 3903,
      "ㅅㅏㄹㅏㅁㅇㅣ</w>": 3904,
      "ㅅㅓㄴㅅㅜㄱㅝㄴ</w>": 3905,
      "ㅁㅔㄷㅏㄹ": 3906,
      "ㅂㅗㅇㅠ": 3907,
      "ㄸㅐㄴㅡㄴ</w>": 3908,
      "ㄱㅕㄹㅅㅓㅇ": 3909,
      "ㅈㅗㅇㅑㄱ": 3910,
      "ㄱㅕㅁ": 3911,
      "our": 3912,
      "ㅂㅜ,</w>": 3913,
      "ine</w>": 3914,
      "ㅂㅐㅊㅣ": 3915,
      "ㅋㅏㅁㅔ": 3916,
      "ㄷㅓㅇㅜㄱ</w>": 3917,
      "ㅇㅏㅁㅏ": 3918,
      "ip": 3919,
      "ㅇㅣㄺ": 3920,
      "ㅎㅐㅆㄷㅏㄴㅡㄴ</w>": 3921,
      "ㄱㅡㄷㅡㄹㅇㅡㄴ</w>": 3922,
      "ㅅㅡㅍㅔㅇㅣㄴ</w>": 3923,
      "ㄷㅗㅇㅇㅔ</w>": 3924,
      "ㅅㅚ": 3925,
      "ㅂㅔㄴㅔ": 3926,
      "ㅅㅜㄴ</w>": 3927,
      "ㄱㅜㄴㅅㅏ": 3928,
      "ㅁㅗㄱㄹㅗㄱ": 3929,
      "ㅁㅏㄴㅇㅢ</w>": 3930,
      "ㄱㅏㅆㄷㅏ.</w>": 3931,
      "ㅂㅏㅇㅁㅜㄴ": 3932,
      "ㄱㅠㅁㅗ": 3933,
      "ㄴㅏㅇㅗ": 3934,
      "ㅊㅔㄴㅡㄴ</w>": 3935,
      "ㅅㅣㄹㅗ</w>": 3936,
      "ㄷㅣㅅㅡ": 3937,
      "ㅈㅓㅁㄹㅕㅇ": 3938,
      "ㄸㅐㄲㅏㅈㅣ</w>": 3939,
      "ㅎㅏㅇㅔ</w>": 3940,
      "ㅈㅡㅇㅢ</w>": 3941,
      "ㅅㅏㅇㅇㅔ</w>": 3942,
      "ㅎㅘㅇㅢ</w>": 3943,
      "ㅇㅣㅎㅐ": 3944,
      "ㅈㅓㄴㄱㅣ</w>": 3945,
      "ㅂㅏㄹㅏㅁ": 3946,
      "ㄸㅐㅁㅜㄴㅇㅔ,</w>": 3947,
      "ㅍㅏㄱㅚ": 3948,
      "4.": 3949,
      "ib": 3950,
      "ㅌㅜㅍㅛ": 3951,
      "ㅅㅕㄹ</w>": 3952,
      "ㅁㅏㄴㅋㅡ": 3953,
      "ㅋㅗㄴㅅㅓ": 3954,
      ";\"</w>": 3955,
      "ㅊㅏㄹ</w>": 3956,
      "ㄱㅏㅇㅣㄷㅏ.</w>": 3957,
      "ㅈㅔㅇㅏㄴ": 3958,
      "ㅁㅏㅊㅏㄴ": 3959,
      "ㄷㅏㄹㅅㅓㅇ": 3960,
      "ㅆㅣㄱ</w>": 3961,
      "ㅈㅔ8": 3962,
      "ㄱㅜㅂㅜㄴ": 3963,
      "ㄱㅜ,</w>": 3964,
      "ㅌㅡㄴ": 3965,
      "ㅁㅏㄹㅇㅡㄹ</w>": 3966,
      "ㅌㅡ,</w>": 3967,
      "ㅇㅢㅁㅣㅎㅏㄴㄷㅏ.</w>": 3968,
      "ㄹㅡㄹ": 3969,
      "ㅇㅝㄹ:</w>": 3970,
      "ㅇㅔㄴㅈㅣㄴ": 3971,
      "ㅁㅏㄴㅣ": 3972,
      "ㅎㅕㅂㅎㅚ</w>": 3973,
      "ㅂㅣㅎㅐ</w>": 3974,
      "style=\"background": 3975,
      "ㅂㅏㅌㅏㅇㅇㅡㄹㅗ</w>": 3976,
      ":#": 3977,
      "ㅎㅚㅈㅏㅇ</w>": 3978,
      "ㅍㅏㄹㅡ": 3979,
      "ㄹㅡㄴㅡㄴ</w>": 3980,
      "ㅈㅓㅇㄷㅗ</w>": 3981,
      "ㅇㅠㄱㄱㅜㄴ</w>": 3982,
      "ㅈㅓㄴㅎㅏㄴ</w>": 3983,
      "3.</w>": 3984,
      "ich": 3985,
      "ㅅㅓㅅㅣㄱ": 3986,
      "ㅇㅣㄹㅡㅁㅇㅡㄹㅗ</w>": 3987,
      "ㅈㅜㅇㅇㅔㅅㅓ</w>": 3988,
      "ㄷㅏㄴㅊㅔ</w>": 3989,
      "ㅇㅓㄱㅏ</w>": 3990,
      "ㅇㅣㅅㅣ": 3991,
      "ㅈㅜ)</w>": 3992,
      "ㅅㅏㅇㅇㅡㄴ</w>": 3993,
      "ㄷㅡㅇㄱㅘ</w>": 3994,
      "oh": 3995,
      "ㄱㅖㅇㅕㄹ": 3996,
      "ㅇㅜㄴㅇㅕㅇ</w>": 3997,
      "ㅈㅜㄱㅛ": 3998,
      "ㅇㅜㅅㅜ": 3999,
      "ㅁㅏㅌㅇㅏㅆㄷㅏ.</w>": 4000,
      "ik": 4001,
      "ㅐㅇㅘ</w>": 4002,
      "ㄷㅔㅂㅟ</w>": 4003,
      "ㅈㅏㅇㅣ": 4004,
      "ㅕㅆㄷㅓㄴ</w>": 4005,
      "ne": 4006,
      "ㅁㅏㅊㅏㄴㄱㅏㅈㅣ": 4007,
      "ㄱㅓㄹㅣ": 4008,
      "ㅅㅡㅁㅣ": 4009,
      "ㅇㅠㄹㅐ": 4010,
      "ㅍㅕㄴㅈㅣㅂ": 4011,
      "ㅂㅜㅇㅣㄴ</w>": 4012,
      "ㄷㅡㅇㄹㅗㄱ": 4013,
      "ㅇㅣㅈㅣㅂ": 4014,
      "ㄴㅗ</w>": 4015,
      "ㅏㅇㅔㅅㅓ</w>": 4016,
      "ㄹㅗㄹㅡㄹ</w>": 4017,
      "ㄴㅠㅇㅛㄱ</w>": 4018,
      "ㅎㅏㅂㅂㅕㅇ": 4019,
      "ㅁㅣㄱㅜㄱㅇㅔㅅㅓ</w>": 4020,
      "ㅇㅓㄹㅕ": 4021,
      "ㄴㅕ</w>": 4022,
      "ㅇㅕㄱㅕ": 4023,
      "ㅈㅓㅇㄷㅗㄹㅗ</w>": 4024,
      "ㅌㅔㅇㅣ": 4025,
      "ㅅㅡㅇㄱㅕㄱ": 4026,
      "ㅁㅣㅇ": 4027,
      "BC</w>": 4028,
      "ㅌㅡㄹㅗ</w>": 4029,
      "180": 4030,
      "ㅊㅏㄹㅡㄹ</w>": 4031,
      "ㅈㅓㄴㅌㅜ</w>": 4032,
      "ㄱㅘㄴㄱㅖㄹㅡㄹ</w>": 4033,
      "ㄷㅔㄴㅁㅏ": 4034,
      "ㅅㅏㅇㅓㅂ</w>": 4035,
      "ㄱㅣㅈㅐ": 4036,
      "ㄷㅜㄴ": 4037,
      "ㄱㅗㅅㅇㅔㅅㅓ</w>": 4038,
      "ㅉㅏㄼ": 4039,
      "ㅎㅚ)</w>": 4040,
      "ㅏㅁㅣ": 4041,
      "1979ㄴㅕㄴ</w>": 4042,
      "ㅈㅓㄻ": 4043,
      "ㅈㅜㄹ</w>": 4044,
      "by</w>": 4045,
      "ㅁㅏㅆㅡ": 4046,
      "ㄷㅐㄱㅜㄱ": 4047,
      "ㅇㅕㅎㅐㅇ": 4048,
      "ㅋㅏㅇㅣ</w>": 4049,
      "ㅊㅏㄹㅗ</w>": 4050,
      "ㅇㅏㄹㅡㅎㅔㄴ": 4051,
      "ㅅㅣㄱ(": 4052,
      "ivers": 4053,
      "ㅅㅣㅋㅕ</w>": 4054,
      "ㅇㅛㅊㅓㅇ": 4055,
      "ㅎㅐㅇㅇㅟ": 4056,
      "ㅁㅏㅅㅏ": 4057,
      "(O": 4058,
      "ㄱㅣㅇㅕ": 4059,
      "ㅂㅜㄱㅎㅏㄴ": 4060,
      "ㅎㅕㅂㄹㅕㄱ": 4061,
      "ㅌㅡㅇㅔㅅㅓ</w>": 4062,
      "ㅈㅗㅈㅓㅇ": 4063,
      "ㅇㅏㄹㅡㅎㅔㄴㅌㅣ": 4064,
      "0.": 4065,
      "ㅎㅏㄱㅇㅡㄹ</w>": 4066,
      "75": 4067,
      "ㅇㅏㅇ</w>": 4068,
      "ㅇㅜㄹㅅㅏㄴ": 4069,
      "ㅈㅓㄴㅇㅡㄴ</w>": 4070,
      "ㅇㅏㄴㅏㅇㅜㄴ": 4071,
      "ㅇㅣㅆㄷㅗㄹㅗㄱ</w>": 4072,
      "ㄱㅏㅇㄹㅕㄱ": 4073,
      "1945ㄴㅕㄴ</w>": 4074,
      "ain": 4075,
      "ㅅㅣㅇ</w>": 4076,
      "ㅈㅔㅅㅣ": 4077,
      "ㄱㅘㅈㅓㅇㅇㅔㅅㅓ</w>": 4078,
      "ㅋㅗㅁㅣㄷㅣ</w>": 4079,
      "ㅋㅐㄹㅣㄱㅌㅓ": 4080,
      "sh": 4081,
      "ㄷㅏ.)</w>": 4082,
      "ㅇㅣㄹㅂㅏㄴ</w>": 4083,
      "ㅇㅓㅄㅇㅓㅆㄷㅏ.</w>": 4084,
      "ㄷㅏㄴㅇㅡㄴ</w>": 4085,
      "ㅇㅕㄴㄱㅜ</w>": 4086,
      "ㅅㅡㅍㅔㅇㅣㄴㅇㅢ</w>": 4087,
      "km2": 4088,
      "ㅈㅣㄱㅇㅡㄹ</w>": 4089,
      "ㅋㅡㄹㄹㅔ": 4090,
      "ㅈㅔㅇㅣㅁㅅㅡ</w>": 4091,
      "1.</w>": 4092,
      "ㅈㅓㅇㅂㅗㄱ": 4093,
      "ㄱㅗㅇㅅㅏ</w>": 4094,
      "ㅇㅜㄴㄷㅗㅇ</w>": 4095
    },
    "merges": [
      "ㅇ ㅣ",
      "ㅎ ㅏ",
      "ㅇ ㅡ",
      "ㄷ ㅏ",
      "ㅇ ㅢ</w>",
      "ㅏ ㅇ",
      "ㅈ ㅓ",
      "ㄴ ㅡ",
      "ㄷㅏ .</w>",
      "ㅗ ㅇ",
      "ㅇ ㅕ",
      "ㄴㅡ ㄴ</w>",
      "ㅅ ㅓ",
      "ㅅ ㅣ",
      "ㅡ ㄹ",
      "ㅈ ㅣ",
      "ㄱ ㅜ",
      "ㅏ ㄹ",
      "ㄴ ㅕ",
      "ㅏ ㄴ",
      "ㅇ ㅓ",
      "ㅇㅡ ㄹ</w>",
      "ㅏ ㄱ",
      "ㄹ ㅣ",
      "ㅆ ㄷㅏ.</w>",
      "ㅇ ㅔ</w>",
      "ㅗ ㄱ",
      "ㅇ ㅝ",
      "ㅈ ㅜ",
      "ㅅ ㅡ",
      "ㅇ ㅣ</w>",
      "ㅕ ㅇ",
      "ㅇ ㅔ",
      "ㄹ ㅗ</w>",
      "ㄱ ㅣ",
      "ㅂ ㅜ",
      "ㄷ ㅐ",
      "ㄹ ㅡ",
      "ㄴㅕ ㄴ</w>",
      "ㅇㅡ ㄴ</w>",
      "ㅁ ㅣ",
      "ㅏ ㅁ",
      "ㅎ ㅐ",
      "2 0",
      "ㅇㅣ ㄹ",
      "ㄷ ㅚ",
      "ㅎㅏ ㄱ",
      "ㅇ ㅏ",
      "ㄱ ㅏ",
      "ㅁ ㅜ",
      "ㅅ ㅜ",
      "ㅅ ㅓ</w>",
      "ㅎㅏ ㄴ</w>",
      "ㅅ ㅏ",
      "1 9",
      "ㄱㅜ ㄱ",
      "ㅗ ㄴ",
      "ㅇㅣ ㄴ",
      "ㅕ ㄴ",
      "ㄹㅡ ㄹ</w>",
      "ㅎㅏ ㄴ",
      "ㅎ ㅘ",
      "ㄷ ㅡ",
      "ㅈㅓ ㅇ",
      "ㅈ ㅔ",
      "ㄱ ㅓ",
      "ㅊ ㅜ",
      "ㅅ ㅏㅇ",
      "ㅗ ㄹ",
      "ㅈ ㅏ",
      "ㄱ ㅘ",
      "ㅈㅓ ㄴ",
      "ㄷ ㅗㅇ",
      "ㄱ ㅡ",
      "ㅇ ㅜ",
      "ㅇㅡ ㄹㅗ</w>",
      "ㄷ ㅡㄹ",
      "ㄱ ㅏ</w>",
      "ㅁ ㅏ",
      "ㅂ ㅓ",
      "ㅊ ㅓ",
      "ㅇㅝ ㄹ</w>",
      "ㅈ ㅏㅇ",
      "ㄷ ㅗ",
      "ㅇ ㅠ",
      "ㄱ ㅗ",
      "ㅇㅔ ㅅㅓ</w>",
      "ㅂ ㅣ",
      "ㅅㅓ ㄴ",
      "ㅅㅓ ㅇ",
      "ㄱ ㅗㅇ",
      "ㄹ ㅗ",
      "ㅊ ㅣ",
      "ㄱ ㅗ</w>",
      "ㅐ ㅇ",
      "ㄴㅕ ㄴ",
      "ㅅ ㅔ",
      "ㄷ ㅗ</w>",
      "ㅇㅕ ㅇ",
      "ㅇ ㅟ",
      "ㄱ ㅘ</w>",
      "ㄱ ㅕㅇ",
      "ㅇㅣ ㅆ",
      "ㅇㅣ ㄷㅏ.</w>",
      "ㅇㅡ ㅁ",
      "ㅇㅣ ㄴ</w>",
      "ㅈㅜ ㅇ",
      "ㅈ ㅗ",
      "ㅇ ㅑ",
      "ㅇㅝ ㄴ",
      "ㅁㅣ ㄴ",
      "ㅂ ㅏ",
      "20 1",
      "ㅂ ㅗ",
      "ㅅㅣ ㄴ",
      "ㅈ ㅣ</w>",
      "ㅅ ㅗ",
      "ㅇ ㅛ",
      "ㅇㅣ ㄹ</w>",
      "ㅈ ㅏㄱ",
      "ㅇㅕ ㄴ",
      "ㅅ ㅜ</w>",
      "ㄱ ㅕ",
      "ㅌ ㅡ",
      "ㄴ ㅏ",
      "ㄱ ㅐ",
      "20 0",
      "ㄱ ㅛ",
      "ㅁㅜ ㄴ",
      "ㅈㅓ ㄱ",
      "ㅅ ㅏㄹ",
      "ㅔ ㅇㅣ",
      "ㅍ ㅡㄹ",
      "ㅎ ㅚ",
      "ㅇ ㅗ",
      "ㅇㅓ ㅆㄷㅏ.</w>",
      "ㅇ ㅢ",
      "ㅅㅡ ㅌ",
      "ㅁ ㅗ",
      "ㅂ ㅏㄹ",
      "ㅁ ㅕㅇ",
      "ㅅ ㅡ</w>",
      "ㅇㅕ ㄱ",
      "ㄹ ㄹ",
      "( )",
      "ㅎㅏ ㅇㅕ",
      "ㅍ ㅣ",
      "ㄱ ㅡㄹ",
      "ㅊㅜ ㄹ",
      "ㄱㅘ ㄴ",
      "ㅂ ㅏㅇ",
      "ㄷ ㅓ",
      "ㅈㅣ ㄴ",
      "ㅐ ㄱ",
      "ㅎㅏ ㅁ",
      "ㄹ ㅕ",
      "ㄷㅡ ㅇ",
      "ㄹ ㅏ",
      "ㅎㅏ ㅇ",
      "ㅎ ㅐ</w>",
      "ㅅ ㅏㄴ",
      "ㅇ ㅏㄴ",
      "ㅓ ㄴ",
      "ㅈ ㅏ</w>",
      "ㅇㅣ ㅆㄷㅏ.</w>",
      "ㅎㅏ ㄴㅡㄴ</w>",
      "ㄱㅓ ㅅ",
      "ㅕ ㄴ</w>",
      "ㅁ ㅏㄴ",
      "ㅅ ㅣ</w>",
      "ㅈ ㅐ",
      "ㅇ ㅓ</w>",
      "ㄴ ㅏㅁ",
      "ㅎㅐ ㅆㄷㅏ.</w>",
      "ㄱ ㅖ",
      "ㅇ ㅘ",
      "ㅎ ㅜ",
      "ㅈ ㅡ",
      "ㄱㅜㄱ ㅇㅢ</w>",
      "ㅌ ㅗㅇ",
      "ㅎㅐ ㅇ",
      "ㄷㅏ ㄴ",
      "ㅅ ㅐㅇ",
      "ㅇ ㅘ</w>",
      "ㄱ ㅣ</w>",
      "ㅋ ㅣ",
      "ㅇㅣ ㅁ",
      "ㅌ ㅣ",
      "ㅎ ㅗ",
      "ㄱ ㅏㅇ",
      "ㄱㅜ ㄴ",
      "ㄱ ㅏㄱ",
      "ㅍ ㅗ",
      "ㅂ ㅜ</w>",
      "ㄹ ㄹㅣ",
      "ㄷㅏ ㅇ",
      "ㄷ ㅔ",
      "ㅐ ㄴ",
      "ㄱ ㅔ</w>",
      "ㅈ ㅗㅇ",
      "ㅎㅏㄴ ㄷㅏ.</w>",
      "ㄱ ㅜ</w>",
      "ㅂ ㅏㄴ",
      "ㅇㅕ ㄱ</w>",
      "ㄱㅜ ㄱ</w>",
      "ㅂ ㅗㄴ",
      "ㅂㅜ ㄴ",
      "ㅎ ㅕㄴ",
      "ㄷ ㅣ",
      "ㅇㅓ ㅆ",
      "ㄷㅚ ㄴ</w>",
      "ㅇ ㅚ",
      "ㄷㅚ ㅇㅓㅆㄷㅏ.</w>",
      "ㅅㅣ ㄱ",
      "ㅡ ㄹ</w>",
      "ㅊ ㅔ",
      "ㄷ ㅡ</w>",
      "ㅂ ㅗㄱ",
      "ㅎㅏㅇㅕ ㅆㄷㅏ.</w>",
      "ㄱ ㅛ</w>",
      "19 9",
      "ㅍ ㅜ",
      "ㅎ ㅘ</w>",
      "ㅋ ㅗ",
      "ㄷ ㅐ</w>",
      "ㅇ ㅏㄹ",
      "ㄷ ㅗㄱ",
      "ㅈ ㅜ</w>",
      "ㄷㅐ ㅎㅏㄴ",
      "ㄴ ㅗ",
      "ㅎㅏㄱ ㅗ</w>",
      "ㅎ ㅕ",
      "1 0",
      "ㅂ ㅔ",
      "ㅌ ㅏ",
      "ㅈㅏ ㅇ</w>",
      "ㅋ ㅏ",
      "ㄱㅏ ㅌ",
      "ㅅ ㅏ</w>",
      "ㄴ ㄷㅏ.</w>",
      "ㅅ ㅗㄱ",
      "ㅌ ㅔ",
      "ㅊㅜ ㄱ",
      "ㅑ ㅇ",
      "ㅕ ,</w>",
      "ㅎㅏㅇ ㅕ</w>",
      "ㄷㅐㅎㅏㄴ ㅁㅣㄴ",
      "ㅈㅓ ㄴ</w>",
      "ㅌ ㅓ</w>",
      "ㄴ ㅣ",
      "ㄱㅕ ㄹ",
      "ㅂ ㅐ",
      "ㄹ ㅔ",
      "ㅅㅣ ㄹ",
      "ㅋ ㅡ</w>",
      "ㅁ ㅏㄹ",
      "ㅎㅐ ㅆ",
      "ㅅㅡ ㅇ",
      "ㄱ ㅡ</w>",
      "ㅁㅜ ㄹ",
      "ㅌ ㅗ",
      "ㅇㅣㅆ ㄴㅡㄴ</w>",
      "ㅇㅣ ㅂ",
      "ㄹ ㅓ",
      "ㅇㅛ ㅇ",
      "ㅍ ㅛ",
      "ㅇ ㅏ</w>",
      "ㅅ ㅐ",
      "ㅋ ㅡㄹ",
      "ㅌ ㅓ",
      "ㅋ ㅡ",
      "ㅊ ㅗ",
      "ㅎㅏㄱ ㄱㅛ</w>",
      "ㅇ ㅖ",
      "ㅍ ㅏ",
      "ㅁㅏ ㄴ</w>",
      "ㅇㅑ ㅇ",
      "ㄱㅗ ,</w>",
      "ㅌ ㅡ</w>",
      "ㄱㅣ ㅁ",
      "ㅅㅓ ㄹ",
      "ㄷ ㅜ",
      "ㅊ ㅏ",
      "ㅊ ㅚ",
      "ㅇㅔ ㄴㅡㄴ</w>",
      "ㄹ ㅣ</w>",
      "e r",
      "ㄱ ㅏㅁ",
      "ㅌ ㅡㄹ",
      "ㅁ ㅔ",
      "ㄱ ㅏㄴ",
      "ㅂㅓ ㅂ",
      "ㅅ ㅏㅁ",
      "ㅅㅏ ㅇ</w>",
      "ㅎ ㅚ</w>",
      "ㅎㅏ ㄹ</w>",
      "ㅎ ㅕㅇ",
      "ㅊㅓ ㄴ",
      "ㅂ ㅡㄹ",
      "ㅌ ㅐ",
      "ㄷㅓ ㄴ</w>",
      "ㅁ ㅐ",
      "ㅅ ㅗㅇ",
      "( )</w>",
      "ㅇㅓ ㅂ",
      "ㅎ ㅣ",
      "ㄹㅣ ㅇ",
      "a n",
      "19 8",
      "i n",
      "ㅂ ㅕ",
      "ㅁ ㅕㄴ",
      "ㅋ ㅓ",
      "ㅇㅝ ㄴ</w>",
      "ㅊ ㅏㅁ",
      "ㅁ ㅗㄱ",
      "ㅇㅝ ㄹ",
      "ㅌㅡ ㄱ",
      "ㅝ ㄴ",
      "ㅇㅕㅇ ㅎㅘ</w>",
      "ㅎㅏ ㅂ",
      "1 8",
      "1 2",
      "ㅛ ㅇ",
      "ㅈ ㅏㄹ",
      "ㅎ ㅜ</w>",
      "ㅇㅔ ㅅㅓ",
      "ㅅㅣ ㅁ",
      "ㅅ ㅏㄱ",
      "ㄴ ㅐ",
      "ㅈㅓ ㄱ</w>",
      "ㄲ ㅏ",
      "ㅈㅣ ㄱ",
      "ㅍ ㅔ",
      "ㅌ ㅜ",
      "ㅅ ㅡㄹ",
      "ㅊ ㅡ",
      "ㅊㅓ ㅇ",
      "ㄹ ㅜ",
      "ㄴㅕㄴ )</w>",
      "ㄷ ㅏ</w>",
      "ㅇㅏ ㄶ",
      "ㅇㅓ ㄴ",
      "ㄴㅡ ㄴ",
      "ㅇㅜ ㄴ",
      "ㅂㅓ ㄴ",
      "ㅂㅜ ㅌㅓ</w>",
      "ㅅㅓㄴ ㅅㅜ</w>",
      "ㅍ ㅕㅇ",
      "ㅍ ㅏㄴ",
      "ㅇ ㅗㄹ",
      "ㄱㅓ ㄴ",
      "ㅈㅓ ㅁ",
      "1 ㄴㅕㄴ</w>",
      "ㅇㅡ ㄴ",
      "ㅂㅜ ㄱ",
      "8 ㄴㅕㄴ</w>",
      "2 ㄴㅕㄴ</w>",
      "ㅂㅏ ㄷ",
      "ㅇㅡ ㄹㅗ",
      "ㅎ ㅓ",
      "6 ㄴㅕㄴ</w>",
      "ㄸ ㅐ",
      "o n",
      "ㅂ ㅏㄱ",
      "ㅇ ㅏㅇ",
      "ㄷ ㅗㄹ",
      "7 ㄴㅕㄴ</w>",
      "5 ㄴㅕㄴ</w>",
      "ㅈ ㅗㄱ",
      "4 ㄴㅕㄴ</w>",
      "ㄹ ㅠ",
      "ㄱㅘ ㅇ",
      "ㅂ ㅗㅇ",
      "ㅊㅓ ㄹ",
      "ㅊㅜㄱ ㄱㅜ</w>",
      "1 1",
      "ㄷㅐㅎㅏㄴㅁㅣㄴ ㄱㅜㄱㅇㅢ</w>",
      "ㅜ ㄴ",
      "ㄱ ㅏㄹ",
      "ㅂㅜ ㄹ",
      "ㅅㅜ ㄹ",
      "ㄸ ㅗ",
      "ㅇㅚ ㅂㅜ</w>",
      "ㅈㅣ ㄴ</w>",
      "ㄹㅣㅇ ㅋㅡ</w>",
      "a r",
      "ㅇㅓ ㅄ",
      "3 ㄴㅕㄴ</w>",
      "ㅇㅘ ㅇ",
      "ㄱㅜ ㄴ</w>",
      "0 ㄴㅕㄴ</w>",
      "ㅇ ㅏㄱ",
      "ㅋ ㅜ",
      "ㅍ ㅕㄴ",
      "ㅎㅘ ㄹ",
      "ㅊ ㅏㅇ",
      "ㅈㅣ ㅂ",
      "ㅈㅓㄱ ㅇㅣㄴ</w>",
      "e n",
      "ㄱㅡ ㅁ",
      "ㅇㅡㅁ ㅕ,</w>",
      "ㅅㅓ ㅇ</w>",
      "ㅂ ㅕㄴ",
      "ㄱ ㅗㄱ",
      "o r",
      "ㄷㅚ ㅇㅓㅆ",
      "0 0",
      "ㅂ ㅕㅇ",
      "ㅅㅓ ㄱ",
      "ㄷㅚ ㅇㅓ</w>",
      "ㅇ ㅐ",
      "ㅇㅕ ㄹ",
      "ㅏㄱ ㅗ</w>",
      "19 7",
      "ㅅㅓ ㄴ</w>",
      "ㅈㅜ ㄴ",
      "ㄸ ㅏㄹ",
      "ㅍ ㅡ",
      "ㄱ ㅝㄴ",
      "ㅁㅣ ㅊ</w>",
      "ㄷㅚ ㄴㄷㅏ.</w>",
      "ㄹㅕ ㄱ",
      "ㄲㅏ ㅈㅣ</w>",
      "ㅎㅏㅇㅕ ㅆ",
      "ㄱㅏㄱ ㅈㅜ</w>",
      "ㅌ ㅏㄹ",
      ") ㄴㅡㄴ</w>",
      "ㅈㅓㄱ ㅇㅡㄹㅗ</w>",
      "t i",
      "ㄱㅕ ㄱ",
      "ㅁ ㅇㅡㄹ</w>",
      "ㅁ ㅕㄴ</w>",
      "9 ㄴㅕㄴ</w>",
      "ㄴ ㅔ",
      "ㅅㅏㅇ ㅛㅇ",
      "ㄹ ㅗㄱ",
      "ㅈ ㅔ</w>",
      "ㄴ ㅓ",
      "ㅁ ㅕ",
      "ㄴ ㅏㄹ",
      "ㄱ ㅖ</w>",
      "ㅅㅐ ㅇ</w>",
      "ㅇㅣㄹ ㅂㅗㄴ",
      "ㅎ ㅑㅇ",
      "ㅇㅔ ㄱㅔ</w>",
      "ㅎ ㅣ</w>",
      "ㅊ ㅏㄹ",
      "ㅇㅠ ㄱ",
      "ㅎㅘ ㅇ",
      "ㅈㅓ ㅇ</w>",
      "ㅅㅏㄹ ㅏ",
      "ㄱㅡㄹ ㅣ",
      "ㅇㅜ ㄹ",
      "ㅋ ㅔ",
      "ㅂㅕ ㄹ",
      "ㅊ ㅗㅇ",
      "ㅇ ㅏㅁ",
      "ㅅㅣ ㄴ</w>",
      "1 5",
      "ㄹㅡ ㄴ</w>",
      ") ,</w>",
      "ㅁㅣ ㄱㅜㄱㅇㅢ</w>",
      "ㄷ ㅜ</w>",
      "ㄱ ㅠ",
      "ㄷㅡㄹ ㅇㅡㄴ</w>",
      "19 6",
      "ㅁ ㅓ",
      "ㄱㅡ ㄴ",
      "( ,</w>",
      "ㅌ ㅏㄴ",
      "ㄴㅕㄴ ㅇㅔ</w>",
      "ㅎㅏㄱ ㅔ</w>",
      "ㄱㅏ ㄴ</w>",
      "ㄷㅏ ㄱㅗ</w>",
      "ㅎ ㅡ",
      "ㄱㅏㅌ ㅇㅣ</w>",
      "ㄱ ㅔ",
      "ㄴㅡ ㅇ",
      "ㅂ ㅐㄱ",
      "ㅈㅜ ㅇ</w>",
      "ㄱ ㅗㄹ",
      "ㅁㅜ ㄴ</w>",
      "ㄹㄹ ㅔ",
      "ㄷㅐ ㅎㅏㄴ</w>",
      "ㅇㅑ ㄱ",
      "1 6",
      "ㅎㅘ ㄴ",
      "ㄷㅡㄹ ㅇㅣ</w>",
      "ㅋ ㅐ",
      "ㄷ ㅔ</w>",
      "ㅇㅔㅅㅓ ㄴㅡㄴ</w>",
      "ㅎㅏ ㄱ</w>",
      "ㅅㅣ ㄱ</w>",
      "ㅈㅡ ㅇ",
      "ㅅㅏ ㅇㅣ",
      "ㅅㅏㄹㅏ ㅁ</w>",
      "a l",
      "ㅐㅇ ㅜ</w>",
      "ㅊ ㅣ</w>",
      "ㄹㅣ ㅂ",
      "ㅅㅜ ㄴ",
      "ㅈㅣ ㅁㅏㄴ</w>",
      "ㄷㅗ ㅇ</w>",
      "ㅎㅏㄱ ㄱㅛ",
      "ㅈ ㅗㄴ",
      "ㄷㅏ ㄴㅡㄴ</w>",
      "ㅁㅏ ㄶ",
      "ㅅ ㅗㄴ",
      "ㅕ ㅆㄷㅏ.</w>",
      "1 7",
      "ㄱㅡ ㅂ",
      ") ㅇㅡㄴ</w>",
      "ㄷ ㅓ</w>",
      "ㅂㅗ ㄴ</w>",
      "ㅈㅣ ㄹ",
      "ㄷㅏ ㅇ</w>",
      "ㄱ ㅔㅇㅣ",
      "ㄹ ㅏ</w>",
      "ㅎㅏㄴ ㄱㅜㄱ",
      "ㄹ ㅏㄴ",
      "ㅆ ㅡ",
      "s t",
      "ㄱㅕㅇ ㄱㅣ",
      "ㄹ ㅐ",
      "l e",
      "ㄷㅏ ㄹ",
      "ㄷㅏ ㄹㅡㄴ</w>",
      "ㅇㅡㅁ ㅕ</w>",
      "( 201",
      "ㅁ ㅏㅇ",
      "ㄹㅣ ㅁ",
      "t h",
      "3 ㅇㅝㄹ</w>",
      "ㅈㅏㄱ ㅍㅜ",
      "ㄹ ㅕㅇ",
      "ㄱㅏㅌ ㅇㅡㄴ</w>",
      "ㅋ ㅏㄹ",
      "ㅍ ㅐ",
      "ㅎ ㅗㅇ",
      "( 200",
      "ㅏ ㄴㅡㄴ</w>",
      "ㄱㅡ ㄴㅡㄴ</w>",
      "ㅇㅣ ㄹㅡ",
      "ㅊㅜ ㅇ",
      "ㅂㅗㄱ ㅣ</w>",
      "ㅅㅡ ㅇㅢ</w>",
      "r o",
      "19 4",
      "ㅊ ㅏ</w>",
      "ㅍ ㅓ",
      "1 4",
      "ㅎ ㅔ",
      "ㅇㅏ ㄴ</w>",
      "19 5",
      "ㅇ ㅞ",
      "ㅈㅣ ㅇㅕㄱ",
      "ㅎㅘ ㄱ",
      "ㅍ ㅏㄹ",
      "ㅈㅓ ㄹ",
      "i t",
      "ㅇㅣ ㅎㅜ</w>",
      "1 3",
      "r e",
      "ㅇㅏ ㅆㄷㅏ.</w>",
      "ㄸㅐ ㅁㅜㄴ",
      "ㄷㅡㄹ ㅇㅢ</w>",
      "ㄷㅡ ㅇ</w>",
      "ㅅ ㅠ",
      "ㅈ ㅗ</w>",
      ". 0",
      "ㅁㅜ ㄹ</w>",
      "ㅅㅣ ㅈㅏㄱ",
      "ㅅㅏ ㄴ</w>",
      "1 ㅇㅣㄹ</w>",
      "ㅍㅡㄹ ㅏㅇ",
      "ㅅㅏㄹ ㅏㅁ",
      "ㅎㅕ ㅂ",
      "ㅂㅏ ㄴ</w>",
      "ㅊ ㅐ",
      "ㅇ ㅗㄴ",
      "ㅈ ㅡ</w>",
      "ㅎㅏㄱ ㅣ</w>",
      "ㄱㅡ ㄱ",
      "ㅎㅏㅁ ㄲ",
      "ㄷㅏ ㄴ</w>",
      "ㄱㅡ ㅇㅢ</w>",
      "ㄸ ㅐ</w>",
      "ㄷㅐ ㅎㅏㄱㄱㅛ</w>",
      "ㅎㅏ ㄹ",
      "ㄹ ㅔㅇㅣ",
      "ㄷㅚ ㄴㅡㄴ</w>",
      "ㅂㅓ ㅁ",
      "ㅈ ㅐ</w>",
      "ㄴ ㅏㄴ",
      "i c",
      "ㄷㅡㄹ ㅇㅡㄹ</w>",
      "ㅂ ㅐㅇㅜ</w>",
      "ㅋ ㅏ</w>",
      "ㅊㅜㄹ ㅅㅐㅇ</w>",
      "ㅇㅏㄴ ㅣ",
      "ㅍㅣ ㄹ",
      "ㅌ ㅏ</w>",
      "ㅇ ㅗ</w>",
      "ㅊ ㅟ",
      "ㄷㅡㄹ ㅏㅁ",
      "ㄷㅡ ㄴ</w>",
      "ㄱㅣ ㄷㅗ</w>",
      "ㄷㅐㅎㅏㄴㅁㅣㄴ ㄱㅜㄱ</w>",
      "ㅕ ㅆ",
      "ㅁ ㅏㄱ",
      "ㄷㅏ ㅇㅡㅁ",
      "o l",
      "ㅎㅏㅁㄲ ㅔ</w>",
      "ㅇㅟ ㅎㅐ</w>",
      "4 ㅇㅝㄹ</w>",
      "ㅎㅏ ㅈㅣ</w>",
      "ㅇㅕㅇ ㅎㅘ",
      "ㅅㅓ ㅇㅜㄹ",
      "ㄹ ㅐㄴ",
      "ㅇㅘ ㄴ",
      "ㅔ ㅅㅓ</w>",
      "ㅇㅣㄹ ,</w>",
      "ㅉ ㅗㄱ",
      "ㅋ ㅣ</w>",
      "ㅊ ㅐㄱ",
      "ㅊㅣ ㄴ",
      "ㅈㅏ ㅅㅣㄴ",
      "ㅊ ㅏㄱ",
      "ㅇㅣ ㄴㅡㄴ</w>",
      "ㅁ ㅏ</w>",
      "ㅁㅏㄴ ,</w>",
      "ㄷㅔ ,</w>",
      "ㅈ ㅐㅇ",
      "ㅜ ㄴ</w>",
      "ㅅㅣ ㅈㅡ",
      "ㅓ ㄴ</w>",
      "ㅗ ,</w>",
      "ㄴ ㅏㅇ",
      "ㅋ ㅏㅇ",
      "ㄱ ㅕㄴ",
      "K B",
      "a t",
      "ㅇㅏ ㅇㅢ</w>",
      "ㄴ ㅗㄹ",
      "ㅎ ㅕㄴ</w>",
      "ㅅㅔ ㄱㅣ</w>",
      "ㄱㅓㅅ ㅇㅡㄹ</w>",
      "ㅓㄴ ㅏ</w>",
      "ㅅ ㅗ</w>",
      "ㅍㅡㄹ ㅗ",
      "ㄷㅡㅇ ㅎㅏㄱㄱㅛ</w>",
      "ㅅㅡㅌ ㅡㄹ",
      "ㅍㅡㄹ ㅣ",
      "12 ㅇㅝㄹ</w>",
      "ㄷㅡ ㄹ</w>",
      "ㅁ ㅓㄴ",
      "ㄷㅐ ㅍㅛ",
      "3 0",
      "ㄷㅏ ㅁ",
      "ㄴ ㅗㅇ",
      "ㄸㅗ ㄴㅡㄴ</w>",
      "ㄱㅘ ㄴ</w>",
      "ㅆ ㅣ",
      "ㅅㅓㄴ ㅅㅜ",
      "ㅁㅕ ㅇ</w>",
      "10 ㅇㅝㄹ</w>",
      "ㅇㅣㄹ ㅂㅗㄴ</w>",
      "ㅅ ㅐㄱ",
      "9 ㅇㅝㄹ</w>",
      "ㄹㅗ ㄱ</w>",
      "ㅗ ㄱ</w>",
      "ㅍ ㅗㄱ",
      "ㅈㅜ ㅇㅢ</w>",
      "ㅇㅟ ㅇㅝㄴ",
      "ㅅㅡㅌ ㅡ</w>",
      "ㅈㅣ ㅁㅏㄴ,</w>",
      "ㅎ ㅗ</w>",
      "ㅎ ㅗㄴ",
      "ㅎ ㅢ",
      "ㄹ ㅗㅇ",
      "ㄹㅕ ㄱ</w>",
      "ㄹ ㅛ",
      "ㄷㅗ ㅇㅢ</w>",
      "ㅂㅓㄴ ㅉ",
      "a c",
      "ㅅ ㅔ</w>",
      "ㄹ ㅏㅇ",
      "7 ㅇㅝㄹ</w>",
      "ㅈ ㅗㄹ",
      "ㅈㅣ ㄴㅡㄴ</w>",
      "20 2",
      "ㅇ ㅜ</w>",
      "ㅅㅣ ㅇㅢ</w>",
      "1 ㅇㅝㄹ</w>",
      "ㅇㅏ ㅆ",
      "ㄹㄹ ㅓ",
      "ㅅㅔ ㄴ",
      "ㄲ ㅡ",
      "ㅗㄱ ㅡㄹ",
      "ㅇㅟ ㅊㅣ",
      "ㄸㅗ ㅎㅏㄴ</w>",
      "ㅁ ㅗㅇ",
      "ㅁ ㅇㅢ</w>",
      "ㅅㅡ ㅂ",
      "ㅇㅏ ㅇㅣ",
      "ㅂㅏㅇ ㅅㅗㅇ",
      "ㅈㅗ ㅅㅓㄴ",
      "8 ㅇㅝㄹ</w>",
      "ㅁㅜㄴ ㅎㅘ",
      "5 ㅇㅝㄹ</w>",
      "i s",
      "| |</w>",
      "ㅌㅔ ㄹㄹㅔ",
      "e s",
      "ㅁㅣ ㄱㅜㄱ</w>",
      "ㄴ ㅠ",
      "ㅁㅗ ㅅ",
      "ㅇㅣㄴ ㅏ</w>",
      "0 ㄴㅕㄴ",
      "T h",
      "2 ㅇㅝㄹ</w>",
      "ㄴㅡㄴ ㄷㅔ,</w>",
      "ㄱㅣ ㄹㅗㄱ",
      "ㅇㅔ ㄷㅗ</w>",
      "ㄱㅏ ㅈㅏㅇ</w>",
      "ㅁ ㅇㅡㄴ</w>",
      "ㅊ ㅔ</w>",
      "ㅅㅣ ㅇ",
      "o f</w>",
      "ㅍ ㅖ",
      "o n</w>",
      "ㅇㅓ ㅂ</w>",
      "ㅇㅔ ㄴ",
      "ㅗㄱㅡㄹ ㅐ",
      "ㅁ ㅔㅇㅣ",
      "ㅋ ㅗㄴ",
      "6 ㅇㅝㄹ</w>",
      "ㅈㅗ ㅇ</w>",
      "ㄹㅣ ㄴ",
      "ㅅㅗ ㄱ</w>",
      "11 ㅇㅝㄹ</w>",
      "ㄷㅡㄹ ㅇㅓ",
      "ㄴ ㅏㄱ",
      "ㅎ ㅛ",
      "ㅅ ㅕㄴ</w>",
      "ㅍ ㅗㄹ",
      "e l",
      "ㅇㅠ ㄴ",
      "ㅇㅡ ㅁ</w>",
      "ㅅ ㅕㄴ",
      "ㅎㅕ ㅇ</w>",
      "o u",
      "ㄷㅗㅇ ㅁㅜㄴ</w>",
      "ㅅㅓ ㄹㄹㅣ",
      "ㅇㅣㄹㅂㅗㄴ ㅇㅢ</w>",
      "ㅇㅕㄴ ㄱㅜ",
      "ㅍ ㅡ</w>",
      "ㅇㅣㄹ ㅇㅔ</w>",
      "ㅍㅡㄹ ㅗㄱㅡㄹㅐ",
      "ㅈㅓ ㅂ",
      "ㅕㄴ ㅅㅓ</w>",
      "ㅕ ㄱ",
      "ㅇ ㅐㄴ",
      "ㅇㅢ ㅎㅐ</w>",
      "ㅇㅓ ㄴㅏ",
      "ㅅ ㅗㄹ",
      "ㅝ ㄴ</w>",
      "ㄱㅣ ㄹ",
      "a l</w>",
      "ㄱㅜㄱ ㄱㅏ",
      "ㅈㅜㅇ ㅢ",
      "ㅌㅔㄹㄹㅔ ㅂㅣ",
      "ㄱㅐ ㅇㅢ</w>",
      "ㅁ ㅇㅣ</w>",
      "ㅌ ㅗ</w>",
      "ㅅㅏ ㅎㅚ",
      "ㅈㅜ ㄱ",
      "ㄷㅡㄹㅏㅁ ㅏ</w>",
      "ㄹㅏ ㄴㅡㄴ</w>",
      "ㅊㅜㄹ ㅅㅣㄴ</w>",
      "2 5",
      "19 3",
      "ㅇ ㅟ</w>",
      "ㄴ ㅏ</w>",
      "ㄹ ㅗㄴ",
      "ㅇㅕ ㄴ</w>",
      "ㅁㅏㄶ ㅇㅡㄴ</w>",
      "ㅎㅏㅁ ㅕ</w>",
      "i g",
      "ㄱ ㅐ</w>",
      "ㅌ ㅏㅇ",
      "ㅈㅏㄱㅍㅜ ㅁ</w>",
      "ㅌㅡㄱ ㅂㅕㄹ",
      "ㅇㅕ ㅈㅏ</w>",
      "ㄸ ㅡ",
      "ㅇㅗㄹ ㄹㅣㅁ",
      "() ㅇㅡㄴ</w>",
      "ㅇ ㅗㄱ",
      "ㄹㅏ ㅇㅣ",
      "ㅎㅘㄹ ㄷㅗㅇ",
      "ㅇㅏ ㅇㅣㅆㄴㅡㄴ</w>",
      "ㅈ ㅕ</w>",
      "ㄸㅐㅁㅜㄴ ㅇㅔ</w>",
      "ㄸㅏㄹ ㅏ</w>",
      "ㄹㅣ ㄱㅡ</w>",
      "ㄷㅏ .",
      "ㅎㅚ ㄱ",
      "o m",
      "e r</w>",
      "ㅈㅓㅇ ㅊㅣ",
      "ㅇㅡㄴ ㅏ</w>",
      "ㅌㅔㄹㄹㅔㅂㅣ ㅈㅓㄴ</w>",
      "ㄴㅏ ,</w>",
      "i l",
      ") ㅇㅢ</w>",
      "ㅇㅗㄹㄹㅣㅁ ㅍㅣ",
      "ㅁㅣ ㄹ",
      "ㄱㅓ ㅁ",
      "ㅇㅑ ㄱ</w>",
      "ㄱㅏ ㅈㅣ",
      "() ㄴㅡㄴ</w>",
      "ㅅㅏㄹ ㅇㅏㅇㅣㅆㄴㅡㄴ</w>",
      "ㄱ ㅟ",
      "ㅈㅔ ㅈㅏㄱ",
      "ㅇㅣㅆ ㅇㅓㅆ",
      "ㅈ ㅏㅁ",
      "ㄱㅓㅅ ㅇㅡㄴ</w>",
      "ㅁㅣ ㄱㅜㄱ",
      "ㅊㅣ ㅇ",
      "ㅂㅓㄴㅉ ㅐ</w>",
      "ㅅㅣ ㅋㅣ",
      "c h",
      "ㅊ ㅗㄱ",
      "ㄱㅓㅅ ㅇㅡㄹㅗ</w>",
      "ㄱㅡㄹㅣ ㄱㅗ</w>",
      "ㄱㅡㄹ ㅓㄴㅏ</w>",
      "ㄷㅡ ㅇㅢ</w>",
      "ㅁㅣㄴ ㅈㅜ",
      "ㅊㅡ ㄱ",
      "ㅂㅜ ㅂㅜㄴ",
      "ㅈㅔ 2",
      "ㄱㅏ ㄱ</w>",
      "ㅇㅡ ㅇ",
      "ㅍㅗ ㅎㅏㅁ",
      "ㄹ ㅏㄱ",
      "ㅎ ㅓㄴ",
      "ㅅㅡㅌ ㅔ",
      "ㅓ ㄹ",
      "ㅇㅣㄹ ㅏㄱㅗ</w>",
      "ㅁ ㅗㄹ",
      "ㄱㅗㅇ ㅎㅘ",
      "ㄷㅓ ㄱ",
      "ㄴㅗ ㅍ",
      "ㅂㅐ ㅇㅜ",
      "ㄱㅣ ㄹㅡㄹ</w>",
      "( 199",
      "ㅎㅏ ㄷㅏ.</w>",
      "ㅏ ㄴ</w>",
      "ㅇㅣㅆ ㅇㅓㅆㄷㅏ.</w>",
      "ㄱㅕ ㅇ</w>",
      "ㅁ ㅣ</w>",
      "ㅋ ㅗㄹ",
      "ㄱㅔㅇㅣ ㅁ</w>",
      "ㅑ ㅇ</w>",
      "ㅇㅣ ㅇㅓㅆㄷㅏ.</w>",
      "ㅁ ㅍ",
      "a m",
      "ㄱㅗ ㅅ",
      "ㅂ ㅗ</w>",
      "a s",
      "ㅌㅗㅇ ㅎㅐ</w>",
      "ㅇㅣㄹ ㅓ",
      "ㅈㅏ ㅂ",
      "ㅊㅓ ㅅ</w>",
      "ㅊㅣ ㅁ",
      "ㄴ ㅗㄴ",
      "ㅇㅣㄹ ㅏㄴㅡㄴ</w>",
      "ㅅㅡㅌ ㅣ",
      "20 19",
      "ㄷㅏㅇ ㅅㅣ</w>",
      "M B",
      "ㄱㅓㅅ ㅇㅣ</w>",
      "ㄷㅐ ㅎㅏㄱ",
      "ㅊ ㅗㄴ",
      "ㅅㅡ ㄴㅡㄴ</w>",
      "ㄷㅚ ㄱㅗ</w>",
      "ㅌ ㅐㄱ",
      "ㅋ ㅏㄴ",
      "a ti",
      "ㅎㅐ ㅇ</w>",
      "ㄱㅣ ㅇㅔ</w>",
      "ㅋ ㅗ</w>",
      "ㅇㅣㅁ ㅕ,</w>",
      "2 1",
      "ㄹ ㅏㄱㅗ</w>",
      "ㅎㅜ ㄴ",
      "2 4",
      "ㅇㅛ ㅇ</w>",
      "ㄱㅏ ㅈ",
      "ㄸㅡ ㅅ",
      "ㅅㅔ ㄱㅖ",
      "ㄷㅡ ㄱ",
      "ㅇㅣ ㅇㅓㅆ",
      "ㄷ ㅟ",
      "ㅇㅕ ㅇ</w>",
      "ㅈㅓㅇ ㅂㅜ",
      "ㅂ ㅡ</w>",
      "ㅂ ㅣ</w>",
      "i d",
      "ㄱㅕㅇ ㅇㅜ",
      "ㄴ ㅜ",
      "ㅇㅟ ㅎㅏㄴ</w>",
      "ㄴㅏㅁ ㅈㅏ</w>",
      "ㄹ ㅕㄴ",
      "20 20",
      "ㅁㅗ ㄷㅡㄴ</w>",
      "ㄷㅏ ㅅㅣ</w>",
      "ㅌㅣ ㅁ</w>",
      "ㅅㅣ ㄹㅣ",
      "ㅂ ㅡ",
      "ㅌㅗ ㅇ</w>",
      "ㄱㅛ ㅇㅠㄱ",
      "ㅂㅓ ㄹ",
      "ㅈㅣ ㅇ",
      "ㄱㅓㅅ ㅇㅣㄷㅏ.</w>",
      "ㅅㅏㅇ ㅇㅡㄹ</w>",
      "ㅎㅏㄱ ㅗ,</w>",
      "ㅅㅡㅌ ㅏ",
      "ㄴㅡㄴ ㄷㅔ</w>",
      "ㄱㅏ ㄴㅡㅇ",
      "ㅅㅏㄹ ㅡㄹ</w>",
      "2 3",
      "ㅂ ㅗㄹ",
      "ㅅㅓ ㄹ</w>",
      "ㄹㅣ ㄴ</w>",
      "ㄱㅏㅁ ㄷㅗㄱ",
      "ㅅㅡ ㅍㅔ",
      "u n",
      "ㅌㅏ ㅇㅣ",
      "ㄷㅐ ㄹㅗ</w>",
      "ㅇㅣㄹ ㅜ",
      "ㅇㅕㄱ ㅅㅏ</w>",
      "ㅊ ㅏㄴ",
      "ㅎㅏㅁ ㅕㄴㅅㅓ</w>",
      "ㅇㅡ ㄹ",
      "ㅂㅏ ㄲ",
      "ㅇㅡㄹㅗ ,</w>",
      "Th e</w>",
      "ㅅ ㅛ",
      "th e</w>",
      "ㅏ ㅇ</w>",
      "( S",
      "ㅇㅏ ㅅㅣ",
      "ㅅㅓㅇ ㅇㅡㄹ</w>",
      "ㄷㅡㅇ ㅇㅣ</w>",
      "ㄷㅏㅇㅡㅁ ㄱㅘ</w>",
      "ㅈ ㅘ",
      "ㅈ ㅕㅆㄷㅏ.</w>",
      "ㅎ ㅗㄱ",
      "ㄷㅗ ㄹㅗ</w>",
      "ㅍㅜ ㅇ",
      "2 8",
      "ㅕ ㄱ</w>",
      "ㅇㅣ ㄹㅡㄹ</w>",
      "201 0ㄴㅕㄴ</w>",
      "ㅁ ㅕ</w>",
      "ㅂㅓ ㄴ</w>",
      "ㄴㅕㄴ ,</w>",
      "ㅅ ㅑ",
      "ㅁㅕㅇ ㅇㅢ</w>",
      "() ,</w>",
      "ㅁㅕㄴ ㅅㅓ</w>",
      "ㅗㄴ ㅣ",
      "ㅅㅡ ㅌㅡ",
      "ㅎㅐ ㅅㅓ</w>",
      "ㅂㅗ ㄷㅏ</w>",
      "ㅎㅕㄴ ㅈㅐ</w>",
      "ㅅㅣ ㅇㅔ</w>",
      "ㄷㅐ ㅇㅢ</w>",
      "ㅅㅓㄴ ㄱㅓ",
      "ㄴ ㅐㅇ",
      "ㄹㄹ ㅣ</w>",
      "() ㅇㅢ</w>",
      "ㅓ ㅂ",
      "2 6",
      "ㄷ ㅔㅇㅣ",
      "ㄱㅜㄱ ㅈㅔ",
      "ㅅㅓ ㄴㅡㄴ</w>",
      "ㅅㅓㄹㄹㅣ ㅂ",
      "ㄱㅜㄴ ㅇㅢ</w>",
      "ㅅㅗ ㅇ</w>",
      "ㅌ ㅓㄴ",
      "ㅋㅡㄹ ㅣ",
      "ㅇㅣ ㅌㅏㄹ",
      "ㄹㅓ ㅅㅣ",
      "ㅈㅏㅇ ㅇㅡㄹ</w>",
      "ㄱㅡㄹ ㅜ",
      "ㄷㅣ ㅇㅗ</w>",
      "ㄹㅣ ㄹㅡㄹ</w>",
      "ㅇ ㅗㅇ",
      "ㅁㅏ ㅈ",
      "ㅂㅏㄹ ㅁㅐ",
      "2 2",
      "ㅅㅡ ㅇ</w>",
      "ㅂㅏ ㅇ</w>",
      "ㄴㅡ ㄴㄷㅏ.</w>",
      "ㅇㅗㄹㄹㅣㅁㅍㅣ ㄱ</w>",
      ". .",
      "ㅎㅓ ㅁ",
      "ㅈㅏㄱ ㅏ</w>",
      "ㄷㅗㄱ ㅇㅣㄹ",
      "ㄱㅜ ㅅㅓㅇ",
      "ㅊ ㅡ</w>",
      "ㅈㅣ ㄹㅡㄹ</w>",
      "ㅇㅕㄹ ㅓ</w>",
      "ㄷㅐ ㅌㅗㅇ",
      "ㅇㅡㅁ ㅇㅏㄱ",
      "ㅇㅏㄹ ㄹㅕ",
      "ㅂㅜ ㄹㅡ",
      "ㅋ ㅗㅇ",
      "ㅌ ㅚ",
      "2 7",
      "ㅈㅣ ㅂㅏㅇ",
      "ㅇㅣ ㄱ",
      "ㄷㅏ ㄱㅏ</w>",
      "ㅇㅣ ㅇ",
      "ㅂㅓ ㅂ</w>",
      "ㅇㅐㄴ ㅣ",
      "ㄷㅡㅇ ㅇㅢ</w>",
      "u r",
      "ㄷㅗㅇ ㅇㅏㄴ</w>",
      "ㅋㅡ ㄴ</w>",
      "ㅇㅣㅁ ㅕ</w>",
      "ㅇㅜㄴ ㄷㅗㅇ",
      "ㅊㅜㄹ ㅇㅕㄴ",
      "ㅎㅕ ㄱ",
      "ㅈㅓ ㅁ</w>",
      "ㅎㅡ ㅇ",
      "ㅇㅠ ㄹㅓ",
      "201 2ㄴㅕㄴ</w>",
      "ㅈㅏ ㄱ</w>",
      "ㄹ ㅑㅇ",
      "ㄴ ㅐ</w>",
      "ㅘ ㄴ",
      "ㅌ ㅏㄱ",
      "ㅈㅣ ㄱ</w>",
      "ㅇㅡㅁ ㅂㅏㄴ</w>",
      "ㅇㅣ ㅇㅛㅇ",
      "ㅁ ㅐㄱ",
      "ㅇㅣㄴ ㅇㅢ</w>",
      "ㄲㅡ ㅌ",
      "ㄱㅡ ㅂ</w>",
      "ㄴㅕㄴ (",
      "ㅁㅗ ㄷㅜ</w>",
      "ㅇㅣ ㅇㅓ",
      "ㅏ ㅇㅢ</w>",
      "ㅅㅔ ㄱㅖ</w>",
      "ㅇㅟ ㄹㅡㄹ</w>",
      "u s",
      "e t",
      "201 4ㄴㅕㄴ</w>",
      "ㅍ ㅏㅇ",
      "ㄷㅚ ㄹ</w>",
      "ㅇㅏ ㅍ",
      "ㅇㅣ ㅈㅏ</w>",
      "ㄲ ㅗ",
      "ㄷㅗ ㅅㅣ",
      ") ㅇㅔ</w>",
      "ㅇㅏ ㅂㅓ",
      "ㄷㅗ ㄱ</w>",
      "ㄱ ㅓ</w>",
      "201 1ㄴㅕㄴ</w>",
      "ㅁㅜㄴ ㅈㅔ",
      "ㅅㅣ ㅋ",
      "ㅈㅏㅅㅣㄴ ㅇㅢ</w>",
      "T V</w>",
      "ㄱㅗ ㄱ</w>",
      "ㅎㅕㄴ ㅈㅐ",
      "ㄷ ㅗㄴ",
      "ㅂ ㅔㅇㅣ",
      "ㄱ ㅝㄴ</w>",
      "ㅈㅗㄴ ㅈㅐ",
      "a n</w>",
      "ㅁ ㅠ",
      "200 8ㄴㅕㄴ</w>",
      "ㅈㅜㅇ ㅇㅏㅇ",
      "ㅇㅜ ㄴ</w>",
      "ㅍㅜ ㅁ",
      "2 9",
      "ㄹㅗ ,</w>",
      "ㅇㅡ ㄴㅏ,</w>",
      "ㅎ ㅟ",
      "ㅇㅣ ㅅㅏㅇ",
      "ㄱㅐ ㅂㅏㄹ",
      "ㄷ ㅣ</w>",
      "ㅇㅕ ㅆㄷㅏ.</w>",
      "ㅈㅏ ㅇㅢ</w>",
      "ㅎㅏ ㅇ</w>",
      "an d</w>",
      "ㅇㅏ ㅂ",
      "201 8ㄴㅕㄴ</w>",
      "ㅁㅏ ㅌ",
      "201 5ㄴㅕㄴ</w>",
      "ㄴ ㅇㅢ</w>",
      "200 9ㄴㅕㄴ</w>",
      "ㅌ ㅏㅁ",
      "ㅇㅕ ㅆ",
      "ㄹㅣ ㄴㅡㄴ</w>",
      "ㅈㅗ ㅎ",
      "ㅊㅏㅁ ㄱㅗ</w>",
      "ㅇㅏㄹ ㅡ",
      "ㄱㅘㄴ ㄱㅖ",
      "ㄴㅏ ㅌㅏㄴ",
      "r i",
      "ㅅㅣㄱ ㅏㄴ",
      "201 3ㄴㅕㄴ</w>",
      "ㅇ ㅑ</w>",
      "ㄱㅜㄱ ㅁㅣㄴ",
      "ㅂㅜ ㄴ</w>",
      "ㄷㅡㅇ ㅇㅡㄹ</w>",
      "ㅇㅣㄹ ㅂㅏㄴ",
      "ㄱㅣ ㅅㅜㄹ",
      "201 6ㄴㅕㄴ</w>",
      "ㅈㅗㄹ ㅇㅓㅂ",
      "ㅈㅣ ㅇㅝㄴ",
      "ㅎㅏ ㅈㅣㅁㅏㄴ</w>",
      "ㅊㅗ ㅇ</w>",
      "ㅌㅣ ㅁ",
      "ㅈㅜ ㄹ",
      "ㅇㅣㅆ ㅇㅡㅁㅕ,</w>",
      "ㅅㅜ ㅅㅏㅇ",
      "ㄱㅗ ㅇ</w>",
      "ㅅㅜ ㄱ",
      "ㄱㅣ ㅇㅢ</w>",
      "ㄱㅓ ㄹ",
      "ㅇㅕㄱ ㅅㅣ</w>",
      "ㅂㅔ ㄹ",
      "ㄷㅐ ㅎㅏㄱ</w>",
      "ㄷㅡㅇ ㅈㅏㅇ",
      "ㄱㅗㅇ ㅅㅣㄱ</w>",
      "201 7ㄴㅕㄴ</w>",
      "ㄱㅗ ㄷㅡㅇㅎㅏㄱㄱㅛ</w>",
      "ㄹㅣ ㅂ</w>",
      "ㅈㅔ 1",
      "ㄷ ㅙ",
      "ㅈㅓㄴ ㅇㅔ</w>",
      "200 7ㄴㅕㄴ</w>",
      "ㅈ ㅓ</w>",
      "r a",
      "ㅋ ㅔㅇㅣ",
      "ㅂ ㅏ</w>",
      "ㅌ ㅣ</w>",
      "ㅇㅣ ㅎㅜ",
      "ㄱㅕㅇ ㅈㅔ",
      "ㅍ ㅕㄴ</w>",
      "ㄱㅡㄹ ㅓ",
      "2019 ㄴㅕㄴ</w>",
      "ㅏ ㅇㅣ",
      "i n</w>",
      "ㄱㅐ ㄱ",
      "ㄹㅣ ㅇㅏ</w>",
      "ㅈㅏ ㄴㅡㄴ</w>",
      "in g</w>",
      "ㅎ ㅠ",
      "ㅅㅣ ㄹ</w>",
      "KB S",
      "ㄱㅏㄹ ㅣ",
      "5 0",
      "o p",
      "ㄸㅏㄹ ㅡ",
      "ㅇㅡㄹㅗ ㄴㅡㄴ</w>",
      "ㅈㅏㅇ ㅠ",
      "ㅎㅚ ㅇㅢ",
      "ㅅㅣㅈㅡ ㄴ</w>",
      "ㅅㅡㄹ ㅡㄹ</w>",
      "ㄹㅗㅇ ㅜㄴ</w>",
      "ㅂㅏㄹ ㄱㅕㄴ",
      "e s</w>",
      "ㅇㅣㄴ ㅁㅣㄴ",
      "ㅇㅐㄴㅣ ㅁㅔㅇㅣ",
      "e m",
      "ㅈㅜㅇ ㅅㅣㅁ",
      "ㅇㅜ ㅅㅡㅇ",
      "ㅅㅓㄹ ㅊㅣ",
      "ㅊㅡ ㅇ",
      "ㅅㅏㅁ ㅏㅇ",
      "ㅈㅣㄴ ㅎㅐㅇ",
      "ㄱㅣ ㅈㅜㄴ",
      "ㅈ ㅏㄴ",
      "ㄷㅐ ㅎㅐ</w>",
      "ㄴㅏ ㅇㅣ",
      "ㅁ ㅗㄴ",
      "ㅅㅏㄱ ㅓㄴ",
      "ㄱㅕㅇ ㅅㅏㅇ",
      "ㄱㅜ ㅇ",
      "ㅍ ㅛ</w>",
      "ㅈㅜㅇ ㅛ</w>",
      "ㅎ ㅏ</w>",
      "in g",
      "ㅎㅏ ㅂ</w>",
      "ㅁ ㅐㄴ",
      "19 0",
      "ㄱㅗㅇ ㄱㅕㄱ",
      "ㄷㅗㄹ ㅗㄱ</w>",
      "ㅂㅏㄹ ㅍㅛ",
      "ㅅㅏㅁ ㅏㅇ</w>",
      "ㅗ ㄴ</w>",
      "( 198",
      "ㅇㅐ ㄹ",
      "ㄴㅡ ㄹ",
      "ㅇ ㅕ</w>",
      "ㅈㅓㄴ ㅈㅐㅇ",
      "ㅈㅜ ㅈㅏㅇ",
      "ㅅㅏㄹ ㅏㅇ",
      "ㅇㅣㄹㅓ ㅎㅏㄴ</w>",
      "en t",
      "ㅎㅏㅁ ㅕ,</w>",
      "= \"",
      "( C",
      "ㅂㅣ ㄴ",
      "ㅁㅏ ㅇㅣ",
      "ㅈㅜ ㄹㅗ</w>",
      "ㅅㅣㅈㅡ ㄴ",
      "ㅆ ㅏㅇ",
      "ㅂㅗ ㄹ</w>",
      "ㅎ ㅗㄹ",
      "ㅇㅢ ㅁㅣ",
      "ㅊㅗ ㄷㅡㅇㅎㅏㄱㄱㅛ</w>",
      "ㅋㅓ ㅂ</w>",
      "ㄴㅓ ㅁ",
      "k m",
      "ㅅㅓ ㅁ",
      "ㄹㅕㄱ ㅇㅡㄹ</w>",
      "200 6ㄴㅕㄴ</w>",
      "ㅇㅓ ㅁ",
      "ㅈㅗ ㄱ</w>",
      "ㄴㅕㄴ ㅂㅜㅌㅓ</w>",
      "ㅈㅣ ㅇㅢ</w>",
      "ㅈㅗ ㄴ</w>",
      "ㅂㅔ ㄹㅡ",
      "F A</w>",
      "ㅅㅏㄱ ㅏ</w>",
      "ㅍㅡㄹㅗㄱㅡㄹㅐ ㅁ</w>",
      "ㅂㅏ ㄺ",
      "ㄱㅜ ㅇㅢ</w>",
      "ㅇㅏ ㄱ</w>",
      "e c",
      "ㄹㅕ ㅇ</w>",
      "ㅈㅏㄹ ㅣ",
      "ㅑ ㄱ",
      "ㅅㅏ ㅇㅢ</w>",
      "ㅋ ㅏㅁ",
      "ㄷㅡㄹ ㅣ",
      "ㅊㅓ ㅇ</w>",
      "2020 ㄴㅕㄴ</w>",
      "ㅎㅏㅁ ㅕㄴ</w>",
      "ㅂㅏㄹ ㅅㅐㅇ",
      "ㅈㅓㅇ ㅇㅡㄹ</w>",
      ".. .</w>",
      "ㄷㅐ ㅎㅚ",
      "ㅈㅏㄹ ㅡㄹ</w>",
      "ㅂㅏ ㄹ</w>",
      "ㄴㅕ ㅁ",
      "ㅇㅣㄹ :</w>",
      "ㅍ ㅏ</w>",
      "00 0",
      "ㅊ ㅕ</w>",
      "ㄱㅣ ㄴㅡㄴ</w>",
      "ㄷㅏ ㄹㄹㅣ",
      "ㅇㅕㅇ ㅎㅑㅇ",
      "ㄴㅏ ㅁ</w>",
      "ㅓ ㄹ</w>",
      "a d",
      ") .</w>",
      "ㅇㅓ ㄹ",
      "ㅁㅗㄱ ㄹㅗㄱ</w>",
      "ㅅㅡ ㅍㅗ",
      "ㅇㅣㄹ ㅂㅜ",
      "ㅎㅐㅇ ㅈㅓㅇ",
      "ㅅㅡ ㄱㅏ</w>",
      "ㄱㅏ ㅇ</w>",
      "a g",
      "ㅌㅡㄹ ㅣ",
      "ㅅㅓ ,</w>",
      "ㅈㅏ ,</w>",
      "ㅂㅏㅇ ㅅㅗㅇ</w>",
      "ㄹ ㅓㄴ",
      "ㄲ ㅣ",
      "ㅂㅏㄷ ㅇㅏㅆㄷㅏ.</w>",
      "ㅊㅏㅁ ㅇㅕ",
      "ㄴ ㅗㄱ",
      "ㅍㅏ ㄴ</w>",
      "ㄷㅡㅇ ㅎㅏㄱㄱㅛ",
      "ㅎㅐㅆ ㄷㅓㄴ</w>",
      "ㄴㅏ ㄴ</w>",
      "ㅉ ㅗㄱ</w>",
      "ㄹ ㅏㅁ",
      "ㅇㅣ ㅇㅔ</w>",
      "ㅅ ㅟ",
      "ㄱㅘ ㅎㅏㄱ",
      "ㅁㅣ ㄴ</w>",
      "ㅈㅔ 3",
      "ㄱㅕㅇ ㅇㅜ</w>",
      "ㅈ ㅕㅆ",
      "ㅇㅓㅄ ㄴㅡㄴ</w>",
      "ㅊㅓㄹ ㄷㅗㅇ",
      "ㅇㅝㄹ ㅇㅔ</w>",
      "19 2",
      "ㅊㅏㅁ ㄱㅏ</w>",
      "ㅂㅣ ㄹ",
      "ㅈㅐ ㅇ</w>",
      "ㅁㅗ ㄷㅔ",
      "ㅈㅓㄴ ㅌㅜ",
      "ㅈㅜ ㄴ</w>",
      "S t",
      "ㄷㅗ ㅋ",
      "ㅎㅏㅇㅕㅆ ㄱㅗ,</w>",
      "ㅇㅠ ㄹ",
      "ㅇㅕ ㅁ",
      "ㅇㅟㅊㅣ ㅎㅏㄴ</w>",
      "ㅅㅓ ㄱ</w>",
      "ㅇㅏ ㄷㅡㄹ",
      "ㄴㅕㄴ ㅇㅔㄴㅡㄴ</w>",
      "ㄷㅐ ㄹㅡㄹ</w>",
      "ㄷㅗ ㄹㅡㄹ</w>",
      "ㅇ ㅐㄱ",
      "ㅅㅐ ㄹㅗㅇㅜㄴ</w>",
      "ㅂㅏ ㅇㅣ",
      "ㅇㅓ ㄷ",
      "ㄱㅘ ㅇㅢ</w>",
      "ㅇㅣ ㄱㅗ</w>",
      "( A",
      "ㄱㅏㅁ ㄷㅗㄱ</w>",
      "ㅕ ㄹ",
      "ㅎㅐㅆ ㄱㅗ,</w>",
      "ㄱㅣ ㄱㅏ</w>",
      "ㅁ ㅐㅇ",
      "ㅊㅏㅁ ㄱㅏ",
      "( M",
      "ㄱㅏㅌ ㄷㅏ.</w>",
      "ㅅㅏ ㄴㅡㄴ</w>",
      "ㅅㅣ ㅅㅡㅌㅔ",
      "ㄷ ㅠ",
      "ㅊㅏ ㅈ",
      "ㅅㅓㅇ ㅇㅣ</w>",
      "MB C</w>",
      "ㄷㅏ ㅇㅑㅇ",
      "ㅍㅡㄹ ㄹㅔㅇㅣ",
      "ㅌ ㅗㄹ",
      "ㄹㅣ ㄱ",
      "ㅍ ㅏㄱ",
      "ㅈㅜㅇ ㄱㅜㄱ",
      "ㄴㅏ ㄹ</w>",
      "ㅇㅣㄴ ㅎㅐ</w>",
      "ㄷㅐ ㅇㅔ</w>",
      "ㅇㅗ ㄴ</w>",
      "ㅅㅐㅇ ㄱㅏㄱ",
      "o s",
      "ㅁ ㅛ",
      "ㄷㅚ ㅈㅣ</w>",
      "ㅇㅣㄹ )</w>",
      "ㅇㅣ ㅁ</w>",
      "ㅇㅟㅇㅝㄴ ㅎㅚ</w>",
      "B S</w>",
      "ㄸ ㅓ",
      "ㄱㅣ ㄹㅗ</w>",
      "i v",
      "ㅇㅣㅇ ㄱㅡㄹ",
      "ㄱㅡ ㄴㅕ",
      "ㅂㅕ ㄹ</w>",
      "ㄷㅔ ㄴ",
      "ㅂㅔ ㄴ",
      "ㅇㅗ ㅅㅡㅌㅡㄹ",
      "ㄱㅣ ㅇㅝㄴ",
      "ㄷㅗㄱ ㄹㅣㅂ",
      "ㅈㅣ ㅂ</w>",
      "ㄹ ㅗㄹ",
      "ㄹ ㅠ</w>",
      "ㅇㅛ ㅎㅏㄴ</w>",
      "ㄱㅘㄴ ㄹㅣ",
      "ㄷㅡ ㄴㅡㄴ</w>",
      "ㅁ ㅗ</w>",
      "ㅊㅓ ㄴ</w>",
      "ㅎ ㅖ",
      "ㅁㅏㄴ ㄷㅡㄹ",
      "ㅅㅜ ㅅㅏㅇ</w>",
      "ㄷㅡㄹ ㄱㅘ</w>",
      "ㄷㅔ ㅂ",
      "ㄲ ㅜ",
      "ㅅㅡ ,</w>",
      "o c",
      "ㅂㅡㄹ ㅏ",
      "ㅇㅔㅅㅓ ㄷㅗ</w>",
      "| -</w>",
      "200 5ㄴㅕㄴ</w>",
      "ㅊㅚ ㅊㅗ",
      "ㅅㅏㅇ ㅌㅐ",
      "e d",
      "ㄱㅕㄹ ㅈㅓㅇ",
      "ㅁㅕㅇ ㅇㅡㄹ</w>",
      "ㅇㅣ ㅇㅑ",
      "ㅇㅡㅁ ㅇㅏㄱ</w>",
      "I n",
      "ㄹㅗ ㅅ",
      "T V",
      "ㅇㅕ ㄹㄹㅣ",
      "ㅎㅕㅇ ㅌㅐ",
      "i r",
      "ㅅㅏㅇ ㅓㅂ",
      "4 0",
      "ㄹㅣ ㄱㅏ</w>",
      "ㅂㅜ ㄹㄹㅣ",
      "ㅇㅡㅁ ㅂㅏㄴ",
      "ㅈㅜㅇ ㄱㅜㄱ</w>",
      "ㅅㅓㅇ ㅇㅢ</w>",
      "ㅂㅜ ㅌ",
      "ㅎㅏㄴ ㅏ",
      "ㅁㅕㅇ ㅇㅣ</w>",
      "u l",
      "ㅅㅓㅇ ㄱㅗㅇ",
      "ㅇㅣㅇㄱㅡㄹ ㄹㅐㄴ",
      "ㅌㅐ ㅇㅓㄴㅏ",
      "ㅅㅜ ㄴㅡㄴ</w>",
      "ㄱㅏㄴ ㅇㅢ</w>",
      "ㅋ ㅓㄴ",
      "ㅇ ㅐ</w>",
      "ㅇㅜㄴ ㅇㅕㅇ",
      "10 0",
      "ㅆ ㅓ</w>",
      "ㅔㅇㅣ ㅈㅣ</w>",
      "ㄱㅜ ㄹ",
      "ㅅㅡㅌ ㅓ",
      "ㅌㅡㄱ ㅎㅣ</w>",
      "ㄹㅣ ㅇㅔ</w>",
      "ㅁㅏㄹ ㅣ",
      "ㄱㅜㄱㄱㅏ ㄷㅐㅍㅛ",
      "ㅂ ㅐㄴ",
      "ㄷㅏ ㅇㅡㅁ</w>",
      "KB S</w>",
      "u m",
      "ㄹㅣ ,</w>",
      "ㅊㅓ ㄹㅓ",
      "ㅈㅣ ㄹ</w>",
      "200 4ㄴㅕㄴ</w>",
      "ㄱ ㅐㅇ",
      "ㄲ ㅡㄹ",
      "ㅇㅓ ㄱ",
      ") ㅇㅡㄹ</w>",
      "ㅁㅕㄴ ,</w>",
      "ㅂㅜ ㅅㅏㄴ",
      "ㅂㅐ ㄱㅕㅇ",
      "ㅌ ㅐㅇ",
      "ㅇㅣㅆ ㄷㅓㄴ</w>",
      "ㄹㅗ ㄴㅡㄴ</w>",
      ". 1",
      "ㅅㅏ ㅅㅣㄹ",
      "ㄷㅚㅇㅓㅆ ㄱㅗ,</w>",
      "ㅈㅏㄱ ㄱㅗㄱ",
      "ㄷㅐ ㅎㅏㄱㄱㅛ",
      "ㅁ ㅇㅔ</w>",
      "ㅊㅜㄹ ㅇㅕㄴ</w>",
      "ㅇㅣㄹ ㅏ</w>",
      "ㅎㅏㅇ ㄱㅗㅇ",
      "ㅅㅣㄱ ㅇㅡㄹ</w>",
      "ㅊㅓ ㅇㅡㅁ",
      "ㄱㅏ ㅂ",
      "ㄱㅣ ㄱㅘㄴ",
      "ㄱ ㅚ",
      "ㄱㅘㄴ ㄹㅕㄴ",
      ") ㄹㅡㄹ</w>",
      "ㄱㅏ ㅅㅜ</w>",
      "ㅈㅣㄴ ㄷㅏ.</w>",
      "ㅁ ㅇㅡㄹㅗ</w>",
      "ㅍ ㅗ</w>",
      "18 9",
      "ㅅㅓㄴ ㅇㅢ</w>",
      "ㅅㅡ ㄴ</w>",
      "ㄴ ㅜㄴ",
      "ㅅㅜ ㅇㅢ</w>",
      "o d",
      "e d</w>",
      "ㄷㅗ ㄴㅡㄴ</w>",
      "ㅅㅜ ㄱㅏ</w>",
      "ㅍ ㅗㅇ",
      "ㅂㅜㄱ ㄷㅗ</w>",
      "ㅂㅣ ㅅㅡ",
      "ㄱㅏ ㅈㅣ</w>",
      "ㅈㅜㅇ ㅎㅏㄱㄱㅛ</w>",
      "ㅊㅓㄹ ㄷㅗ</w>",
      "ㅇㅑ ㅇ</w>",
      "ㅇㅐㄴㅣㅁㅔㅇㅣ ㅅㅕㄴ</w>",
      "ㄹㅕ ㄴ</w>",
      "- 1",
      "ㄷㅡㄹ ㅇㅔㄱㅔ</w>",
      "ㅆ ㅣ</w>",
      "ㅈㅗ ㅈㅣㄱ",
      "( P",
      "ㅁ ㅕ,</w>",
      "ㅋㅡㄹ ㄹㅓ",
      "ㄹㅡ ㄴ",
      "ㅁ ㅐㅇㅜ</w>",
      "ㅅㅏㅁ ㅜ",
      ") :</w>",
      "ㄱㅜ ㄴㅡㄴ</w>",
      "ㅇㅘ ㅇ</w>",
      "| |",
      "ㅁ ㅍㅣ",
      "0ㄴㅕㄴ ㄷㅐ</w>",
      "ati on",
      "ㅈㅏㄹ ㅛ</w>",
      "ㅈㅓㅇ ㅂㅗ",
      "C h",
      "ㄱㅕㅇ ㄱㅣ</w>",
      "ㅂ ㅓ</w>",
      "ㄸㅏㄹ ㅏ",
      "ㄷㅐ ㅎㅚ</w>",
      "ㅈㅏㄹ ㅗ</w>",
      "202 1ㄴㅕㄴ</w>",
      "ㄱㅏㅈㅣ ㄱㅗ</w>",
      "ㄱㅡ ㄱ</w>",
      "ㅅㅡ ㄴ",
      "ㅔ ㄴ",
      "er s",
      "ㅇㅣㄹㅜ ㅇㅓ",
      "ㅈㅓㅁ ㅇㅡㄹ</w>",
      "ㅈㅣ ㅈㅓㅇ",
      "ㅇㅟ ㅇㅔ</w>",
      "ㅅㅐㅇ ㅅㅏㄴ",
      "ㄷㅐㅌㅗㅇ ㄹㅕㅇ",
      "ㅇㅣㄴ ㅇㅣ</w>",
      "ㅂㅜ ㅇㅢ</w>",
      "ㄱㅣ ㅇㅓㅂ",
      "ㅇㅔ ,</w>",
      "ㅈㅏ ㄷㅗㅇ",
      "ㅎㅐ ㄱ",
      "ㅈ ㅚ",
      "ㅇㅜ ㄹ</w>",
      "ㄹㅏ ㄴ</w>",
      "ㅅㅜ ㄹㅡㄹ</w>",
      "ㄹㄹ ㅏㄴ",
      "ㅋㅐ ㄴㅏ",
      "ㅊㅓㄹㅓ ㅁ</w>",
      "ㅅㅣ ㅂ",
      "ㅎㅕ ㄱ</w>",
      "ㄷㅗㄱ ㅏ</w>",
      "ㅎㅗ ㅁㅍ",
      "ㄱㅡ ㄹ</w>",
      "ㅇㅝㄹ ㄷㅡ",
      "ㅎㅏ ㄱㅣㄷㅗ</w>",
      "ㄹㅠ ㄹ",
      "ㄱㅖ ㅎㅚㄱ",
      "ㅡㄹ ㅗ</w>",
      "ㅁㅏ ㅈㅣ",
      "ㅅㅗ ㅅㅗㄱ",
      "ㅇㅛ ㄱ",
      "ㅂㅕㄴ ㄱㅕㅇ",
      "ㄹㅣ ㅇㅢ</w>",
      "ㄷㅐㅎㅏㄴㅁㅣㄴ ㄱㅜㄱ",
      "ㄱㅣ ㅌㅏ</w>",
      "ㅈㅓㄴ ㅇㅡㄹ</w>",
      "ㄴㅕㄴ ㄲㅏㅈㅣ</w>",
      "ㅂㅡㄹ ㅣ",
      "ㅈㅡ ㄱ",
      "ㅈㅓ ㄹ</w>",
      "ㅎㅏㄱ ㅈㅏ</w>",
      "ㅏㄱ ㅏ</w>",
      "ㅇㅣㄹ ㅂㅜ</w>",
      "ㅈㅏ ㄹ</w>",
      "ㅇㅓ ,</w>",
      "ㄱㅗㄹ ㅕ",
      "o t",
      "ㅊ ㅗ</w>",
      "ㄹㅗ ㅂㅜㅌㅓ</w>",
      "ㄹㄹ ㅏ",
      "ㅇㅔㅅㅓ ㅇㅢ</w>",
      "ㅍㅡ ㅌㅡ",
      "ㅅㅓㅇㅜㄹ ㅌㅡㄱㅂㅕㄹ",
      "ㅍㅡㄹㅏㅇ ㅅㅡ</w>",
      "B S",
      "ㅇㅏㅁ ㅔ",
      "ㅌ ㅗㄴ",
      "ㅈㅔ ㄱㅗㅇ",
      "ㅎㅚ ㅇㅢ</w>",
      "ㄹㅔ ㄱ",
      "20 ㅅㅔㄱㅣ</w>",
      "ㅈㅣ ㅇㅕㄱ</w>",
      "ㅅㅗ ㅈㅐ",
      "ㅇㅣㄴㅁㅣㄴ ㄱㅗㅇㅎㅘ",
      "ㄷㅗ ㅅㅣ</w>",
      "ㅊㅜㄹ ㅅㅣㄴ",
      "o v",
      "ㅊㅓ ㄹ</w>",
      "F I",
      "ㅗ ㄴㅡㄴ</w>",
      "ㅇㅕㅇ ㄱㅜㄱ",
      "ㄱㅘㄴ ㅎㅏㄴ</w>",
      "ㅌㅔ ㄴ",
      "200 2ㄴㅕㄴ</w>",
      "ㄸ ㅗ</w>",
      "ㅅㅡ ㅇㅘ</w>",
      "ㅇㅣㅆ ㅇㅡㅁㅕ</w>",
      "ㅋㅏ ㅇㅣ",
      "ㅁㅗ ㄱ</w>",
      "ㅇㅏ ㅍㅡㄹㅣ",
      "ㄱㅕㄹ ㄱㅘ</w>",
      "ㅘ ㅇ",
      "ㅊㅓㄹㄷㅗㅇ ㅕㄱ</w>",
      ") ㄱㅏ</w>",
      "ㄱㅓ ㅇㅢ</w>",
      "ㅎㅏㄱ ㅅㅐㅇ",
      "ㅁㅓ ㄱ",
      "ㅈㅜㅇ ㅇㅔ</w>",
      "ㄱㅓㄴ ㅊㅜㄱ",
      "ㅊㅏ ㅈㅣ",
      "ㅂㅓ ㅁ</w>",
      "o r</w>",
      "ㄱㅜ ㅈㅗ",
      "ㄷ ㅟ</w>",
      "ㅇㅟ ㄴ",
      "ㅈ ㅟ",
      "ㄷㅐ ㅂㅜㅂㅜㄴ",
      "ㄱㅓ ㅈㅜ",
      "ㅂㅏㅇ ㅂㅓㅂ",
      "ㄷㅐ ㅈㅓㄴ",
      "o g",
      "ㅇㅣㄴ ㅁㅜㄹ</w>",
      "ㅇㅣ ㅇㅠ",
      "200 3ㄴㅕㄴ</w>",
      "ㅈㅏㅇ ㅇㅣ</w>",
      "ㄱㅡㄹㅜ ㅂ</w>",
      "ㅁㅏㄹ ㅡ",
      "ㄸ ㅓㄹ",
      "ㅅㅏ ,</w>",
      "ㅅㅜ ㄹ</w>",
      "ㅅㅡ ㅋㅗ",
      "ㅎㅘ ㄹㅡㄹ</w>",
      "ㄴㅐㅇ ㅛㅇ",
      "ㅌㅏ ㅂ",
      "ㄱㅕㅇ ㄹㅕㄱ</w>",
      "ㄱㅣ ㄴ</w>",
      "i m",
      "() ㅇㅔ</w>",
      "200 0ㄴㅕㄴ</w>",
      "ㄸ ㅏ",
      "ㅇㅖ ㅅㅜㄹ",
      "u s</w>",
      "ㅎㅏ ㅇㅣ",
      "ㄱㅕㄹ ㄱㅘ",
      "ㄱㅠ ㄴ",
      "ㄹ ㅛ</w>",
      "ㅅㅐㅇ ㅎㅘㄹ",
      "ㅇㅚ ㄱㅜㄱ",
      "ㄷㅓ ㄴ",
      "a p",
      "ㅁㅜㄴ ㅎㅏㄱ",
      "ㅇㅣㄴ ㅁㅜㄹ",
      "( 197",
      "ㅃ ㅏㄹ",
      "ㅊㅓ ㄱ",
      "F C",
      "2 )</w>",
      "ㅎㅏㄴ ㄱㅜㄱ</w>",
      "ㄴㅗㄹ ㅐ",
      "ㅇㅡㅁ ㅇㅡㄹ</w>",
      "ㄷㅏ ㅇㅣ",
      "ㅈㅏ ㅊㅣ",
      "ㅇㅣㄴ ㄱㅜ</w>",
      "ㄴㅗ ㄷㅗㅇ",
      "ㅇㅜ ㅅㅡㅇ</w>",
      "ㅎ ㅢ</w>",
      "ㄹㅗ ㄴ</w>",
      "1 ,",
      "ㅋㅓ ㅁㅍ",
      "ㄱㅡ ㄴ</w>",
      "ㅈㅓㄴ ㅈㅐㅇ</w>",
      "a b",
      "ㅅㅐ ㄱ</w>",
      "() ㅇㅡㄹ</w>",
      "ㄱㅣㅇㅝㄴ ㅈㅓㄴ</w>",
      "ㅁㅗ ㅅㅡㅂ",
      "ㅊㅣ ㄱ",
      "ㅇㅓ ㅁㅓㄴ",
      "ㄹㅗ ㅅㅓ</w>",
      "ㅅㅏㄴ ㅇㅓㅂ",
      "ㄹ ㅏㄹ",
      "ㅅㅡ (",
      "ㅎㅓ ㄴ</w>",
      "ㅈㅜ ㄴㅡㄴ</w>",
      "ㅂㅐㄱㅕㅇ ㅇㅡㄹㅗ</w>",
      ") ㅇㅣ</w>",
      "ㅇㅏㅁㅔ ㄹㅣ",
      "ㄹㄹ ㅓ</w>",
      "ㅅㅡㅌ ㅓ</w>",
      "ㅎㅐㅆ ㅇㅡㅁㅕ,</w>",
      "6 0",
      "F C</w>",
      "ㅊㅜㅇ ㅊㅓㅇ",
      "ㄷㅏ \"",
      "ㄱㅔㅇㅣ ㅁ",
      "ㅊㅜ ㄴ",
      "ㅋㅡㄹ ㅗ",
      "ㄱㅡㄹ ㅐ",
      "ㅂㅗㄴ ㅐ",
      "ㅈㅣㄴ ㅐ",
      "ㅎㅗㅁㅍ ㅔㅇㅣㅈㅣ</w>",
      "t er",
      "ㄱㅕㅇ ㅊㅏㄹ",
      "ㄱㅘ ㅈㅓㅇ",
      "ㅁㅏㄶ ㅇㅣ</w>",
      "ㅇㅕㅇ ㄱㅜㄱ</w>",
      "ㅎㅏ ㄷㅓㄴ</w>",
      "ㅇㅣㄹ ㅂㅜㅌㅓ</w>",
      "ㅁㅏ ㄱ</w>",
      "ㄱㅡ ㅁ</w>",
      "ㅍㅣ ㄴ",
      "ㄷㅏㅇㅑㅇ ㅎㅏㄴ</w>",
      "ㅎㅕ ㄹ",
      "ㅎㅔ ㄴ",
      "ㅇㅏㄶ ㅇㅏㅆ",
      "ㅈㅓㅇ ㅊㅐㄱ",
      "ㄱㅜㄴ ㅇㅡㄴ</w>",
      "ㅇㅕㅇ ㄱㅜㄱㅇㅢ</w>",
      "ㅇㅣ ㅈㅓㄴ",
      "ㅂㅓ ㅅㅡ</w>",
      "ㄹ ㅡ</w>",
      "ㄱㅏ ,</w>",
      "ㅍ ㅔㅇㅣ",
      "ㅇㅑ ㄱㅜ</w>",
      "ㅈㅏㄱ ㅇㅡㄴ</w>",
      "ㄱㅏㅇ ㅜㄴ",
      "ㅇㅓㅄ ㅇㅣ</w>",
      "ㅂㅕ ㄱ",
      "ㅈㅣ ㄱㅏ</w>",
      "ㅌㅡ ㅇㅢ</w>",
      "ㅘ ㄹ",
      "ㅇㅓ ㄴ</w>",
      "ㅍㅡㄹㅏㅇ ㅅㅡㅇㅢ</w>",
      "ㄹ ㅐ</w>",
      "ㅋ ㅠ",
      "ㄸ ㅟ",
      "ㅊㅜ ㄹ</w>",
      "ㅈㅜㅇ ㅎㅘ",
      "ㅎㅐㅆ ㄱㅗ</w>",
      "ㄱㅘㄴ ㄹㅕㄴ</w>",
      "ㄸㅓㄹ ㅇㅓ",
      "ㅅㅡ ㅇㅟ",
      "ㅇㅕㄱ ㅎㅏㄹ",
      "ㅇㅝㄹ ,</w>",
      "l i",
      "ㅈㅗ ㅅㅓㄴ</w>",
      "ㅎㅜ ㅇㅔ</w>",
      "ㅇㅏ ㅇㅣㄹ",
      "ㅉ ㅣ",
      "1 )</w>",
      "ㅅㅏㅇ ㅇㅢ</w>",
      "ㅔ ㄱㅔ</w>",
      "ㄴㅏㅁ ㄷㅗ</w>",
      "e n</w>",
      "ㄹㅣ ㄱㅡ",
      "ㄱㅜㄱ ㅈㅔ</w>",
      "ㅇㅕㄱ ㄷㅐ</w>",
      "ㅂㅜ ㅇㅔ</w>",
      "ㅍ ㅐㄴ",
      "ㅇㅕㄴ ㅎㅏㅂ",
      "ㅍㅔ ㄴ",
      "ㄹㅣ ㅇㅏㅇㅢ</w>",
      "ㄹㅗ ㅁㅏ</w>",
      "ㅇㅣ ㅇㅓ</w>",
      "ㅎㅘ ㄴ</w>",
      "ㅇㅠ ㄴㅣ",
      "ㅅㅓ ㄹㅗ</w>",
      "ㅇㅘ ㅇㅢ</w>",
      "ㅊㅜㄱ ㄱㅜ",
      "ㄱ ㅗㄴ",
      "ㅌ ㅜ</w>",
      "ㅅㅡㅌ ㅗ",
      "ㅁ ㅜ</w>",
      "ㅍ ㅓ</w>",
      "ㅇㅏㄶ ㅇㅏㅆㄷㅏ.</w>",
      "u t",
      "ㅊㅐ ㅁㅍㅣ",
      "ㅍㅣㄹ ㅇㅛ",
      "ㅂㅏㄹ ㅡ",
      "ㄹㅔ ㄴ",
      "( B",
      "ㅇㅕㄴ ㄱㅕㄹ",
      "ㅇㅠㄹㅓ ㅂ",
      "ㅇㅣㄹ ㅇㅡㄹ</w>",
      "ㄱㅕㄹ ㄱㅜㄱ</w>",
      "ㄴㅗㅍ ㅇㅡㄴ</w>",
      "ㅎ ㅡㄹ",
      "ㅈㅏㅇ ㅇㅡㄴ</w>",
      "ㅈㅣ ㅇㅔ</w>",
      "ㄷㅚㅇㅓㅆ ㅇㅡㅁㅕ,</w>",
      "ㅅㅓ ㅇㅜㄹ</w>",
      "an d",
      "- 0",
      "l e</w>",
      "ㄱㅐㅇ ㅛ</w>",
      "ㅅㅡㄹ ㅣ",
      "ㅇㅣㄹ ㅇㅓㄴㅏ",
      "ㅇㅕㄱ ㅅㅏ",
      "ㅂㅗ ㅇㅣ",
      "ㅎㅏㄱ ㅖ</w>",
      "ㅇㅡㄹㅗ ㅅㅓ</w>",
      "ㄱㅐ ㅊㅚ",
      "ㅇㅓㅄ ㄷㅏ.</w>",
      "ㄷㅚ ㄴ",
      "ㄱㅓㄴ ㅏ</w>",
      "ㅁㅣㄴ ㅈㅗㄱ",
      "ㅅㅐㅇ ㅇㅐ</w>",
      "ㅅㅣ ㄷㅐ</w>",
      "ㄱㅜㄱㄱㅏㄷㅐㅍㅛ ㅌㅣㅁ</w>",
      "ㅎㅏㅇㅕㅆ ㅇㅡㅁㅕ,</w>",
      "ㅇㅔ ㄱㅔ",
      "200 1ㄴㅕㄴ</w>",
      "ㅁㅔ ㄷㅏㄹㄹㅣ",
      "ㅅ ㅕ",
      "ㅁㅏㄴ ㄷㅡㄹㅇㅓ",
      "ㅇㅣㄴ ㅇㅡㄹ</w>",
      ") ㅇㅔㅅㅓ</w>",
      "S BS</w>",
      "ㄱㅣ ㄴㅡㅇ",
      "e )</w>",
      "ㅁㅕ ㅊ</w>",
      "ㅍㅛ ㅎㅕㄴ",
      "e a",
      "ㄷㅜ ㅇ",
      "1 .",
      "ㅈㅓㄴ ㅁㅜㄴ",
      "ㅈ ㅡㄹ",
      "ㅅㅣ ㄱㅏㄴ</w>",
      "ㅇㅣㄴ ㅈㅓㅇ",
      "ㅈㅓ ㅂ</w>",
      "ㄷㅗㄱ ㅇㅣㄹ</w>",
      "ㅈㅣㄴ ㅊㅜㄹ",
      "ㅇㅠ ㅈㅣ",
      "ㄹ ㄹㅗ",
      "ㅂㅏㄹ ㅈㅓㄴ",
      "ㅂㅣ ㄷㅣㅇㅗ</w>",
      "ㅈㅓㄱ ㅇㅡㄴ</w>",
      "ㅈㅏㄱㅍㅜ ㅁ",
      "ㅋ ㅜ</w>",
      "ㅇㅠㄹㅓ ㅂ</w>",
      "ㅂ ㄱㅔ</w>",
      "ㅅㅣㅇ ㄱㅡㄹ</w>",
      "ㅇㅠ ㅁㅕㅇ",
      "ㄱㅕㅇㄱㅣ ㄷㅗ</w>",
      "ㅍㅖ ㅈㅣ",
      "ㄷㅐ ㅅㅏㅇ",
      "ㅅㅓ ㅇㅢ</w>",
      "ㅍㅗ ㄹㅡ",
      "ㅇㅏㄴㅣ ㄹㅏ</w>",
      "ㅇㅕㅇㅎㅑㅇ ㅇㅡㄹ</w>",
      "ㅎㅏㅇㅕ ,</w>",
      "ㄱㅗㅇ ㄱㅐ",
      "o w",
      "ㅁㅕ ㄹ",
      "18 8",
      "ㄱㅏ ㄴㅡㄴ</w>",
      "e ,</w>",
      "ㅃ ㅜㄴ",
      "ㅇㅣㄴ ㄷㅏ.</w>",
      "ㅅㅏㄹ ㅗ</w>",
      "s i",
      "ㅇㅡㄹㅗ ㅂㅜㅌㅓ</w>",
      "ㅇㅝㄴ ㅇㅡㄹ</w>",
      "ㄱㅗㅇ ㄷㅗㅇ",
      "ㅅㅣㄹㅣ ㅈㅡ</w>",
      "ㅁㅔㄷㅏㄹㄹㅣ ㅅㅡㅌㅡ</w>",
      "ㅇㅔ ㅇㅣ",
      "199 6ㄴㅕㄴ</w>",
      "ㅎㅏㅇㅕㅆ ㄱㅗ</w>",
      "ㄷㅣ ㅈㅏ",
      "ㅂㅏㄷ ㅇㅡㄴ</w>",
      "ㅂㅏㄺ ㅎㅕ",
      "199 9ㄴㅕㄴ</w>",
      "ㄷㅙ ㅆㄷㅏ.</w>",
      "ㅇㅏㄶ ㅇㅡㄴ</w>",
      "ㅅㅓㄴ ㅇㅡㄹ</w>",
      "ㅎㅐㅇ ㅑ</w>",
      "ㅈㅏㅇ ㅇㅡㄹㅗ</w>",
      "ㅈㅏㅇ ㅕㄴ",
      "R e",
      "ㅇㅣ ㄷㅗㅇ",
      "ㅇㅣㄹㅡ ㅁㅇㅡㄹ</w>",
      "199 8ㄴㅕㄴ</w>",
      ", 000",
      "a y",
      "ㄷㅡㄹ ㅡㄹ</w>",
      "ㅈㅓㅇ ㅇㅢ",
      "ㅎㅐ ㄷㅏㅇ",
      "p h",
      "ㅈㅔ 4",
      "ㅊ ㅘㄹ",
      "ㅇㅣㄹ ㅗㄴ",
      "ㅋㅓㅁㅍ ㅠ",
      "ㄹ ㅕ</w>",
      "ㄱㅗ ㅅㅗㄱ",
      "ㅇㅣㅆ ㅇㅓ</w>",
      "ㄱㅣ ㄴㅕㅁ",
      "ig n",
      "ㄱㅗㅇ ㅎㅏㅇ</w>",
      "ㄱㅣ ㄷㅗㄱ",
      "ㅍㅡㄹ ㅔ",
      "ㅈㅔ ㄹㅗ</w>",
      "ㅅ ㅖ",
      "ㅈㅜ ㅇㅕㄴ",
      "ㅎㅕㄴ ㅇㅢ</w>",
      "ㄷㅗㄱㅇㅣㄹ ㅇㅢ</w>",
      "ㅈㅏㅇ ㅇㅢ</w>",
      "ㄴㅏ ㄴㅡㄴ</w>",
      "h t",
      "ㄱㅝㄴ ㅇㅡㄹ</w>",
      "ㄱㅜㄱ ㅎㅚㅇㅢ",
      ") ㅇㅘ</w>",
      "ㅂㅏㄷ ㅇㅏㅆ",
      "ㅁㅜㄹ ㅇㅡㄹ</w>",
      "ㄱㅓ ㄹㅣ</w>",
      "ㅌㅡㄹ ㅡㄹ</w>",
      "ㅅㅏㅇ ㅎㅘㅇ",
      "( D",
      "ㅋㅗ ㅁㅣ",
      "ㄷㅔㅂ ㅟ",
      "ㅇㅡㄹㅗ ㅆㅓ</w>",
      "ㄸ ㅏㅇ",
      "ㅂㅏㅇ ㅅㅣㄱ",
      "ㅇㅓ ㅅㅓ</w>",
      "ㄱㅓㄴ ㅅㅓㄹ",
      "ㅅㅡㄹ ㅗ</w>",
      "FI FA</w>",
      "ㄱㅜㄴ ㅇㅔ</w>",
      "ㄱㅣ ㅇㅓㅂ</w>",
      "ㅉㅗㄱ ㅇㅡㄹㅗ</w>",
      "2 .",
      "8 0",
      "ㅇㅣㄴ ㅇㅡㄴ</w>",
      "ㅇㅏㄶ ㄱㅗ</w>",
      "7 0",
      "ㅁㅏ ㄹ</w>",
      "ㅇㅏ ,</w>",
      "ㄷㅏ ㄹ</w>",
      "ㄲㅗ ㅊ",
      "ㅅㅡ ㅋㅣ",
      "ㅍㅜ ㅁ</w>",
      "ㅅㅗ ㅅㅓㄹ",
      "3 1",
      "ㄴㅗ ㅎ",
      "ㅊㅣ ㄴ</w>",
      "ㄱ ㅅㅡ</w>",
      "ㄷㅚ ㅁㅕㄴㅅㅓ</w>",
      "ㅇㅕㄹㄹㅣ ㄴ</w>",
      "ㅇㅞ ㅂ",
      "ㅅㅗ ㅍㅡㅌㅡ",
      "ㅅㅓㅇ ㅇㅜ</w>",
      "ㅅㅏㄱ ㅘㄴ",
      "ㅅㅓㄹㄹㅣ ㅂ</w>",
      "ㅅㅜㄹ ㅗㄱ",
      "ㅈㅣ ㅎㅏ",
      "ㄷㅏㄴ ㅊㅔ",
      "ㅇㅓ ㄹㅡㄹ</w>",
      "ㅈㅏㅇ ㅘ</w>",
      "ㅇㅛ ㅅㅣ",
      "ㄴ ㅣ</w>",
      "ㅇㅕ ㅅㅓㅇ",
      "ㅎㅐ ,</w>",
      "ㅎ ㄱㅔ</w>",
      "() ㄹㅡㄹ</w>",
      "( L",
      "ㅇㅜ ㅁ",
      "ㄹ ㅓ</w>",
      "ㄱㅜㄴ ㅇㅣ</w>",
      "ㅂㅜ ㄹㅡㄹ</w>",
      "ㅂㅜㄴ ㄹㅠ",
      "21 ㅅㅔㄱㅣ</w>",
      "ㅁㅏ ㅇㅡㄹ",
      "ㅁㅣ ㅅㅜㄹ",
      "ㅇㅣㅁ ㅁㅕㅇ",
      "7 ㄴㅕㄴ)</w>",
      "ㅅㅏㅇ ㅔ</w>",
      "ㅇㅣㄴ ㅊㅓㄴ",
      "ㅁㅔ ㅁ",
      "ㄱㅛ ㅎㅚ",
      "ㅆ ㅓ",
      "ㅊㅣ ㄴㅡㄴ</w>",
      "ㅊㅗ ㄴ</w>",
      "ㄱㅛ ㅌㅗㅇ</w>",
      "19 1",
      "ㅇㅝㄴ ㅇㅢ</w>",
      "8 ㄴㅕㄴ)</w>",
      "- 2",
      "ㅅㅓㄴ ㄱㅓ</w>",
      "ㅈㅣ ㄷㅗ",
      "ㅇㅣㄹ ㅇㅡ",
      "ㅌㅡㄹ ㅗ",
      "( E",
      "ㄱㅡ ㄱㅏ</w>",
      "ㄱㅕㄹ ㅎㅗㄴ",
      "ㄹ ㅖ",
      "ㅗㄱ ㅏ</w>",
      "ㄴ ㅔㅇㅣ",
      "ㅇㅏ ㄹ</w>",
      "ㅅㅣ ㄷㅐ",
      "5 ㄴㅕㄴ)</w>",
      "ㅁㅔ ㄴ",
      "ㄱㅡㄹㅜ ㅂ",
      "ㅇㅗ ㅂㅡ</w>",
      "6 ㄴㅕㄴ)</w>",
      "ㅅㅓ ㅂㅣ",
      "( 196",
      "ㄷㅜ ㄱㅗ</w>",
      "ㅅㅡ ㅇㅔ</w>",
      "ㄴㅏ ㅈ",
      "ㅆ ㄱㅗ,</w>",
      "ㅎㅗ ㅁ",
      "ㅋ ㅟ",
      "ㅈㅣ ㄱㅡㅁ",
      "ㅅㅏㅇ ㄷㅐ",
      "ㅇㅏㄶ ㄴㅡㄴ</w>",
      "ㅈㅏㅇ ,</w>",
      "ㄱㅏㄹㅣ ㅋㅣ",
      "ㅎㅣ ㄹㅗ",
      "199 7ㄴㅕㄴ</w>",
      "ㅁㅗㄷㅔ ㄹ",
      "ㅂㅏㄷ ㅇㅏ</w>",
      "ㅇㅢ ㅎㅏㄴ</w>",
      "ㅔ ㅇㅣㄹ",
      "ㅎㅏㄱ ㄱㅘ</w>",
      "ㄱ ㅠ</w>",
      "ㅈㅡ ㄱ</w>",
      "ㅇㅕㄴ ㅎㅕㄱ</w>",
      "ㅇㅏㄹ ㅏ",
      "ㄱㅛ ㅌㅗㅇ",
      "ㅇㅓ ㄸ",
      "ㅂㅐㅇㅜ ㅇㅣㄷㅏ.</w>",
      "ㅅㅔ ㅇㅢ</w>",
      "ㅁㅜㄴ ㅇㅡㄹ</w>",
      "ㅊㅜㄹ ㅈㅓㄴ",
      "ㅎㅕㅇ ㅅㅓㅇ",
      "ㅅㅡㅌ ㅏㄴ",
      "ㅏㅇ ㅘ</w>",
      "15 ㅇㅣㄹ</w>",
      "ㅎㅘ ㅇ</w>",
      "ㅈㅔ ㄹㅡㄹ</w>",
      "ㄹ ㅑㄱ",
      "ㅎㅐㅇ ㅈㅓㅇ</w>",
      "ㅈㅓㄴ ㅎㅣ</w>",
      "ㅍㅣ ㄹㄹㅣ",
      "ㄷㅗㄹ ㅗ",
      "ㅈㅣㄴ ㅣ",
      "199 5ㄴㅕㄴ</w>",
      "ㅇㅏ ㅋㅣ",
      "ㅅㅡㅇ ㅞ",
      "ㅎㅘㄹ ㅇㅑㄱ",
      "ㅂㅣ ㄴ</w>",
      "ㅍ ㅗㄴ",
      "ㅁㅜㄴ ㅎㅓㄴ</w>",
      "ㄱㅘㅇ ㅇㅕㄱㅅㅣ</w>",
      "ㅃ ㅏ",
      "ㅇㅜㄴ ㅎㅐㅇ",
      "( KBS",
      "ㄷㅏ ㅇㅢ</w>",
      "ㄹㄹ ㅏ</w>",
      "1 ㄴㅕㄴ)</w>",
      "ㅌㅓ ㄴ</w>",
      "ㅇㅏㅇ ㅜ",
      "ㄷㅡㄹ ㅇㅔ</w>",
      "ㅇㅕㅇㅎㅘ ㅇㅣㄷㅏ.</w>",
      "ㅏㅇ ㅜㄴ",
      "ㄴㅗㄹ ㅐ</w>",
      "ㅎㅘㄴ ㄱㅕㅇ",
      "ㄷㅗ ,</w>",
      "ㄱㅜ ㅇㅕㄱ</w>",
      "ㅕ ㅇ</w>",
      "3 5",
      "ㄹㅓㅅㅣ ㅇㅏ</w>",
      "ㅇㅔ ㄴ</w>",
      "ㄷㅏㄴ ㅇㅢ</w>",
      "ㅁ ,</w>",
      "ㅇㅓ ㄹㅗ</w>",
      "ㅇㅠ ㅇ",
      "ac k",
      "201 4",
      "ㅅㅡ ㅇㅔㅅㅓ</w>",
      "3 )</w>",
      "ㄹㅕㄱ ㅇㅣ</w>",
      "ㄴㅡㄴ ,</w>",
      "ㅇㅏ ㄷㅡㄹ</w>",
      "ㅈㅔ ㅇㅚ",
      "ㅊㅓ ㅇㅡㅁ</w>",
      "a v",
      "ㅇㅣ ㅅㅡㄹ",
      "ㅈㅓㅇ ㅎㅏㄴ</w>",
      "ㄱㅏ ㅈㅣㄴ</w>",
      "ㅂㅔ ㅌㅡ",
      "ㄴㅏㅁ ㅜ",
      "ㅅㅏㅇ ㅜ",
      "ㅍㅡㄹ ㅗ</w>",
      "ㅅㅏㅇㅣ ㅌㅡ</w>",
      "d i",
      "ㅎㅡ ㄱ",
      "2 ㅇㅣㄹ</w>",
      "s p",
      "ㄱㅏ ㅈㅗㄱ",
      "ㅈㅜㅇ ㅇㅛㅎㅏㄴ</w>",
      "ㅁㅕㅇ )</w>",
      "ㅅㅏㅇㅣ ㅇㅔ</w>",
      "k m</w>",
      "ㅋㅡ ㅇㅢ</w>",
      "2 ㄴㅕㄴ)</w>",
      "ㅋㅓ ㅂ",
      "ㅂ ㅐ</w>",
      "ㅎㅗ ㅅㅓㄴ</w>",
      "ㅂㅣ ㅊ",
      "ㅇㅓㄸ ㅓㄴ</w>",
      "3 ㄴㅕㄴ)</w>",
      "2 ,</w>",
      "ㅈㅓㅇ ㅂㅜ</w>",
      "ㄷㅐㅌㅗㅇ ㄹㅕㅇ</w>",
      "ㅅㅡㅍㅗ ㅊㅡ</w>",
      "ㄱ ㅅㅣ",
      "ㅊㅣ ㅇ</w>",
      "ㅈㅔ ㄱㅜㄱ",
      "ㅇㅏㄹ ㅐ",
      "ㅇㅕ ㅈㅏ",
      "ㄱㅏㄹ ㅡㄹ</w>",
      "ㄴㅏㄹ ㅏ</w>",
      "ㄸㅏㄹㅏ ㅅㅓ</w>",
      "ㅁㅏㄹ ㅎㅏㄴㄷㅏ.</w>",
      "ㄷㅗㅇ ㅅㅣㅇㅔ</w>",
      "ㅎㅜ ,</w>",
      "ㅇㅣ ㄱㅏ</w>",
      "ㅅㅡㅇ ㄱㅏㅇ",
      "ㅎㅏㄱ ㅈㅏ",
      "ㅅㅓㅇㅜㄹㅌㅡㄱㅂㅕㄹ ㅅㅣ</w>",
      "ㄷㅗ ㅅㅓ",
      "ㅁㅜ ㄹㄹㅣ",
      "ㅈㅔ ㄱㅏ</w>",
      "ㅍㅡㄹㅗ ㄷㅠ",
      "() ㅇㅣ</w>",
      "ㅊ ㅓ</w>",
      "ㄱㅏ ㅇㅢ</w>",
      "ㅂㅏㄹ ㅗ</w>",
      "ㅈㅣㅇㅕㄱ ㅇㅢ</w>",
      "ㅇㅏㄹㄹㅕ ㅈㅕ</w>",
      "ㅈㅣ ㄹㅗ</w>",
      "ㅇㅏㄶ ㄴㅡㄴㄷㅏ.</w>",
      "ㅏ ㅆㄷㅏ.</w>",
      "ㄱㅏㅇㅜㄴ ㄷㅔ</w>",
      "10 ㅇㅣㄹ</w>",
      "o o",
      "ㅇㅠ ㄱ</w>",
      "199 4ㄴㅕㄴ</w>",
      "ㅂㅗㅇ ㅕ",
      "ㄱㅣ ㄴ",
      "ㅇㅣ ㄱㅗ,</w>",
      "ㅌㅗㅇ ㅎㅏㅂ",
      "ㅅㅗ ㄹㅡㄹ</w>",
      "ㅋㅡ ㄱㅔ</w>",
      "y le",
      "ㄷㅐ ㅈㅓㄴ</w>",
      "4 ㄴㅕㄴ)</w>",
      "ㅂㅕ ㅇ</w>",
      "ㅊㅔ ㅇㅢ</w>",
      "ㅅㅣㄹㅣ ㅈㅡ",
      "ㅈㅣ ,</w>",
      "U n",
      "ㄷㅗㅇ ㅜ",
      "ㅈㅓㄱ ㅇㅣ</w>",
      "ㅈㅓㄴ ㅇㅔㅅㅓ</w>",
      "ㅇㅝㄴ ㅇㅣ</w>",
      "ㄱㅜㄱ ㅏ</w>",
      "ㅇㅏㅇㅣㄹ ㄹㅐㄴ",
      "ㅎㅏㄴ ㄷㅏㄴㅡㄴ</w>",
      "' s</w>",
      "ㄱㅖ ㅇㅑㄱ",
      "ㅎㅕㄴ ㄷㅐ",
      "ㅇㅣㄴ ㅌㅓㄴ",
      "2 ㄴㅕㄴ",
      "( N",
      "ㅅㅓㄹㄹㅣㅂ ㄷㅚㄴ</w>",
      "ㅂㅣ ㄹㅗㅅ",
      "ㅇㅕ ㄱㅐㄱ",
      "ㅅㅜ ㅎㅐㅇ",
      "a k",
      "ㄷㅗㅇ ㅁㅜㄹ",
      "ㅍㅜ ㄹ",
      "ㅊㅘㄹ ㅇㅕㅇ",
      "ㄱㅕ ㄱ</w>",
      "ㅎㅗㄱ ㅇㅡㄴ</w>",
      "( T",
      "ㄱㅐ ㄱㅛ</w>",
      "ㄹㅔ ㅋㅗ",
      "7 )</w>",
      "ㅈㅓㄱ ㅇㅡㄹ</w>",
      "6 )</w>",
      "ㄱㅛ ㅅㅜ</w>",
      "ㅇㅣ ㅇㅢ</w>",
      "8 )</w>",
      "ㅊ ㅐㄴ",
      "( G",
      "ㄷㅏㅇ ㅇㅢ</w>",
      "ㅊㅣ ㄹㅡㄹ</w>",
      "ㅂㅐㅇㅜ ,</w>",
      "ㄱㅜㄴ ㅇㅡㄹ</w>",
      "5 )</w>",
      "ㅅㅜ ㄷㅗ</w>",
      "ㅎㅜ ㅋㅜ",
      "al ign",
      "ㅈㅔ ㅇㅢ</w>",
      "ㅊㅗ ㄷㅡㅇㅎㅏㄱㄱㅛ",
      "ㅊㅔ ㄹㅡㄹ</w>",
      "ㅁㅏㅈㅣ ㅁㅏㄱ</w>",
      "ㅎㅏ ㄹㅕ",
      "ㅂㅣ ㅇㅏ</w>",
      "MB C",
      "ㅇㅣㄹㅡ ㅁ",
      "ㅅㅏㄱ ㅓㄴ</w>",
      "ㅂㅜ ㄱ</w>",
      "ㅊㅐㅁㅍㅣ ㅇㅓㄴ",
      "ㄷㅏ ㄹㅡ",
      "ㅅㅓ ㅂ",
      "ㅇㅔ ㄹ",
      "ㅇㅕ ㄱㅣ",
      "ㅇㅣ ㅅㅏㅇ</w>",
      "ㄱㅕㅇㄱㅣ ㅇㅔㅅㅓ</w>",
      "202 2ㄴㅕㄴ</w>",
      "ㅊㅚㅊㅗ ㅇㅢ</w>",
      "ㅊㅜㄹ ㅍㅏㄴ",
      "ㄱㅏㄱ ㄱㅏㄱ</w>",
      "ㅛ ㅇ</w>",
      "ㄷㅗㅇ ㅔ</w>",
      "ㅈㅓㄴ ㄱㅜㄱ",
      "ㅊ ㅕ",
      "ㅇㅗ ㄹㅡ",
      "ㅗ ㄷㅗ</w>",
      "ㄱㅗㅇ ㅇㅕㄴ",
      ") ㄹㅗ</w>",
      "4 )</w>",
      "ㅈㅔ 5",
      "e t</w>",
      "ㅜ ㄹ",
      "s ,</w>",
      "ㅁ ㅐ</w>",
      "ㅂㅏ ㄷㅏ",
      "ㅇㅣㄹ ㄲㅏㅈㅣ</w>",
      "ㄴㅔ ㄷㅓ",
      "ㅇㅣㄴ ㄱㅜㄴㅡㄴ</w>",
      "ㄷㅐ ㄱㅏ</w>",
      "ㅎㅘ ㄱㅏ</w>",
      "ㅈㅣ ㄱㅗ</w>",
      "ㅇㅟ ㅇㅝㄴ</w>",
      "ㅍㅔ ㄹㅡ",
      "i s</w>",
      "199 2ㄴㅕㄴ</w>",
      "ㅈㅏㄱ ㅇㅛㅇ",
      "ㄴㅔㄷㅓ ㄹㄹㅏㄴ",
      "ㄷㅐ ㅍㅛ</w>",
      "ㅏㄹ ㅣ",
      "ㅅㅡ ㅋㅡ",
      "ㅈㅏㅇ ㅇㅔ</w>",
      ") ㄱㅘ</w>",
      "ㅎㅐㅇ ㄷㅗㅇ",
      "ㄴ ㅔ</w>",
      "ㄴㅡ ㅇ</w>",
      "20 ㅇㅣㄹ</w>",
      "ㅇㅢ ㅇㅝㄴ</w>",
      "ㅅㅡ )</w>",
      "ㅈㅔ ㄱ",
      "ㅌㅡ ㄴㅡㄴ</w>",
      "st yle",
      "ㅇㅣㅁ ㅇㅡㄹ</w>",
      "( H",
      "ㅇㅐㄹ ㅂㅓㅁ</w>",
      "ㅅㅜ ㄹㅗ</w>",
      "ㅁ ㅏㅁ",
      "ㄱㅣ ㄹ</w>",
      "ㅍㅏㄴ ㅁㅐ",
      "ㄷㅗㅋ ㅛ",
      "ㅅㅣㄹ ㅅㅣ",
      "ㄱㅕㄹ ㅅㅡㅇ",
      "ㅇㅕㄱㅎㅏㄹ ㅇㅡㄹ</w>",
      "ㅇㅗ ㅍㅡ",
      "9 ㄴㅕㄴ)</w>",
      "3 .",
      "u c",
      "ㅇㅟㅇㅝㄴ ㅎㅚ",
      "ㅎㅐㅆ ㅇㅡㅁㅕ</w>",
      "ㅅㅓㅇ ㅇㅜ",
      "ㅅㅏㅇ ㅘ</w>",
      "ㅅㅏㄹ ㅕㅇ",
      "ㄱㅘㅇ ㅈㅜ",
      "ㅇ ㅚ</w>",
      "1 ㄴㅕㄴ",
      "ㅏㄹ ㅗ</w>",
      "ㄷㅣ ㅈㅣ",
      "ㄹㅏ ㄷㅣㅇㅗ</w>",
      "ㅇㅛ ㄱㅜ",
      "ㅇㅣㄴ ,</w>",
      "ㅁㅣ ㅇㅑ",
      "18 7",
      "u b",
      "ㄷㅐ ㄴㅡㄴ</w>",
      "ㅇㅣㅆ ㄷㅏㄱㅗ</w>",
      "ㄱㅘ ㄴㅡㄴ</w>",
      "ㅎㅡ ㄴ",
      "ㅁㅣㄴㅈㅜ ㅈㅜㅇㅢ",
      "ㄷㅚ ㅇㅓ",
      "ㅂㅜ ㅌㅓ",
      "ㅅㅔㄴ ㅌㅓ</w>",
      "ㅋㅐ ㅁ",
      "ㅈㅣ ㅎㅟ",
      "ㄱㅣㅈㅜㄴ ㅇㅡㄹㅗ</w>",
      "ㅂㅏㄷ ㄱㅗ</w>",
      "ㅅㅣ ㅅㅓㄹ",
      "ㅁㅕㅇ ㅇㅡㄴ</w>",
      "ㅇㅟ ㅇㅢ</w>",
      "5 ㅇㅣㄹ</w>",
      "ㅇㅔ ㄴㅓ",
      "ㄹㅠ ㄱ",
      "ㅅㅣ ㅈㅓㄹ</w>",
      "a t</w>",
      "ㅍㅗㄹ ㄹㅏㄴ",
      "ㅅㅓㅇ ㅇㅡㄴ</w>",
      "ㄴㅓ ㄼ",
      "ㄹㅣ ㄱㅡㅇㅢ</w>",
      "ㅇㅣㄴ ㄱㅏㄴ",
      "ㅇㅣㄴ ㅌㅓ",
      "ㅊㅜㄹ ㅅㅣ",
      "ㅎㅕㄴㅈㅐ ㅇㅢ</w>",
      "ㅇㅕㄱ ㅇㅡㄹ</w>",
      "30 ㅇㅣㄹ</w>",
      "ㅇㅗㅅㅡㅌㅡㄹ ㅔㅇㅣㄹ",
      "ar t",
      "el l",
      "r an",
      "ㅂㅓㄴㅉ ㅐ",
      "ㄱㅡㄹ ㅡㄹ</w>",
      "ㄲ ㅐ",
      "ㅂㅜ ㄴㅡㄴ</w>",
      "ㅇㅕㄴ ㅈㅜ",
      "ㅅㅣㅈㅏㄱ ㅎㅐㅆㄷㅏ.</w>",
      "ㅏㄹ ㅡㄹ</w>",
      "ㅉ ㅏ",
      "ㅇㅣㅇㅓㅆ ㄷㅓㄴ</w>",
      "ㅊㅓㅇㅡㅁ ㅇㅡㄹㅗ</w>",
      "A n",
      "ㅎㅗ ㄹㅡㄹ</w>",
      "ㅈㅣ ㄱㅜ",
      "3 6",
      "ㅈㅜㅇ ㄱㅜㄱㅇㅢ</w>",
      "ㄱㅗㅇ ㅅㅏㄴ",
      "ㅇㅝㄹㄷㅡ ㅋㅓㅂ</w>",
      "ㄹㅏㅇ ㅜㄴ",
      "ㅇㅗㄹ ㅐ",
      "ㅁㅏㄴ ㅇㅔ</w>",
      "ㄷㅗ ㅇㅣㅂ",
      "t o</w>",
      "ㅇㅏㄴ ㅇㅔ</w>",
      "ㅂㅣ ㅍㅏㄴ",
      "ㄸㅡㅅ ㅇㅡㄴ</w>",
      "ㅈㅓㄴ ㄹㅏㄴ",
      "ㅌㅡㄱ ㅈㅣㅇ",
      "ㅇㅏ ㅋㅏ",
      "ㅇㅓ ㄴㅡㄴ</w>",
      "ㅁㅕㅇ ㅊㅣㅇ",
      "style =\"",
      "ㅅ ㅇㅡㄹ</w>",
      "18 6",
      "ㅇㅕ ㄹ</w>",
      "ㅇㅠ ㅇㅣㄹ",
      "ㅅㅔㄴ ㅌㅓ",
      "ㅂㅏㅇ ㅎㅑㅇ",
      "ㅇㅗ ㄻ",
      "ㅍㅕㅇ ㄱㅏ",
      "ㅇㅜ ㅇ",
      "un d",
      "3 ㄴㅕㄴ",
      "ㅅㅔ ㅇㅝ",
      "ㅈㅏㅇ ㅇㅔㅅㅓ</w>",
      "ㅅㅣ ㅁㅣㄴ",
      "o b",
      "ㅏㅇ ㅔ",
      "ㅎㅗ ㄴㅡㄴ</w>",
      "ㄴ ㅚ",
      "ㅇㅜ ㄱ</w>",
      "ㅇㅏㅂㅓ ㅈㅣ</w>",
      "ㅇㅏㄴㅣ ㄴ</w>",
      "ㅈㅣㄱ ㅈㅓㅂ</w>",
      "ㅇㅝㄴ ㅇㅡㄹㅗ</w>",
      "ㅋㅔ ㄴ",
      "ㅇㅣㅁ ㅣ</w>",
      "ㅂ ㅏㅁ",
      "ㅊㅚ ㄱㅗ",
      "ㄱㅜㄱ ㅏㄴ",
      "ㄷㅡ ㄴ",
      "ati on</w>",
      "199 3ㄴㅕㄴ</w>",
      "ㅅㅡ ㅍㅣ",
      "0 e",
      "ㅁㅣㄴ ㅣ",
      "ㅈㅜ ㅇㅣㄴ",
      "ㅂㅣㅅㅡ ㅅ",
      "U E",
      "e v",
      "ㄷㅚㅇㅓㅆ ㄱㅗ</w>",
      "ㅈㅏㄹ ㅛ",
      "ㅋㅡㄹ ㅏ",
      "ㅈㅗㅇ ㅇㅢ</w>",
      "f f",
      "ㅁㅏ ㄷㅏ</w>",
      "4 5",
      "ㅋㅏ ㄴ</w>",
      "re s",
      "ㅈㅓㅇ ㅂㅗ</w>",
      "ㅎㅓ ㅁ</w>",
      "( J",
      "( R",
      "( 1",
      "ㅇㅚㄱㅜㄱ ㅇㅣㄴ</w>",
      "ㅁㅗㅇ ㅑㅇ",
      "ㅅㅜ ,</w>",
      "ㅈㅓㄴㄹㅏㄴ ㅏㅁ",
      "i st",
      "ㄷㅏㅁ ㄷㅏㅇ",
      "( 195",
      "28 ㅇㅣㄹ</w>",
      "3 ㅇㅣㄹ</w>",
      "() ㄱㅏ</w>",
      "e x",
      "ㅂ ㅕㄴ</w>",
      "199 1ㄴㅕㄴ</w>",
      "ㅎㅏ ㅁ</w>",
      "ㅇㅣ ㄱㅣㄷㅗ</w>",
      "ㅍㅗ ㄴ</w>",
      "ㅍ ㅣ</w>",
      "200 9",
      "ㅏㄴ ㄷㅏ.</w>",
      "ㅊㅣ ㄹ",
      "ㅇㅣㅆ ㅇㅡㄹ</w>",
      "ㅇ ㅙ",
      "25 ㅇㅣㄹ</w>",
      "I S",
      "ㄹㅗ ㅂㅓ",
      "ㅇㅕㄴ ㄱㅣ",
      "ㅎㅘㄹㄷㅗㅇ ㅇㅡㄹ</w>",
      "ㅁㅕㅇ ,</w>",
      "ㅇㅣㅆ ㄱㅗ,</w>",
      "ㄷㅏㄴ ㅣ",
      "4 ㅇㅣㄹ</w>",
      "ㄷㅗㄹ ㅇㅏㅇ",
      "ㅇㅣㅌㅏㄹ ㄹㅣㅇㅏ</w>",
      "ㄱㅗㅇ ㅅㅣㄱ",
      "199 0ㄴㅕㄴ</w>",
      "ㅅㅓ ㄹㅡㄹ</w>",
      "ㅁ ㄱㅘ</w>",
      "ㅋㅓ ㄹ</w>",
      "ㅌㅐㅇㅓㄴㅏ ㅆㄷㅏ.</w>",
      "ㅅㅣ ㄷㅐㅇㅢ</w>",
      "ㅈㅔ ㄴ",
      "ㅅㅣ ,</w>",
      "ㅇㅣㄴ ㅣ",
      "ㄹㅣ ㄱ</w>",
      "ㅇㅏㄴ ㅐ",
      "ㅅㅗㅍㅡㅌㅡ ㅇㅞ",
      "ㅇㅟ ㄹㅗ</w>",
      "ㅎㅛ ㄱㅘ",
      "( F",
      "ㅋㅐ ㄹㅣㄱ",
      "ㅇㅗ ㅅㅏ",
      "ㄷㅗㅋ ㅛ</w>",
      "ㄷㅏ ㅂ",
      "ㅇㅜ ㄹㅣ",
      "ㅇㅖ ㅈㅓㅇ",
      "ㅋㅏㅇ ㅘ</w>",
      "ㅍㅡㄹㅗ ㅈㅔㄱ",
      "ㅁㅕㅇ ㅇㅣㄷㅏ.</w>",
      "ㄱㅗ ㄷㅡㅇㅎㅏㄱㄱㅛ",
      "ㅈㅗㄹ ㅇㅓㅂ</w>",
      "ㅈㅜ ㅁㅣㄴ",
      "ㅅㅗㄹ ㅕㄴ",
      "ㅇㅡ ㅂ",
      "e b",
      "ㄱㅏㅇ ㅇㅝㄴ",
      "ㄱㅜㄱ ㄱㅏ</w>",
      "ㅂㅜ ㅇ",
      "ㅇㅗ ㄴㅡㄹ",
      "ㅇㅝㄴ ㅇㅡㄴ</w>",
      "ㅈㅏㄱ ㅇㅓㅂ",
      "ㅏ ,</w>",
      "ㅋㅣ ㅇ",
      "ㄱㅣ ㅂㅏㄴ",
      "198 8ㄴㅕㄴ</w>",
      "ㄴㅗ ㄹㅡ",
      "ㄲ ㅏㅇ",
      "ㄱㅘㅇ ㅇㅕㄱ",
      "ㄷㅡ ㅇㅔ</w>",
      "ㅅㅗㅈㅐ ㄹㅗ</w>",
      "ㅎㅏ ㅈㅏ</w>",
      "ㅎㅐㅆ ㄷㅏㄱㅗ</w>",
      "ㅊㅡ ㅇ</w>",
      "9 0",
      "ㅈㅣ ㅇ</w>",
      "ㅋ ㅔ</w>",
      "ㄱㅗㅇ ㄱㅏㄴ",
      "ㅅㅓ ㄷㅗ</w>",
      "ㄱㅖ ㅅㅗㄱ",
      "ㅈㅓㄱ ㅇㅛㅇ",
      "ㅇㅗ ㄹㅣ",
      "ㅎㅏㄴ ㄷㅏㄱㅗ</w>",
      "ㄱㅓ ㅅ</w>",
      "ㄷㅣ ㅇㅗ",
      "ㅅㅣ ㅁ</w>",
      "ㅇㅏ ㄴㅡㄴ</w>",
      "ㅎㅏㅁ ㅕㄴ",
      "200 8",
      "ㅂㅜ ㅂㅜㄴ</w>",
      "ㅇㅟ ㅎㅏㅇㅕ</w>",
      "198 7ㄴㅕㄴ</w>",
      "ㅈㅏㄱ ㅣ",
      "ㅎㅜ ㅂㅗ",
      "ㅇㅓㅁㅓㄴ ㅣ",
      "ㅅ ㅐ</w>",
      "201 5",
      "ㄱㅣ ㅎㅚㄱ",
      "ㅅㅜ ㅇ",
      "ㅇㅓ ㄱ</w>",
      "ㅇㅓ ㅇㅢ</w>",
      "ㅇㅕㄱ ㅇㅣㅁ",
      "ㅇㅖ ㄹㅡㄹ</w>",
      "ㄱㅕㅇ ㅇㅕㅇ",
      "ㄷㅜ ㄹ",
      "ㅈㅗㅇ ㄱㅛ",
      "ㅇㅏㄹ ㅣ",
      "ㅇㅣㄹ ㅏㄴ</w>",
      "ㅂㅏㄴ ㄷㅐ",
      ". 2",
      "ㅈㅣ ㄹㄹ",
      "i c</w>",
      "ㄱㅓㄴ ㅁㅜㄹ",
      "ㄱㅖ ㄹㅡㄹ</w>",
      "ㅎㅘㄹ ㄷㅗㅇ</w>",
      "ㅈㅓㅇ ㅅㅣㄴ",
      "ㅎㅡ ㅂ",
      "ㄹ ㅑㅇ</w>",
      ") ㅇㅣㄷㅏ.</w>",
      "ㅇㅡ ㅂ</w>",
      "ㅈㅓㄴ ㅌㅗㅇ",
      "ㅊㅣㄴ ㄱㅜ",
      "ㅎㅜ ㄴ</w>",
      "ㄱㅛ ㅈㅏㅇ</w>",
      "4 8",
      "ㅅㅐㅇ ㅁㅜㄹ",
      "ㅎㅐ ㅅㅓㄴㅡㄴ</w>",
      "q u",
      "ㅍㅏ ㅇㅣ",
      "ㄷㅏ (",
      "ㄷㅐ ㅅㅏㅇ</w>",
      "ㅈㅓㅇ ㅇㅢ</w>",
      "7 ㅇㅣㄹ</w>",
      "ㅇㅣㅆ ㄷㅏㄴㅡㄴ</w>",
      "ㅅㅣ ㅁㅏ",
      "i a</w>",
      "ㅆ ㅇㅡㅁㅕ,</w>",
      "en c",
      "ㄱㅜㄱ ㄷㅗ</w>",
      "ㅇㅢ ㅎㅚ",
      "ㄱㅏㅌ ㅗㄹ",
      "ㅅㅠ ㅍㅓ",
      "ti on",
      "ㅅㅓㄴ ㅇㅣ</w>",
      "ㅇㅢ ㅎㅚ</w>",
      "ㅈㅗㅇ ㅎㅏㅂ",
      "ㅎㅘㄱ ㅇㅣㄴ",
      "ㅎㅏㄴ ㄱㅜㄱㅇㅢ</w>",
      "8 ㅇㅣㄹ</w>",
      "ㄷㅡㅇ ㅇㅔ</w>",
      "ㄱㅠ ㄴ</w>",
      "ㅇㅣㅇㄱㅡㄹㄹㅐㄴ ㄷㅡㅇㅢ</w>",
      "ㅅㅏㅇ ㄷㅏㅇ",
      "ou n",
      "ㄱㅗㅇ ㅎㅏㅇ",
      "ㅇㅓ ㄹㅣㄴ",
      "ㅇㅣㅅㅏㅇ ㅇㅢ</w>",
      "A l",
      "ㄷㅗㅇ ,</w>",
      "ㅇㅜ ㅅㅡ</w>",
      "ㅇㅣㄴㅌㅓㄴ ㅔ",
      "ㅊㅏㄹ ㅑㅇ",
      "ㅎㅣ ㅁ",
      "ㅌㅣ ㅇ</w>",
      "ㅅㅓㄴ ㅌㅐㄱ",
      "ㅁㅏㄴ ㄷㅡㄴ</w>",
      "ㅁㅏ ㅇㅡㅁ",
      "ㅎㅏㄱ ㄱㅡㅂ</w>",
      "ㄷㅐ ㅅㅣㄴ</w>",
      "ㄷㅣㅈㅣ ㅌㅓ",
      "ㅅㅓㄹ ㅁㅕㅇ",
      "ㅅㅣㅁ ㅏ</w>",
      "ㅆ ㄷㅏㄱㅗ</w>",
      "ㅊㅓㄹ ㄷㅗㅇㅢ</w>",
      "26 ㅇㅣㄹ</w>",
      "0 ㄴㅕㄴ)</w>",
      "198 9ㄴㅕㄴ</w>",
      "ㅇㅣ ㅇㅘ</w>",
      "ㄱㅜ ㅇㅕㄱ",
      "d e</w>",
      "ㄴㅏ ㅇㅢ</w>",
      "ㅇㅣ ㄱㅓㅅㅇㅡㄴ</w>",
      "ㅊㅔ ㄱㅏ</w>",
      "ㅅㅓㄴ ㅈㅓㅇ",
      "14 ㅇㅣㄹ</w>",
      "ㅂㅏㄱ ㅁㅜㄹ",
      "ㅍㅡㄹㅏㅇ ㅅㅡ",
      "ㅁㅣ ㄷㅣ",
      "ㅇㅜ ㅈㅜ",
      "ㅂㅣ ㅎㅐㅇ",
      "ㅇㅣㄹㅂㅏㄴ ㅈㅓㄱㅇㅡㄹㅗ</w>",
      "ㅌ ㅐ</w>",
      "11 ㅇㅣㄹ</w>",
      "27 ㅇㅣㄹ</w>",
      "ㅇㅣㄴ ㅇㅣㄷㅏ.</w>",
      "ㅂㅗ ㄱ</w>",
      "ㅎㅐ ㄹㅡㄹ</w>",
      "ㄱㅛ ㅇㅠㄱ</w>",
      "ㅇㅕㅇ ㅇㅓ</w>",
      "ㅇㅕㄴ ㅅㅗㄱ",
      "3 8",
      "O S",
      "ㄹ ㅛㅇ",
      "ㅊㅔ ㅇㅠㄱ",
      "ㅂㅜㄴ ㅇㅑ",
      "ㅎ ㅑㅇ</w>",
      "ㅂㅏㅇ ㅇㅕㅇ",
      "ㄱㅓㅈㅜ ㅎㅏㄴ</w>",
      "ㅌ ㅠ",
      "12 ㅇㅣㄹ</w>",
      "3 4",
      "ㅇㅔ ㄹㄹㅣ",
      "ㅈㅡ ㅇ</w>",
      "ㅈㅏㅅㅣㄴ ㅇㅣ</w>",
      "ㄴㅣ ㄷㅏ.</w>",
      "ㅊㅐ ㄱ</w>",
      "16 ㅇㅣㄹ</w>",
      "ㅊㅗㄱ ㅣ</w>",
      "ㄸㅐ ,</w>",
      "9 ㅇㅣㄹ</w>",
      "ㅂㅣ ㅇ",
      "ㄱㅓ ㅊㅕ</w>",
      "ㅅㅣㄱ ㅁㅜㄹ",
      "f t",
      "ㅈㅓㅇ ㅇㅔ</w>",
      "(KBS )</w>",
      "ㅁㅔ ㄱㅅㅣ",
      "ㅌㅗㅇ ㅅㅣㄴ",
      "ㅊㅜ ㄱ</w>",
      "ㅅㅗㅇ ㅠ",
      "ㅌㅣ ㄴ",
      "ㅎㅐㅆ ㅈㅣㅁㅏㄴ</w>",
      "ㅁㅣㄱㅜㄱ ㅇㅣㄴ</w>",
      "2 1ㅇㅣㄹ</w>",
      "ㄷㅡㄹ ㅇㅓ</w>",
      "BS )</w>",
      "17 ㅇㅣㄹ</w>",
      "ㅇㅣ ㅅㅏ",
      "ㅎㅐ ㄷㅏㅇ</w>",
      "18 ㅇㅣㄹ</w>",
      "ㅈㅗ ㅇㅢ</w>",
      "ㅇㅣ ㄲㅡㄹ",
      "ㅈㅔ2 ㅊㅏ</w>",
      "ㅍㅕㄴ ㅅㅓㅇ",
      "c ol",
      "ㅊㅜ ㄱㅏ",
      "ㄷㅏ ㄹㄹ",
      "ㄱㅣ ㅂㅗㄴ",
      "ㅇㅏㅅㅣ ㅇㅏ</w>",
      "ㄹㅕ ㅆㄷㅏ.</w>",
      "ㅁㅠ ㅈㅣ",
      "ㅎㅏㄱ ㅓㄴㅏ</w>",
      "ㄴㅏ ㅂ",
      "ㅈㅜ ㅅㅣ</w>",
      "FC ㅇㅢ</w>",
      "ㅆ ㅡㄹ",
      "6 ㅇㅣㄹ</w>",
      "ㅇㅗㅅㅡㅌㅡㄹ ㅣ",
      "ㅁㅗ ㄹㅣ",
      "ㅂㅣ ㄱㅛ",
      "3 2",
      "ㄹㅡ ㅇ",
      "ㅅㅡㅌ ㅏ</w>",
      "ㅅㅣ ㅇㅏ</w>",
      "ㄹㅏ ㅇㅣㄴ",
      "I I",
      "ㅅㅔ ㅇㅣ",
      "200 7",
      "ㅇㅏㄹ ㄹㅔㄱ",
      "ㅈㅣ ㅅ",
      "ㄷㅡ ㄱㅏ</w>",
      "ㅊㅜ ㅈㅓㅇ",
      "ㅈㅔ 6",
      "3 7",
      "ㄹㅣ ㅇ</w>",
      "ㅐㄴ ㄷㅡ</w>",
      "( K",
      "ㅍㅡ ㅌㅡ</w>",
      "ㄴㅗ ㅅㅓㄴ</w>",
      "ㅅㅡㅌ ㅠ",
      "ㅅ ㅙ",
      "ㅈㅗㄱ ㅓㄴ",
      "ro w",
      "() ㅇㅡㄹㅗ</w>",
      "23 ㅇㅣㄹ</w>",
      "ㄱㅘㄴ ㄱㅖ</w>",
      "ㅌㅐㅇ ㅑㅇ",
      "ㅈㅓㄴ ㅊㅔ</w>",
      "ㅋㅣ ㄴ",
      "ㅝ ㄹ",
      "ㅇㅐㄹ ㅂㅓㅁ",
      "13 ㅇㅣㄹ</w>",
      "ㅍ ㅗㄴㅣ",
      "ㅂㅏ ㅌㅏㅇ",
      "ㅈㅗㅅㅓㄴ ㅇㅢ</w>",
      "ㅁㅐ ㄴ</w>",
      "ㅋㅡㄹㄹㅓ ㅂ</w>",
      "24 ㅇㅣㄹ</w>",
      "ㄱㅣ ,</w>",
      "ㄱㅕ ㅁ</w>",
      "ㅅㅗ ㅅㅗㄱ</w>",
      "ㅍㅡㄹ ㄹㅐ",
      "ㅈㅗㅎ ㅇㅡㄴ</w>",
      "ㅉㅗㄱ ㅇㅔ</w>",
      "ㅌㅡ ㅇㅝ",
      "ㅌㅔ ㄱ",
      "ㅈㅐ ㅍㅏㄴ",
      "ㅑ ㄱ</w>",
      "ㄱㅓ ㄴ</w>",
      "ㄱㅜㄱ ㄹㅣㅂ",
      "ㅇㅣㅆ ㄱㅗ</w>",
      "29 ㅇㅣㄹ</w>",
      "ㅇㅝㄴ ,</w>",
      "ㄹㄹ ㅗㄴ",
      "ㅅ ㅐㄴ",
      "e l</w>",
      "ㅂㅗㄱ ㅗ",
      "ㅈㅓㄴ ㅇㅢ</w>",
      "ㅘ ㅇㅢ</w>",
      "ㅁㅣㄴㅈㅜ ㄷㅏㅇ</w>",
      "ㅅㅗ ㄴㅕㄴ",
      "ㅎㅏㄴ ,</w>",
      "f or",
      "200 6",
      "ㅋ ㅡㄹ</w>",
      "ㅍㅕㅇ ㄱㅏ</w>",
      "ㅇㅗㄹ ㄹㅏ",
      "( 194",
      "ㅈㅜ ,</w>",
      "ㅇㅣ ㅊㅣ",
      "ㄷㅐ ㅅㅣㄴ",
      "ㅈㅏㅇ ㄱㅘㄴ",
      "9 )</w>",
      "ㅇㅗㄹㄹㅣㅁㅍㅣ ㄱ",
      "4 ㄴㅕㄴ",
      "ㅅㅣㅋ ㅕㅆㄷㅏ.</w>",
      "ㅈㅔ ㄱㅜㄱㅇㅢ</w>",
      "A r",
      "ㅇㅓ ㅁ</w>",
      "ㄷㅏㄴ ㅇㅡㄹ</w>",
      "22 ㅇㅣㄹ</w>",
      "ㅌ ㅟ",
      "ㅋ ㅓ</w>",
      "ㅈㅣ ㅂㅐ",
      "ㄷㅐㅂㅜㅂㅜㄴ ㅇㅢ</w>",
      "ㅂㅜ ㅁㅜㄴ",
      "ㄷㅣ ㅇ",
      "ㅈ ㅐㄱ",
      "ㄹㅕ ㄹ",
      "ㅅㅡ ㅋㅔ",
      "ㅅㅣ ㅈㅓㄹ",
      "ㅎㅐㅆ ㅇㅡㄴㅏ</w>",
      "ㅅㅓㄴ ㅇㅓㄴ",
      "ㄱㅐ ㅌㅗㅇ",
      "ㅅㅓㅇ ㄱㅘ</w>",
      "ㅈㅣ ㄷㅗ</w>",
      "ㄷㅔㅇㅣ ㅌㅓ",
      "ㅈㅓㅇ ㅇㅣ</w>",
      "ㅇㅣ ㄷㅡ",
      "ㅈㅓㄴ ㄹㅏ",
      "ㅈㅜㅇㅅㅣㅁ ㅇㅡㄹㅗ</w>",
      "ㅅㅏ ㄹ</w>",
      "ㄷㅡㄹ ㅓ",
      "ㅇㅖ ㅅ</w>",
      "5 ㄴㅕㄴ",
      "ㅇㅡㅁ ㅕㄴ</w>",
      "ㅅㅏ ㅅㅏㅇ",
      "ㅎㅏ ㄹㅜ",
      "ㅌㅔ ㅇㅣㄴ",
      "ㄴㅏㄹ ㅏ",
      "ㅏㅇ ㅔ</w>",
      "UE FA</w>",
      "ㅅㅗ ㅂㅣ",
      "ㅂㅗ ㅎㅗ",
      "ㄱㅏㄹ ㅡ",
      "ㅇㅓ ㅈㅣㄴ</w>",
      "ㅇㅓㄴ ㄱㅡㅂ",
      "ㄱㅣ ㄹㅗㄱ</w>",
      "ㅎㅏ ㅈㅣㅁㅏㄴ,</w>",
      "ㅂㅏㄴ ㅇㅡㅇ",
      "ㄹㅡ ㅁ",
      "ㅅㅗㄱ ㅎㅏㄴㅡㄴ</w>",
      "201 6",
      "ㅍㅡㄹㅗㄱㅡㄹㅐ ㅁ",
      "ㅇㅣㅌㅏㄹ ㄹㅣㅇㅏㅇㅢ</w>",
      "S p",
      "ㅁㅣ ㅅㅏ",
      "ㅇㅑ ㅁㅏ",
      "ㅇㅏㅍㅡㄹㅣ ㅋㅏ</w>",
      "a ,</w>",
      "an g",
      "201 3",
      "ㅅㅣㄹ ㅍㅐ",
      "ㅇㅏㅅㅣ ㅇㅏㄴ</w>",
      "ㄱㅐ ㅇㅣㄴ",
      "ㅎㅏㄱ ㅈㅓㄱ</w>",
      "ㅈㅜ ㄹㅡㄹ</w>",
      "ㄹ ㅜ</w>",
      "ㅋㅏ ㅇㅢ</w>",
      "ㄷㅏ ㄹㅜ",
      "ㅘ ㅆㄷㅏ.</w>",
      "ㅁㅗ ㅁ",
      "ㄸㅏㄹㅡ ㅁㅕㄴ</w>",
      "ㅈㅓㅁ ㅇㅣ</w>",
      "ㅎ ㅕ</w>",
      "ㅇㅣ ㅂ</w>",
      "ㅅㅓㅇ ㅇㅔ</w>",
      "ㅅㅗ ㅅㅓㄹ</w>",
      "ㄹㅡ ㅁ</w>",
      "ㅅㅜㅅㅏㅇ ㅈㅏ</w>",
      "ㅅㅡㅇ ㄹㅣ",
      "S h",
      "ㄸ ㅜ",
      "en t</w>",
      "ㅇㅣ ㅀ",
      "198 6ㄴㅕㄴ</w>",
      "ㅎㅚ ㅅㅏ</w>",
      "ㅌㅣ ㄴ</w>",
      "() ㄹㅗ</w>",
      "ㄱㅖ ㅅㅗㄱ</w>",
      "ㅌㅡ ㄹ</w>",
      "ㅍㅣ ㄱ",
      "ㅈㅣ ㅈㅣ",
      "ㅋㅏㄹ ㅡ",
      "it y</w>",
      "19 ㅇㅣㄹ</w>",
      "ㅊㅗㄱ ㅣ",
      "ㄷㅐㅎㅏㄱ ㅇㅝㄴ</w>",
      "ㅈㅗㅅㅓㄴ ㅁㅣㄴㅈㅜㅈㅜㅇㅢ",
      "e p",
      "ㅇㅓㄴ ㄹㅗㄴ",
      "ㄷㅚㅇㅓㅆ ㅇㅡㅁㅕ</w>",
      "ㅇㅣㄹ ㅓㄴ</w>",
      "ㄷㅡㅇ ㅇㅡㄹㅗ</w>",
      "ㅅㅡ ㅁㅏ",
      "ㅈㅗㅅㅓㄴㅁㅣㄴㅈㅜㅈㅜㅇㅢ ㅇㅣㄴㅁㅣㄴㄱㅗㅇㅎㅘ",
      "ㄱ ㅞ",
      "5 00",
      "ㅈㅏㄱ ㅡ",
      "ㄴㅏㄱ ㅏ",
      "ㅇㅕㅆ ㄷㅓㄴ</w>",
      "ㅂ ㅐㅇ",
      "ㄸㅐㅁㅜㄴ ㅇㅣㄷㅏ.</w>",
      "ㄱㅜ ㅇㅔ</w>",
      "ㅇㅓㄴ ㅇㅓ",
      "201 2",
      "ㄷㅏ ㅁㅕㄴ</w>",
      "ㄷㅚ ㄱㅣ</w>",
      "ㅁㅜㄴㅎㅘ ㅈㅐ</w>",
      "ㅎㅐㅆ ㅇㅡㄹ</w>",
      "ㅇㅓㄴ ㅡ</w>",
      "ㅇㅟ ㄹㄹㅣ",
      ". 5",
      "ㅁㅔㅁ ㅂㅓ",
      "ㅈㅗㅇ ㄹㅠ",
      "ㄱㅜ ㄹㅡㄹ</w>",
      "ㄷㅡ ,</w>",
      "ㄴㅓ ㅎ",
      "ㅂㅓㅂ ㅇㅡㄹ</w>",
      "ㅈㅓㅇㅊㅣ ㅇㅣㄴ</w>",
      "ㅎㅏㄴ ㅍㅕㄴ</w>",
      "ㅇㅣ ㅈㅓㄴ</w>",
      "ㅈㅓㅇ ㄷㅏㅇ",
      "g ro",
      "ㅆ ㅏ",
      "ㄷㅚㅇㅓㅆ ㄷㅓㄴ</w>",
      "ㅇㅝㄴ ㄹㅐ</w>",
      "ㅎㅗ ㄹㅗ</w>",
      "ㅇㅣㄹ ㅇㅣ</w>",
      "A T",
      "ㅌㅡㄹ ㄹㅐㄴ",
      "ㅇㅣㄹ )ㄴㅡㄴ</w>",
      "ㅈㅗㅎ ㅇㅏ",
      "ㅂㅜㄴ ㅅㅓㄱ",
      "ㅎㅕㅇ ㅅㅣㄱ",
      "ㄱㅣ ㄱㅏㄴ",
      "ㅂㅣ ㄱ",
      "ㅋㅐ ㄹㄹㅣ",
      "ㅁㅕㅇ ㄹㅕㅇ",
      "ㄷㅚ ㄱㅗ,</w>",
      "ㅈㅜ ㅇㅔ</w>",
      "ㅋ ㅏㄱ",
      "ㅅㅔ ㄱㅏ</w>",
      "ㅇㅣㄹㅡ ㅁㅇㅡㄴ</w>",
      "ㄱㅕㅇ ㅈㅔ</w>",
      "ㅅㅏ ㅈㅣㄴ",
      "ㄱㅣ ㅍ",
      "ㄷㅐ ㅊㅔ",
      "ㅈㅓㅇ ㅊㅣ</w>",
      "ㅎㅏ ㄷㅗㄹㅗㄱ</w>",
      "u m</w>",
      "ㅍㅗㄹ ㄹㅣ",
      "ㅇㅕㄴ ㄱㅡㄱ</w>",
      "ㅂㅏㄲ ㅇㅔ</w>",
      "ㅁㅕㅇ ㅇㅡㄹㅗ</w>",
      "ㅋㅡㄹ ㄹㅐ",
      "ㅋㅓ ㄹ",
      "ㄱㅏ ㅅㅜ",
      "ㅈㅏㄱ ㅣ</w>",
      "ㄱㅣ ㅎㅚ",
      "( ㄷㅐ",
      "ㅅㅏㅇㅣ ㅇㅢ</w>",
      "ㅈㅡㅇ ㄱㅏ",
      "ㄱㅘㄴ ㄱㅘㅇ",
      "ㅌㅏ ㄴ</w>",
      "ㅊㅚㅊㅗ ㄹㅗ</w>",
      "A R",
      "ㄷㅗㅇ ㅇㅣㄹ",
      "ㅅㅣㅋㅣ ㄴㅡㄴ</w>",
      "ㅎㅐ ㅇㅢ</w>",
      "198 4ㄴㅕㄴ</w>",
      "ㅅㅣㅁ ㅇㅡㄹ</w>",
      "3 9",
      "ㄱㅏ ㅄ",
      "ㄱㅓㅅ ㅇㅔ</w>",
      "ㄹㅏ ㅇㅣㅂ",
      "ㅂㅏㄲ ㅟ",
      "ㅊ ㅕㅆㄷㅏ.</w>",
      "ㅈㅜㅇㅎㅘ ㅇㅣㄴㅁㅣㄴㄱㅗㅇㅎㅘ",
      "ㅇㅔㄴ ㅌㅓ",
      "ㅁㅜ ㄹㅡㄹ</w>",
      "ㅅㅔ ㄹㅡ",
      "ㅂ ㅡㄹ</w>",
      "ㅈㅏㄱ ㄱㅏ</w>",
      "ㅇㅣㅆ ㄱㅔ</w>",
      "ㅈㅔ ㄴㅡㄴ</w>",
      "a )</w>",
      "ㄹㅗ ㅁㅏ",
      "ㅈㅔ ㅈㅜ",
      "ㄷㅏ ㅁ</w>",
      ") ㅇㅡㄹㅗ</w>",
      "ㄹㅣ ㅇㅏ",
      "ㅅㅡㅌ ㅔㅇㅣ",
      "ㅇㅕㄱ ㅇㅡㄹㅗ</w>",
      "ㅇㅓㅄ ㅇㅓㅆ",
      "ㄱㅜ ㄱㅏㄴ</w>",
      "198 5ㄴㅕㄴ</w>",
      "ㄷㅡㄹㅏㅁ ㅏ",
      "ㄱㅓ ㄷㅜ",
      "ㄱㅗㄹ ㅇㅡㄹ</w>",
      "ㅎㅚㄱ ㄷㅡㄱ",
      "ㅅㅡㅌㅡㄹ ㅣ",
      "ㄱㅏㅁㄷㅗㄱ ㅇㅢ</w>",
      "ㅁㅜㄴ ㅎㅘ</w>",
      "ㅈㅜ ㅇㅕㄴ</w>",
      "ㅘ ㄴ</w>",
      "ㅅㅣ ㄴㅡㄴ</w>",
      "ㄴㅔ ㅌㅡㅇㅝ",
      "ㅌㅣ ㅇ",
      "ㅈㅣㅇㅕㄱ ㅇㅔ</w>",
      "ㅂㅜ ㅈㅗㄱ",
      "m ,</w>",
      "ㅇㅣㄴ ㅎㅏㄴ</w>",
      "ㅅㅓㄴ ㅊㅜㄹ",
      "ㄱㅡㄴㅕ ㄴㅡㄴ</w>",
      "ㄱㅕㅇㅅㅏㅇ ㅂㅜㄱㄷㅗ</w>",
      "ㄴㅣ ㄴ",
      "ㅂㅜ ㄱㅏ</w>",
      "ㅊㅣ ㄹㅛ",
      "ㅎㅕㅂ ㅎㅚ",
      "ㄷㅐ ㅈㅜㅇ",
      "ㅋㅗ ㅇㅢ</w>",
      "ㄱㅏ ㄲㅏㅇ",
      "ㅂㅕㄴ ㅎㅘ",
      "ㅁㅓ ㄴ</w>",
      "ㅈㅔ 7",
      "ㅁㅕ ㅊ",
      "s c",
      "ㄴㅏㄹ ㅏㅇㅢ</w>",
      "ㅇㅕ ㅅㅓㅇ</w>",
      "ㄱㅡㄹㅣ ㅅㅡ",
      "ㅆ ㄷㅓㄴ</w>",
      "ㅅㅔ ㄴㅡㄴ</w>",
      "ㅂㅕㄴ ㄱㅕㅇ</w>",
      "a s</w>",
      "ㅁㅜㄹ ㅈㅣㄹ",
      "ㅈ ㅕ",
      "ㅎ ㅔㅇㅣ",
      "ㄱㅐ ㅇㅓㅂ",
      "ㅅㅏㅇ ㅇㅣ</w>",
      "ㄹㅣ ㅇㅘ</w>",
      "ㅅㅓㅇ ㄱㅕㄱ",
      "ㅂㅔ ㄹ</w>",
      "ㄱㅜㄱㅎㅚㅇㅢ ㅇㅝㄴ</w>",
      "ㄱㅏㅇ ㅘ</w>",
      "ㅈㅓㅁ ㅇㅔㅅㅓ</w>",
      "ㅈㅏ ㄷㅡㄹㅇㅡㄴ</w>",
      "ㅌㅡㄱ ㅅㅜ",
      "ㄹㅣ ㄱㅗ</w>",
      "ㅕㄱ ㅇㅡㄹ</w>",
      "ㅋ ㅐㄴ",
      "ㅈㅔ ㄱㅜㄱ</w>",
      "ㄷㅓ ㅂㅜㄹ",
      "ㄱㅏㅈ ㅊㅜ",
      "al l",
      "ㅅㅣ ㅊㅓㅇ",
      "ㅍㅡㄹ ㅏㄴ",
      "ㅁㅕㄴ ㅇㅔ</w>",
      "ㅊ ㅐ</w>",
      "y ,</w>",
      "N e",
      "ㅎㅏ ㄴㅡㄴㄷㅔ</w>",
      "ㅇㅣ ㅈㅓㄱ",
      "ㅁㅣ ㄷ",
      "ㅅㅏ ㄷㅏㄴ",
      "ㄷㅡㄹ ㅗ",
      "ㅇㅏㄴ ㅈㅓㄴ",
      "ㄱㅣ ㅇㅘ</w>",
      "ㅇㅣㄹ ㅏ",
      "ㅍㅗㄹㅡ ㅌㅜ",
      "ㄹㅓㅅㅣ ㅇㅏㅇㅢ</w>",
      "201 0",
      "ㄱㅘㄴ ㅎㅏㄹ",
      "ㅅㅓㄴ ㅇㅡㄴ</w>",
      "ㅇㅣㅂ ㅎㅏㄱ",
      "ㄱㅗ ㄷㅐ</w>",
      "ㅂㅏㄹㅁㅐ ㄷㅚㄴ</w>",
      "ㅌㅣ ㅁㅇㅢ</w>",
      "ㅍㅏㄹ ㅣ",
      "( 2",
      "ㄷㅚ ㅁ",
      "ㅈㅣ ㅂㅏㅇ</w>",
      "ㅁㅗㅅㅡㅂ ㅇㅡㄹ</w>",
      "ㄲ ㅓ",
      "S T",
      "ㅂㅜ ㅁㅜㄴ</w>",
      "ㅅㅏㅇㅛㅇ ㅎㅏㄴㅡㄴ</w>",
      "ㅈㅣ ㅇㅘ</w>",
      "ㄷㅡ ㅇㅔㅅㅓ</w>",
      "ㄴㅏㅌㅏㄴ ㅐ",
      "P ro",
      "ㅃㅏㄹ ㅡ",
      "ㅇㅣ ,</w>",
      "a r</w>",
      "ㅇㅕㄴ ㅂㅏㅇ",
      "ㅋㅔ ㅅ",
      "ㄱㅣ ㄱㅏㄴ</w>",
      "ㅊㅓ ㅅ",
      "ㅅㅗ ㅅㅜ",
      "ㅅㅓ ㅁ</w>",
      "ㅊㅚ ㄱㅗ</w>",
      "ㅎㅏㄴㅏ ㅇㅣㄷㅏ.</w>",
      "201 1",
      "ㅇㅣㅆㅇㅓㅆ ㄷㅓㄴ</w>",
      "ㅅㅣ ㄹㅡㄹ</w>",
      "ㅊㅚ ㄷㅐ</w>",
      "ㅂㅗ ㅇㅣㄴㄷㅏ.</w>",
      "ㄱㅜㄱㅈㅔ ㄱㅗㅇㅎㅏㅇ</w>",
      "ㄸㅏ ㄹ</w>",
      "3 1ㅇㅣㄹ</w>",
      "ㅌㅐ ㅍㅕㅇ",
      "ㅇㅜ ㄹㅣ</w>",
      "( W",
      "ㄷㅔ ㄹ",
      "ㄴㅠ ㅇㅛㄱ",
      "ti c",
      "ㅇ ㅠ</w>",
      "ㅅㅗ ㅇㅢ</w>",
      "ㅈㅔ ㅇㅣㅁ",
      "ㅈㅣ ㅅㅗㄱ",
      "ㅅㅓㄴㅅㅜ ㅇㅣㄷㅏ.</w>",
      "ㅇㅣㄹ ㅇㅔㄴㅡㄴ</w>",
      "ㅎㅕㄴ ㄷㅐ</w>",
      "3 3",
      "ㅇㅔ ㅍㅣ",
      "ㅂㅗ ㅌㅗㅇ</w>",
      "198 3ㄴㅕㄴ</w>",
      "ㅁㅗㄱ ㅍㅛ",
      "ㅂㅜㄹ ㄱㅜ",
      "18 5",
      "ㅇㅣㅆ ㄴㅡㄴㄷㅔ,</w>",
      "ㅁㅐ ㅈ",
      "ㄷㅡㄹ ㅗ</w>",
      "ㅊㅣ ㄱㅏ</w>",
      "ㄱㅖ ㅇㅢ</w>",
      "ㅇㅠ ㅅㅏ",
      "ㅌㅡ ㄱㅏ</w>",
      "ㅆ ㄱㅗ</w>",
      "ㅍㅣ ㅇ",
      "ㅇㅏ ㅈㅜ</w>",
      "ㅁㅣ ㄹㅐ",
      "ㅓ ㅂ</w>",
      "ㅂㅕㄴ ㅎㅗ",
      "ㄱㅗㅅ ㅇㅔ</w>",
      "ㅅㅣㅇ ㄱㅡㄹ",
      "ㅅㅣ ㄹㄹ",
      "ㄱㅗㅇ ㅑㅇ",
      "ㅅㅓㄴ ㅇㅔ</w>",
      "ㅅㅔ ㄹㅡㄹ</w>",
      "u p",
      "ㅇㅝㄴ ㅇㅔ</w>",
      "ㅈㅔ ㅎㅏㄴ",
      "ㅎㅏㅇㅕㅆ ㅇㅡㅁㅕ</w>",
      "ㅎㅏㄱ ㄹㅕㄱ</w>",
      "ㅅㅗㄱ ㅏ</w>",
      "ㄱㅗ ㄹ</w>",
      "ㄱㅐ ㅂㅗㅇ",
      "ㄷㅏ ㄹㄹㅣ</w>",
      "ㄱㅡ ㄷㅡㄹㅇㅢ</w>",
      "ㅋㅐㄹㄹㅣ ㅍㅗㄴㅣ",
      "ㅈㅏㄹ ㅣ</w>",
      "ㅈㅏ ㅇㅣㄴ</w>",
      "ㅌㅗㅇ ㄱㅘ",
      "201 7",
      "198 0ㄴㅕㄴ</w>",
      "ㅇㅢ ㄹㅡㄹ</w>",
      "ㄱㅏㄱ ㅏ</w>",
      "ㅅㅣ ㅍ",
      "ㅎㅏㅁ ㅇㅡㄹㅗㅆㅓ</w>",
      "ㅅ ㅛ</w>",
      "ㄷㅐ ㄱㅜ",
      "ㄱㅔ ㄴ",
      "ㅁㅏㄴ ㅇㅡㄹ</w>",
      "ㅈㅣ ㅈㅣ</w>",
      "ㅂㅡㄹㅏ ㅈㅣㄹ",
      "ㅋㅡㄹㄹㅓ ㅂ",
      "ti on</w>",
      "ㅔ ㄴㅡㄴ</w>",
      "ㅈㅔㅈㅏㄱ ㄷㅚㄴ</w>",
      "or t",
      "ㅇㅓ ㄸㅓ",
      "ㅅㅓㅇ ,</w>",
      "ㅊㅏ ㅇ</w>",
      "198 1ㄴㅕㄴ</w>",
      "b ack",
      "ㅇㅔㅅㅓ ,</w>",
      "198 2ㄴㅕㄴ</w>",
      "ㅂㅜㄴ ㄹㅣ",
      "ㅌ ㅔ</w>",
      "ㅈㅓㅇ ㅎㅘㄱ",
      "ㅇㅠ ㅎㅕㅇ",
      "ㄴㅡ ㄲㅣ",
      "ㅂㅣ ㄹㅡㄹ</w>",
      "ㄷㅗㅇ ㅘ</w>",
      "ㅎㅏㄴㄱㅜㄱ ㅇㅓ</w>",
      "ㅇㅣ ㅅ",
      "ㅅㅏㄹ ㅣ",
      "ㅂㅗㄱ ㅗ</w>",
      "ㄴ ㅐㄱ",
      "ㅎㅔ ㄹ",
      "C om",
      "ㅆㅏㅇ ㅜ",
      "ㄱㅗ ㄷㅡㅇ",
      "ㄷㅔㅇㅣ ㅂㅣ",
      ". c",
      "ㄱㅓㄴㅊㅜㄱ ㅁㅜㄹ</w>",
      "ㅍㅗㅎㅏㅁ ㅎㅏㄴ</w>",
      "ㅎㅏ ㄹㅏ</w>",
      "ㅅ ㅇㅣ</w>",
      "ㄱㅐ ㅂㅏㄹ</w>",
      "ㅈㅜ ㅇㅓㅆㄷㅏ.</w>",
      "ㅎㅜ ㅇㅢ</w>",
      "ㅇㅣㄹ ㅇㅡㄴ</w>",
      "ㄹㅗ ㅇㅢ</w>",
      "ㅂㅡㄹ ㄹㅜ",
      "ㅈㅏㅇ ㅇㅐ",
      "ㅈㅜ ㄴㄷㅏ.</w>",
      "ㄱㅐ ㅎㅕㄱ",
      "ㅇㅣㄴ ㄱㅘ</w>",
      "ㄱㅕㅇㅅㅏㅇ ㄴㅏㅁㄷㅗ</w>",
      "ㅇㅠ ㅈㅓㄴ",
      "201 8",
      "ㅇㅣ ㄷㅡㄹㅇㅡㄴ</w>",
      "ㄱㅓㅅ ㅇㅣㄹㅏㄱㅗ</w>",
      "ㅎㅓ ㅇ",
      "ㅋㅐㄴㅏ ㄷㅏㅇㅢ</w>",
      "ㅇㅠ ㄷㅐ",
      "ㅌㅔㅇㅣㄴ ㅁㅓㄴ",
      "ㅇㅡㄴ ㅎㅐㅇ",
      "ㅅㅜ ㅇㅛㅇ",
      "ㅇㅝㄹ ㄷㅡ</w>",
      "ㅊㅟ ㅇㅣㅁ</w>",
      "ㄱㅘㄴ ㅇㅡㄴ</w>",
      "ㅅㅣㅅㅡㅌㅔ ㅁ</w>",
      "ㅇㅣㄴ ㅇㅡㄹㅗ</w>",
      "ㄱㅏㄹㅣㅋㅣ ㄴㄷㅏ.</w>",
      "C A",
      "ㅅㅓㅇ ㅈㅏㅇ",
      "ㅎㅏㄴ ㅏㅇㅢ</w>",
      "ㅎㅏ ㅇㅢ</w>",
      "ㅈㅓㄴ ㄱㅣ",
      "ㅂㅐ ㄱ</w>",
      "ㄱㅕ ㅆㄷㅏ.</w>",
      "ㄱㅏㅇ ㅎㅘ",
      "ㄹㅔ ㅇㅣ</w>",
      "ㅎㅜ ㅂㅏㄴ",
      "ㄷㅏ ㄹㄹㅓ",
      "MBC )</w>",
      "f or</w>",
      "ㅎㅕㄴㅈㅐ ㄴㅡㄴ</w>",
      "e g",
      "ㅂ ㅠ",
      "ㄷㅚ ㅁㅕ,</w>",
      "ㅈㅜ ㅂㅕㄴ</w>",
      "ㅇㅓ ㄹ</w>",
      "ㅇㅣ ㅁㅣ",
      "ㅅㅏㅇ ㅔㅅㅓ</w>",
      "ㄱㅕ ㄹ</w>",
      "4 7",
      "ㅁㅣ ㅅㅏㅇ</w>",
      "ㅅㅗ ㄴㅕㄴ</w>",
      "ㄴㅏㄴ ㅜ",
      "ㅅㅔ ㅍㅗ",
      "N A",
      "ㅗ ㅅㅓ</w>",
      "ㅇㅣㄹ ㅇㅢ</w>",
      "ㅂㅜ ㅇㅕ",
      "ㅗ ㅇㅢ</w>",
      "ㅈㅓㄴㄹㅏㄴㅏㅁ ㄷㅗ</w>",
      "ㅂㅏㄲ ㅜ",
      "ㅂㅏㄺㅎㅕ ㅆㄷㅏ.</w>",
      "ㅂㅏㄹ ㅏ",
      "e st",
      "ㄷㅗㅇ ㅅㅐㅇ",
      "ㅇㅏㅋㅏ ㄷㅔ",
      "5 5",
      "E n",
      "ㄱㅓㄹ ㅊㅕ</w>",
      "ㅁㅏㄴ ㅇㅣ</w>",
      "ㅇㅣㅇㅠ ㄹㅗ</w>",
      "ar d",
      "ㅅㅜ ㅈㅜㄴ",
      "ㅅㅏ ㅎㅚ</w>",
      "ㅈㅏ ㄷㅡㄹㅇㅣ</w>",
      "gro und",
      "ㅈㅡㄱ ,</w>",
      "200 5",
      "ㅈㅣ ㅅㅏㅇ",
      "an c",
      "ㅂㅗ ㄴㅡㄴ</w>",
      "ㅇㅑ ㄱㅜ",
      "ㅇㅏㄹㄹㅕ ㅈㅣㄴ</w>",
      "ㅅㅣ ㅅㅓㄹ</w>",
      "ㄴㅏㅁ ㅓ",
      "ㅇㅜㅁ ㅈㅣㄱ",
      "ㅌㅡㄹ ㅓ",
      "ㅇㅔ ㄱ",
      "ㅈㅣ ㅇㅔㅅㅓ</w>",
      "ㅅㅣ ㅎㅐㅇ",
      "ㄱㅏㅇ ㅈㅓㅁ",
      "ㄱㅏㄹ ㅗ</w>",
      "ㅈㅜ ㅂㅕㄴ",
      "ㅁㅏㄹ ㅎㅐㅆㄷㅏ.</w>",
      "ㅅㅣㄴ ㄱㅕㅇ",
      "2 ,",
      "ㅂㅜㄹ ㄱㅛ",
      "ㄹㅏ ㅇㅣㄴ</w>",
      "ㅍㅛ ㅈㅜㄴ",
      "ㅅㅣㄴ ㅁㅜㄴ",
      "on t",
      "ㅎㅏㄱ ㄱㅡㅂ",
      "ㅎㅐㅆ ㅈㅣㅁㅏㄴ,</w>",
      "ㅈㅓㅇ ㄱㅠ</w>",
      "ㅂㅏㄹㅁㅐ ㄷㅚㅇㅓㅆㄷㅏ.</w>",
      "ㅎㅜㄴ ㄹㅕㄴ",
      "9 9",
      "ㅎㅐ ㅅㅓㄱ",
      "ㅋㅣ ㅇ</w>",
      "ㄱㅏㄴㅡㅇ ㅎㅏㄴ</w>",
      "ㄷㅚ ㄱㅣㄷㅗ</w>",
      "ㅇㅔㄴㅌㅓ ㅌㅔㅇㅣㄴㅁㅓㄴ",
      "ㄷㅏㅇㅡㅁ ㅇㅡㄹ</w>",
      "ㅇㅘㅇ ㅇㅢ</w>",
      "ㅆ ㅇㅡㅁㅕ</w>",
      "ㅌㅗㅇ ㅇㅣㄹ",
      "ㄷㅗ ㄹ</w>",
      "ㅂㅜ ㄹㄹㅓ",
      "ㄹ ㅇㅢ</w>",
      "a y</w>",
      "ㅇㅣㄹ ㅈㅔ",
      "it h</w>",
      "back ground",
      "ㅇㅛ ㄱ</w>",
      "ㅇㅝ ㄷㅡ</w>",
      "() ㅇㅣㄷㅏ.</w>",
      "ㅇㅣ ㄹㅗ</w>",
      "ㅁㅗㄷㅔ ㄹ</w>",
      "ㅎㅏㄱ ㅔ",
      "ㅡ ㅁ",
      "1 ,</w>",
      "ㅇㅣㄹㅇㅡ ㅋㅣ",
      "ㅎㅏㅇㅕㅆ ㅇㅡㄴㅏ</w>",
      "ㄱㅣㄷㅗㄱ ㄱㅛ",
      "ㄷㅐ ㅎㅏㅇㅕ</w>",
      "ㅇㅓ ㄹㅣㄴ</w>",
      "ㅇㅜ ㅋㅡㄹㅏ",
      "ㄷㅗㄹ ㅇㅏㄱ",
      "ㅇㅣ ㄸㅐ</w>",
      "ㅡ ㅂ",
      "ㅇㅜㅅㅡㅇ ㅇㅡㄹ</w>",
      "ㅇㅘ ㅆㄷㅏ.</w>",
      "ㄹㅏㅇ ㅜ",
      "il l",
      "ㄱㅕㄹ ㅎㅏㅂ",
      "ㅅㅏㄴ ㅇㅡㄹ</w>",
      "ㅈㅜㅇ ㅎㅏㄱㄱㅛ",
      "ㅎㅜ ㅈㅣ",
      "ㅇㅢ ㅎㅏㅇㅕ</w>",
      "ㄹㅠ ㄹ</w>",
      "ㅊㅗ ㄷㅐ</w>",
      "O N",
      "ㄷㅡㅇ ㅘ</w>",
      "ㄹ ㅚ",
      "ㄱㅏㅁ ㅜㄴ",
      "ㅃㅜㄴ ㅁㅏㄴ</w>",
      "ㄱㅗㅇㅎㅘ ㄱㅜㄱ",
      "ㅅㅓㄹ ㄱㅖ",
      "ㅇㅘㄴ ㅈㅓㄴㅎㅣ</w>",
      "ㅌㅡㄹ ㅐ",
      "ㅉㅗㄱ ㅇㅡㄹㅗㄴㅡㄴ</w>",
      "ㅍㅕㅇ ㄱㅠㄴ</w>",
      "ㅋㅓㅁㅍㅠ ㅌㅓ</w>",
      "ㅊㅜ ㅈㅣㄴ",
      "ㅎㅕㅇ ㅇㅡㄹ</w>",
      "ㅇㅔ ㄹ</w>",
      "4 6",
      "ㄹㅜ ㅇㅣ",
      "ㅂㅡㄹ ㅜ",
      "ㄷㅣㅈㅣㅌㅓ ㄹ</w>",
      "ㄹㄹ ㅜ",
      "u d",
      "ㅂㅓㅂ ㄹㅠㄹ",
      "ㅅㅏㄹㅏㅁ ㅇㅣ</w>",
      "ㅅㅓㄴㅅㅜ ㄱㅝㄴ</w>",
      "ㅁㅔ ㄷㅏㄹ",
      "ㅂㅗㅇ ㅠ",
      "ㄸㅐ ㄴㅡㄴ</w>",
      "ㄱㅕㄹ ㅅㅓㅇ",
      "ㅈㅗㅇ ㅑㄱ",
      "ㄱㅕ ㅁ",
      "ou r",
      "ㅂㅜ ,</w>",
      "in e</w>",
      "ㅂㅐ ㅊㅣ",
      "ㅋㅏㅁ ㅔ",
      "ㄷㅓ ㅇㅜㄱ</w>",
      "ㅇㅏㅁ ㅏ",
      "i p",
      "ㅇㅣ ㄺ",
      "ㅎㅐㅆ ㄷㅏㄴㅡㄴ</w>",
      "ㄱㅡ ㄷㅡㄹㅇㅡㄴ</w>",
      "ㅅㅡㅍㅔ ㅇㅣㄴ</w>",
      "ㄷㅗㅇ ㅇㅔ</w>",
      "ㅅ ㅚ",
      "ㅂㅔ ㄴㅔ",
      "ㅅㅜ ㄴ</w>",
      "ㄱㅜㄴ ㅅㅏ",
      "ㅁㅗㄱ ㄹㅗㄱ",
      "ㅁㅏㄴ ㅇㅢ</w>",
      "ㄱㅏ ㅆㄷㅏ.</w>",
      "ㅂㅏㅇ ㅁㅜㄴ",
      "ㄱㅠ ㅁㅗ",
      "ㄴㅏㅇ ㅗ",
      "ㅊㅔ ㄴㅡㄴ</w>",
      "ㅅㅣ ㄹㅗ</w>",
      "ㄷㅣ ㅅㅡ",
      "ㅈㅓㅁ ㄹㅕㅇ",
      "ㄸㅐ ㄲㅏㅈㅣ</w>",
      "ㅎㅏ ㅇㅔ</w>",
      "ㅈㅡ ㅇㅢ</w>",
      "ㅅㅏㅇ ㅇㅔ</w>",
      "ㅎㅘ ㅇㅢ</w>",
      "ㅇㅣ ㅎㅐ",
      "ㅈㅓㄴ ㄱㅣ</w>",
      "ㅂㅏㄹ ㅏㅁ",
      "ㄸㅐㅁㅜㄴ ㅇㅔ,</w>",
      "ㅍㅏㄱ ㅚ",
      "4 .",
      "i b",
      "ㅌㅜ ㅍㅛ",
      "ㅅㅕ ㄹ</w>",
      "ㅁㅏㄴ ㅋㅡ",
      "ㅋㅗㄴ ㅅㅓ",
      "; \"</w>",
      "ㅊㅏ ㄹ</w>",
      "ㄱㅏ ㅇㅣㄷㅏ.</w>",
      "ㅈㅔ ㅇㅏㄴ",
      "ㅁㅏ ㅊㅏㄴ",
      "ㄷㅏㄹ ㅅㅓㅇ",
      "ㅆㅣ ㄱ</w>",
      "ㅈㅔ 8",
      "ㄱㅜ ㅂㅜㄴ",
      "ㄱㅜ ,</w>",
      "ㅌㅡ ㄴ",
      "ㅁㅏㄹ ㅇㅡㄹ</w>",
      "ㅌㅡ ,</w>",
      "ㅇㅢㅁㅣ ㅎㅏㄴㄷㅏ.</w>",
      "ㄹ ㅡㄹ",
      "ㅇㅝㄹ :</w>",
      "ㅇㅔㄴ ㅈㅣㄴ",
      "ㅁㅏㄴ ㅣ",
      "ㅎㅕㅂ ㅎㅚ</w>",
      "ㅂㅣ ㅎㅐ</w>",
      "style=\" background",
      "ㅂㅏㅌㅏㅇ ㅇㅡㄹㅗ</w>",
      ": #",
      "ㅎㅚ ㅈㅏㅇ</w>",
      "ㅍㅏㄹ ㅡ",
      "ㄹㅡ ㄴㅡㄴ</w>",
      "ㅈㅓㅇ ㄷㅗ</w>",
      "ㅇㅠㄱ ㄱㅜㄴ</w>",
      "ㅈㅓㄴ ㅎㅏㄴ</w>",
      "3 .</w>",
      "ic h",
      "ㅅㅓ ㅅㅣㄱ",
      "ㅇㅣㄹㅡ ㅁㅇㅡㄹㅗ</w>",
      "ㅈㅜㅇ ㅇㅔㅅㅓ</w>",
      "ㄷㅏㄴ ㅊㅔ</w>",
      "ㅇㅓ ㄱㅏ</w>",
      "ㅇㅣ ㅅㅣ",
      "ㅈㅜ )</w>",
      "ㅅㅏㅇ ㅇㅡㄴ</w>",
      "ㄷㅡㅇ ㄱㅘ</w>",
      "o h",
      "ㄱㅖ ㅇㅕㄹ",
      "ㅇㅜㄴ ㅇㅕㅇ</w>",
      "ㅈㅜ ㄱㅛ",
      "ㅇㅜ ㅅㅜ",
      "ㅁㅏㅌ ㅇㅏㅆㄷㅏ.</w>",
      "i k",
      "ㅐㅇ ㅘ</w>",
      "ㄷㅔㅂ ㅟ</w>",
      "ㅈㅏ ㅇㅣ",
      "ㅕㅆ ㄷㅓㄴ</w>",
      "n e",
      "ㅁㅏㅊㅏㄴ ㄱㅏㅈㅣ",
      "ㄱㅓ ㄹㅣ",
      "ㅅㅡ ㅁㅣ",
      "ㅇㅠ ㄹㅐ",
      "ㅍㅕㄴ ㅈㅣㅂ",
      "ㅂㅜ ㅇㅣㄴ</w>",
      "ㄷㅡㅇ ㄹㅗㄱ",
      "ㅇㅣ ㅈㅣㅂ",
      "ㄴ ㅗ</w>",
      "ㅏㅇ ㅔㅅㅓ</w>",
      "ㄹㅗ ㄹㅡㄹ</w>",
      "ㄴㅠ ㅇㅛㄱ</w>",
      "ㅎㅏㅂ ㅂㅕㅇ",
      "ㅁㅣㄱㅜㄱ ㅇㅔㅅㅓ</w>",
      "ㅇㅓ ㄹㅕ",
      "ㄴ ㅕ</w>",
      "ㅇㅕ ㄱㅕ",
      "ㅈㅓㅇ ㄷㅗㄹㅗ</w>",
      "ㅌ ㅔㅇㅣ",
      "ㅅㅡㅇ ㄱㅕㄱ",
      "ㅁㅣ ㅇ",
      "B C</w>",
      "ㅌㅡㄹ ㅗ</w>",
      "18 0",
      "ㅊㅏㄹ ㅡㄹ</w>",
      "ㅈㅓㄴ ㅌㅜ</w>",
      "ㄱㅘㄴㄱㅖ ㄹㅡㄹ</w>",
      "ㄷㅔㄴ ㅁㅏ",
      "ㅅㅏㅇ ㅓㅂ</w>",
      "ㄱㅣ ㅈㅐ",
      "ㄷㅜ ㄴ",
      "ㄱㅗㅅ ㅇㅔㅅㅓ</w>",
      "ㅉㅏ ㄼ",
      "ㅎㅚ )</w>",
      "ㅏ ㅁㅣ",
      "197 9ㄴㅕㄴ</w>",
      "ㅈㅓ ㄻ",
      "ㅈㅜ ㄹ</w>",
      "b y</w>",
      "ㅁㅏ ㅆㅡ",
      "ㄷㅐ ㄱㅜㄱ",
      "ㅇㅕ ㅎㅐㅇ",
      "ㅋㅏㅇ ㅣ</w>",
      "ㅊㅏㄹ ㅗ</w>",
      "ㅇㅏㄹㅡ ㅎㅔㄴ",
      "ㅅㅣㄱ (",
      "iv ers",
      "ㅅㅣㅋ ㅕ</w>",
      "ㅇㅛ ㅊㅓㅇ",
      "ㅎㅐㅇ ㅇㅟ",
      "ㅁㅏ ㅅㅏ",
      "( O",
      "ㄱㅣ ㅇㅕ",
      "ㅂㅜㄱ ㅎㅏㄴ",
      "ㅎㅕㅂ ㄹㅕㄱ",
      "ㅌㅡ ㅇㅔㅅㅓ</w>",
      "ㅈㅗ ㅈㅓㅇ",
      "ㅇㅏㄹㅡㅎㅔㄴ ㅌㅣ",
      "0 .",
      "ㅎㅏㄱ ㅇㅡㄹ</w>",
      "7 5",
      "ㅇㅏ ㅇ</w>",
      "ㅇㅜㄹ ㅅㅏㄴ",
      "ㅈㅓㄴ ㅇㅡㄴ</w>",
      "ㅇㅏㄴ ㅏㅇㅜㄴ",
      "ㅇㅣㅆ ㄷㅗㄹㅗㄱ</w>",
      "ㄱㅏㅇ ㄹㅕㄱ",
      "194 5ㄴㅕㄴ</w>",
      "a in",
      "ㅅㅣ ㅇ</w>",
      "ㅈㅔ ㅅㅣ",
      "ㄱㅘㅈㅓㅇ ㅇㅔㅅㅓ</w>",
      "ㅋㅗㅁㅣ ㄷㅣ</w>",
      "ㅋㅐㄹㅣㄱ ㅌㅓ",
      "s h",
      "ㄷㅏ. )</w>",
      "ㅇㅣㄹ ㅂㅏㄴ</w>",
      "ㅇㅓㅄ ㅇㅓㅆㄷㅏ.</w>",
      "ㄷㅏㄴ ㅇㅡㄴ</w>",
      "ㅇㅕㄴ ㄱㅜ</w>",
      "ㅅㅡㅍㅔ ㅇㅣㄴㅇㅢ</w>",
      "km 2",
      "ㅈㅣㄱ ㅇㅡㄹ</w>",
      "ㅋㅡㄹ ㄹㅔ",
      "ㅈㅔㅇㅣㅁ ㅅㅡ</w>",
      "1 .</w>",
      "ㅈㅓㅇ ㅂㅗㄱ",
      "ㄱㅗㅇ ㅅㅏ</w>",
      "ㅇㅜㄴ ㄷㅗㅇ</w>"
    ]
  }
}